{
  "token_to_id": {
    "<PAD>": 0,
    "<UNK>": 1,
    "<BOS>": 2,
    "<EOS>": 3,
    "!": 4,
    "\"": 5,
    "#": 6,
    "$": 7,
    "%": 8,
    "&": 9,
    "'": 10,
    "(": 11,
    ")": 12,
    "*": 13,
    "+": 14,
    ",": 15,
    "-": 16,
    ".": 17,
    "/": 18,
    "0": 19,
    "1": 20,
    "2": 21,
    "3": 22,
    "4": 23,
    "5": 24,
    "6": 25,
    "7": 26,
    "8": 27,
    "9": 28,
    ":": 29,
    ";": 30,
    "<": 31,
    "</w>": 32,
    "=": 33,
    ">": 34,
    "?": 35,
    "@": 36,
    "A": 37,
    "B": 38,
    "C": 39,
    "D": 40,
    "E": 41,
    "F": 42,
    "G": 43,
    "H": 44,
    "I": 45,
    "J": 46,
    "K": 47,
    "L": 48,
    "M": 49,
    "N": 50,
    "O": 51,
    "P": 52,
    "Q": 53,
    "R": 54,
    "S": 55,
    "T": 56,
    "U": 57,
    "V": 58,
    "W": 59,
    "X": 60,
    "Y": 61,
    "Z": 62,
    "[": 63,
    "\\": 64,
    "]": 65,
    "^": 66,
    "_": 67,
    "`": 68,
    "a": 69,
    "b": 70,
    "c": 71,
    "d": 72,
    "e": 73,
    "f": 74,
    "g": 75,
    "h": 76,
    "i": 77,
    "j": 78,
    "k": 79,
    "l": 80,
    "m": 81,
    "n": 82,
    "o": 83,
    "p": 84,
    "q": 85,
    "r": 86,
    "s": 87,
    "t": 88,
    "u": 89,
    "v": 90,
    "w": 91,
    "x": 92,
    "y": 93,
    "z": 94,
    "{": 95,
    "|": 96,
    "}": 97,
    "~": 98,
    "¢": 99,
    "£": 100,
    "¤": 101,
    "¥": 102,
    "§": 103,
    "¨": 104,
    "©": 105,
    "ª": 106,
    "«": 107,
    "¬": 108,
    "¯": 109,
    "°": 110,
    "±": 111,
    "²": 112,
    "³": 113,
    "´": 114,
    "µ": 115,
    "·": 116,
    "¹": 117,
    "»": 118,
    "¼": 119,
    "½": 120,
    "¾": 121,
    "Á": 122,
    "Å": 123,
    "Æ": 124,
    "Ç": 125,
    "È": 126,
    "É": 127,
    "Ó": 128,
    "Ö": 129,
    "×": 130,
    "Ø": 131,
    "Ú": 132,
    "Ü": 133,
    "Þ": 134,
    "ß": 135,
    "à": 136,
    "á": 137,
    "ã": 138,
    "ä": 139,
    "å": 140,
    "æ": 141,
    "ç": 142,
    "è": 143,
    "é": 144,
    "ê": 145,
    "ë": 146,
    "ì": 147,
    "í": 148,
    "ï": 149,
    "ð": 150,
    "ñ": 151,
    "ò": 152,
    "ó": 153,
    "ô": 154,
    "õ": 155,
    "ö": 156,
    "ø": 157,
    "ù": 158,
    "ú": 159,
    "û": 160,
    "ü": 161,
    "ý": 162,
    "Ā": 163,
    "ā": 164,
    "ă": 165,
    "ć": 166,
    "č": 167,
    "Ē": 168,
    "ē": 169,
    "ě": 170,
    "ğ": 171,
    "ī": 172,
    "į": 173,
    "İ": 174,
    "ı": 175,
    "Ł": 176,
    "ł": 177,
    "ń": 178,
    "ň": 179,
    "ŋ": 180,
    "Ō": 181,
    "ō": 182,
    "ŏ": 183,
    "œ": 184,
    "Ś": 185,
    "ś": 186,
    "Ş": 187,
    "ş": 188,
    "Š": 189,
    "š": 190,
    "Ū": 191,
    "ū": 192,
    "ű": 193,
    "Ż": 194,
    "ż": 195,
    "ƒ": 196,
    "ơ": 197,
    "ư": 198,
    "ǎ": 199,
    "ǐ": 200,
    "ǒ": 201,
    "ǔ": 202,
    "ǫ": 203,
    "ɐ": 204,
    "ɑ": 205,
    "ɒ": 206,
    "ɔ": 207,
    "ɕ": 208,
    "ə": 209,
    "ɚ": 210,
    "ɛ": 211,
    "ɜ": 212,
    "ɟ": 213,
    "ɡ": 214,
    "ɨ": 215,
    "ɪ": 216,
    "ɫ": 217,
    "ɭ": 218,
    "ɯ": 219,
    "ɲ": 220,
    "ɳ": 221,
    "ɵ": 222,
    "ɹ": 223,
    "ɻ": 224,
    "ɾ": 225,
    "ʁ": 226,
    "ʂ": 227,
    "ʃ": 228,
    "ʈ": 229,
    "ʊ": 230,
    "ʋ": 231,
    "ʌ": 232,
    "ʎ": 233,
    "ʒ": 234,
    "ʧ": 235,
    "ʨ": 236,
    "ʰ": 237,
    "ʲ": 238,
    "ʷ": 239,
    "ʹ": 240,
    "ʻ": 241,
    "ʼ": 242,
    "ʾ": 243,
    "ʿ": 244,
    "ˈ": 245,
    "ˌ": 246,
    "ː": 247,
    "˙": 248,
    "˚": 249,
    "̀": 250,
    "́": 251,
    "̃": 252,
    "̄": 253,
    "̊": 254,
    "̧": 255,
    "̪": 256,
    "̯": 257,
    "Γ": 258,
    "Δ": 259,
    "Θ": 260,
    "Λ": 261,
    "Μ": 262,
    "Π": 263,
    "Σ": 264,
    "Τ": 265,
    "Φ": 266,
    "Ω": 267,
    "ά": 268,
    "έ": 269,
    "ή": 270,
    "ί": 271,
    "α": 272,
    "β": 273,
    "γ": 274,
    "δ": 275,
    "ε": 276,
    "ζ": 277,
    "η": 278,
    "θ": 279,
    "ι": 280,
    "κ": 281,
    "λ": 282,
    "μ": 283,
    "ν": 284,
    "ξ": 285,
    "ο": 286,
    "π": 287,
    "ρ": 288,
    "ς": 289,
    "σ": 290,
    "τ": 291,
    "υ": 292,
    "φ": 293,
    "χ": 294,
    "ψ": 295,
    "ω": 296,
    "ό": 297,
    "ύ": 298,
    "ώ": 299,
    "ϑ": 300,
    "ϕ": 301,
    "ϵ": 302,
    "Ќ": 303,
    "Ў": 304,
    "А": 305,
    "Б": 306,
    "В": 307,
    "Г": 308,
    "Д": 309,
    "Е": 310,
    "Ж": 311,
    "И": 312,
    "К": 313,
    "Л": 314,
    "М": 315,
    "Н": 316,
    "О": 317,
    "П": 318,
    "С": 319,
    "Т": 320,
    "Ф": 321,
    "Х": 322,
    "Ч": 323,
    "Э": 324,
    "а": 325,
    "б": 326,
    "в": 327,
    "г": 328,
    "д": 329,
    "е": 330,
    "ж": 331,
    "з": 332,
    "и": 333,
    "й": 334,
    "к": 335,
    "л": 336,
    "м": 337,
    "н": 338,
    "о": 339,
    "п": 340,
    "р": 341,
    "с": 342,
    "т": 343,
    "у": 344,
    "х": 345,
    "ц": 346,
    "ч": 347,
    "ш": 348,
    "щ": 349,
    "ы": 350,
    "ь": 351,
    "э": 352,
    "ю": 353,
    "я": 354,
    "ё": 355,
    "і": 356,
    "Қ": 357,
    "қ": 358,
    "ү": 359,
    "ұ": 360,
    "ӑ": 361,
    "ְ": 362,
    "ִ": 363,
    "ֵ": 364,
    "ֶ": 365,
    "ַ": 366,
    "ָ": 367,
    "ֹ": 368,
    "ּ": 369,
    "־": 370,
    "ׁ": 371,
    "א": 372,
    "ב": 373,
    "ג": 374,
    "ד": 375,
    "ה": 376,
    "ו": 377,
    "ז": 378,
    "ח": 379,
    "י": 380,
    "כ": 381,
    "ל": 382,
    "מ": 383,
    "ן": 384,
    "נ": 385,
    "ס": 386,
    "ע": 387,
    "ף": 388,
    "פ": 389,
    "צ": 390,
    "ר": 391,
    "ש": 392,
    "ת": 393,
    "،": 394,
    "؏": 395,
    "ؕ": 396,
    "ء": 397,
    "آ": 398,
    "أ": 399,
    "ؤ": 400,
    "إ": 401,
    "ئ": 402,
    "ا": 403,
    "ب": 404,
    "ة": 405,
    "ت": 406,
    "ث": 407,
    "ج": 408,
    "ح": 409,
    "خ": 410,
    "د": 411,
    "ذ": 412,
    "ر": 413,
    "ز": 414,
    "س": 415,
    "ش": 416,
    "ص": 417,
    "ض": 418,
    "ط": 419,
    "ظ": 420,
    "ع": 421,
    "غ": 422,
    "ف": 423,
    "ق": 424,
    "ك": 425,
    "ل": 426,
    "م": 427,
    "ن": 428,
    "ه": 429,
    "و": 430,
    "ى": 431,
    "ي": 432,
    "ً": 433,
    "ٌ": 434,
    "ٍ": 435,
    "َ": 436,
    "ُ": 437,
    "ِ": 438,
    "ّ": 439,
    "ْ": 440,
    "ٰ": 441,
    "ٱ": 442,
    "ٴ": 443,
    "ٹ": 444,
    "ٽ": 445,
    "پ": 446,
    "چ": 447,
    "ڈ": 448,
    "ڌ": 449,
    "ڑ": 450,
    "ژ": 451,
    "ڤ": 452,
    "ک": 453,
    "ڪ": 454,
    "گ": 455,
    "ڵ": 456,
    "ں": 457,
    "ھ": 458,
    "ہ": 459,
    "ۆ": 460,
    "ۇ": 461,
    "ی": 462,
    "ۍ": 463,
    "ێ": 464,
    "ې": 465,
    "ے": 466,
    "۔": 467,
    "ە": 468,
    "ۡ": 469,
    "ۤ": 470,
    "۱": 471,
    "۵": 472,
    "۹": 473,
    "ܐ": 474,
    "ܓ": 475,
    "ܘ": 476,
    "ܚ": 477,
    "ܝ": 478,
    "ܟ": 479,
    "ܠ": 480,
    "ܡ": 481,
    "ܢ": 482,
    "ހ": 483,
    "ނ": 484,
    "ރ": 485,
    "ބ": 486,
    "ކ": 487,
    "އ": 488,
    "ވ": 489,
    "މ": 490,
    "ދ": 491,
    "ލ": 492,
    "ސ": 493,
    "ޑ": 494,
    "ޙ": 495,
    "ަ": 496,
    "ި": 497,
    "ީ": 498,
    "ު": 499,
    "ް": 500,
    "ँ": 501,
    "ं": 502,
    "ः": 503,
    "अ": 504,
    "आ": 505,
    "इ": 506,
    "ई": 507,
    "उ": 508,
    "ऊ": 509,
    "ऋ": 510,
    "ऍ": 511,
    "ऎ": 512,
    "ए": 513,
    "ऐ": 514,
    "ऑ": 515,
    "ऒ": 516,
    "ओ": 517,
    "औ": 518,
    "क": 519,
    "ख": 520,
    "ग": 521,
    "घ": 522,
    "ङ": 523,
    "च": 524,
    "छ": 525,
    "ज": 526,
    "झ": 527,
    "ञ": 528,
    "ट": 529,
    "ठ": 530,
    "ड": 531,
    "ढ": 532,
    "ण": 533,
    "त": 534,
    "थ": 535,
    "द": 536,
    "ध": 537,
    "न": 538,
    "ऩ": 539,
    "प": 540,
    "फ": 541,
    "ब": 542,
    "भ": 543,
    "म": 544,
    "य": 545,
    "र": 546,
    "ऱ": 547,
    "ल": 548,
    "ळ": 549,
    "ऴ": 550,
    "व": 551,
    "श": 552,
    "ष": 553,
    "स": 554,
    "ह": 555,
    "़": 556,
    "ऽ": 557,
    "ा": 558,
    "ि": 559,
    "ी": 560,
    "ु": 561,
    "ू": 562,
    "ृ": 563,
    "ॄ": 564,
    "ॅ": 565,
    "ॆ": 566,
    "े": 567,
    "ै": 568,
    "ॉ": 569,
    "ॊ": 570,
    "ो": 571,
    "ौ": 572,
    "्": 573,
    "ॏ": 574,
    "ॐ": 575,
    "॑": 576,
    "॓": 577,
    "ॠ": 578,
    "ॢ": 579,
    "।": 580,
    "॥": 581,
    "०": 582,
    "१": 583,
    "२": 584,
    "३": 585,
    "४": 586,
    "५": 587,
    "६": 588,
    "७": 589,
    "८": 590,
    "९": 591,
    "॰": 592,
    "ং": 593,
    "আ": 594,
    "ই": 595,
    "উ": 596,
    "ঊ": 597,
    "ও": 598,
    "ক": 599,
    "খ": 600,
    "গ": 601,
    "ঙ": 602,
    "চ": 603,
    "ছ": 604,
    "জ": 605,
    "ঞ": 606,
    "ট": 607,
    "ড": 608,
    "ণ": 609,
    "ত": 610,
    "থ": 611,
    "দ": 612,
    "ধ": 613,
    "ন": 614,
    "প": 615,
    "ফ": 616,
    "ব": 617,
    "ভ": 618,
    "ম": 619,
    "য": 620,
    "র": 621,
    "ল": 622,
    "শ": 623,
    "ষ": 624,
    "স": 625,
    "হ": 626,
    "়": 627,
    "া": 628,
    "ি": 629,
    "ী": 630,
    "ু": 631,
    "ূ": 632,
    "ৃ": 633,
    "ে": 634,
    "ৈ": 635,
    "ো": 636,
    "ৌ": 637,
    "্": 638,
    "ৰ": 639,
    "৷": 640,
    "ਆ": 641,
    "ਈ": 642,
    "ਉ": 643,
    "ਕ": 644,
    "ਖ": 645,
    "ਘ": 646,
    "ਜ": 647,
    "ਡ": 648,
    "ਣ": 649,
    "ਤ": 650,
    "ਦ": 651,
    "ਧ": 652,
    "ਨ": 653,
    "ਪ": 654,
    "ਫ": 655,
    "ਬ": 656,
    "ਮ": 657,
    "ਰ": 658,
    "ਲ": 659,
    "ਵ": 660,
    "ਸ": 661,
    "ਹ": 662,
    "਼": 663,
    "ਾ": 664,
    "ਿ": 665,
    "ੀ": 666,
    "ੁ": 667,
    "ੂ": 668,
    "ੌ": 669,
    "ੜ": 670,
    "ੰ": 671,
    "ੱ": 672,
    "ં": 673,
    "અ": 674,
    "ઈ": 675,
    "એ": 676,
    "ક": 677,
    "ખ": 678,
    "ગ": 679,
    "ઘ": 680,
    "ચ": 681,
    "જ": 682,
    "ઠ": 683,
    "ડ": 684,
    "ઢ": 685,
    "ણ": 686,
    "ત": 687,
    "દ": 688,
    "ધ": 689,
    "ન": 690,
    "પ": 691,
    "બ": 692,
    "ભ": 693,
    "મ": 694,
    "ય": 695,
    "ર": 696,
    "લ": 697,
    "વ": 698,
    "શ": 699,
    "સ": 700,
    "હ": 701,
    "ા": 702,
    "િ": 703,
    "ી": 704,
    "ુ": 705,
    "ે": 706,
    "ો": 707,
    "્": 708,
    "૪": 709,
    "ଅ": 710,
    "ଗ": 711,
    "ଜ": 712,
    "ଡ": 713,
    "ତ": 714,
    "ଥ": 715,
    "ଦ": 716,
    "ଧ": 717,
    "ନ": 718,
    "ପ": 719,
    "ବ": 720,
    "ଭ": 721,
    "ମ": 722,
    "ର": 723,
    "ସ": 724,
    "ହ": 725,
    "଼": 726,
    "ା": 727,
    "ି": 728,
    "ୀ": 729,
    "ୁ": 730,
    "େ": 731,
    "୍": 732,
    "ୟ": 733,
    "அ": 734,
    "ஆ": 735,
    "இ": 736,
    "உ": 737,
    "எ": 738,
    "க": 739,
    "ங": 740,
    "ச": 741,
    "ஜ": 742,
    "ஞ": 743,
    "ட": 744,
    "ண": 745,
    "த": 746,
    "ந": 747,
    "ன": 748,
    "ப": 749,
    "ம": 750,
    "ய": 751,
    "ர": 752,
    "ற": 753,
    "ல": 754,
    "ள": 755,
    "ழ": 756,
    "வ": 757,
    "ஷ": 758,
    "ஹ": 759,
    "ா": 760,
    "ி": 761,
    "ு": 762,
    "ூ": 763,
    "ெ": 764,
    "ே": 765,
    "ை": 766,
    "ொ": 767,
    "்": 768,
    "ం": 769,
    "అ": 770,
    "ఆ": 771,
    "క": 772,
    "గ": 773,
    "జ": 774,
    "ట": 775,
    "డ": 776,
    "త": 777,
    "ద": 778,
    "ధ": 779,
    "న": 780,
    "ప": 781,
    "బ": 782,
    "మ": 783,
    "ర": 784,
    "ల": 785,
    "వ": 786,
    "శ": 787,
    "ష": 788,
    "స": 789,
    "హ": 790,
    "ా": 791,
    "ి": 792,
    "ు": 793,
    "ూ": 794,
    "ె": 795,
    "ే": 796,
    "ై": 797,
    "్": 798,
    "ಂ": 799,
    "ಅ": 800,
    "ಒ": 801,
    "ಕ": 802,
    "ಗ": 803,
    "ಚ": 804,
    "ಜ": 805,
    "ಟ": 806,
    "ಣ": 807,
    "ತ": 808,
    "ದ": 809,
    "ಧ": 810,
    "ನ": 811,
    "ಪ": 812,
    "ಬ": 813,
    "ಭ": 814,
    "ಮ": 815,
    "ಯ": 816,
    "ರ": 817,
    "ಲ": 818,
    "ಳ": 819,
    "ವ": 820,
    "ಶ": 821,
    "ಸ": 822,
    "ಹ": 823,
    "ಾ": 824,
    "ಿ": 825,
    "ೀ": 826,
    "ು": 827,
    "ೂ": 828,
    "ೆ": 829,
    "್": 830,
    "ം": 831,
    "അ": 832,
    "എ": 833,
    "ക": 834,
    "ഖ": 835,
    "ഗ": 836,
    "ങ": 837,
    "ച": 838,
    "ജ": 839,
    "ഞ": 840,
    "ട": 841,
    "ത": 842,
    "ധ": 843,
    "ന": 844,
    "പ": 845,
    "ഭ": 846,
    "മ": 847,
    "യ": 848,
    "ര": 849,
    "ല": 850,
    "ള": 851,
    "വ": 852,
    "ശ": 853,
    "ഷ": 854,
    "സ": 855,
    "ഹ": 856,
    "ാ": 857,
    "ി": 858,
    "ീ": 859,
    "ു": 860,
    "ൂ": 861,
    "െ": 862,
    "േ": 863,
    "ൊ": 864,
    "ോ": 865,
    "്": 866,
    "ൺ": 867,
    "ൻ": 868,
    "ർ": 869,
    "ං": 870,
    "අ": 871,
    "උ": 872,
    "ක": 873,
    "ග": 874,
    "ජ": 875,
    "ට": 876,
    "ඩ": 877,
    "ණ": 878,
    "ත": 879,
    "ද": 880,
    "න": 881,
    "ප": 882,
    "ම": 883,
    "ය": 884,
    "ර": 885,
    "ල": 886,
    "ව": 887,
    "ස": 888,
    "්": 889,
    "ා": 890,
    "ි": 891,
    "ී": 892,
    "ු": 893,
    "ෙ": 894,
    "ෝ": 895,
    "ก": 896,
    "ข": 897,
    "ค": 898,
    "ง": 899,
    "จ": 900,
    "ช": 901,
    "ญ": 902,
    "ณ": 903,
    "ด": 904,
    "ต": 905,
    "ถ": 906,
    "ท": 907,
    "น": 908,
    "บ": 909,
    "ป": 910,
    "พ": 911,
    "ม": 912,
    "ย": 913,
    "ร": 914,
    "ล": 915,
    "ว": 916,
    "ศ": 917,
    "ษ": 918,
    "ส": 919,
    "ห": 920,
    "อ": 921,
    "ะ": 922,
    "ั": 923,
    "า": 924,
    "ำ": 925,
    "ิ": 926,
    "ี": 927,
    "ื": 928,
    "ุ": 929,
    "ู": 930,
    "เ": 931,
    "แ": 932,
    "โ": 933,
    "ไ": 934,
    "็": 935,
    "่": 936,
    "้": 937,
    "์": 938,
    "๐": 939,
    "๑": 940,
    "๒": 941,
    "๓": 942,
    "๔": 943,
    "๕": 944,
    "๖": 945,
    "๗": 946,
    "๘": 947,
    "๙": 948,
    "ງ": 949,
    "ຈ": 950,
    "ທ": 951,
    "ນ": 952,
    "ຣ": 953,
    "ວ": 954,
    "ັ": 955,
    "ຽ": 956,
    "໌": 957,
    "་": 958,
    "།": 959,
    "ག": 960,
    "ང": 961,
    "ཆ": 962,
    "ཐ": 963,
    "ད": 964,
    "ན": 965,
    "ཕ": 966,
    "བ": 967,
    "མ": 968,
    "ར": 969,
    "ལ": 970,
    "ཤ": 971,
    "ས": 972,
    "ི": 973,
    "ུ": 974,
    "ེ": 975,
    "ོ": 976,
    "ྐ": 977,
    "ྒ": 978,
    "ྣ": 979,
    "ྩ": 980,
    "ྭ": 981,
    "ྱ": 982,
    "ྲ": 983,
    "ླ": 984,
    "က": 985,
    "စ": 986,
    "ဇ": 987,
    "တ": 988,
    "န": 989,
    "မ": 990,
    "ရ": 991,
    "သ": 992,
    "ာ": 993,
    "ိ": 994,
    "ု": 995,
    "ေ": 996,
    "့": 997,
    "္": 998,
    "်": 999,
    "ြ": 1000,
    "ွ": 1001,
    "ት": 1002,
    "ኢ": 1003,
    "ያ": 1004,
    "ዮ": 1005,
    "ጵ": 1006,
    "ក": 1007,
    "ខ": 1008,
    "ឃ": 1009,
    "ង": 1010,
    "ច": 1011,
    "ឌ": 1012,
    "ណ": 1013,
    "ត": 1014,
    "ថ": 1015,
    "ទ": 1016,
    "ន": 1017,
    "ភ": 1018,
    "ម": 1019,
    "រ": 1020,
    "វ": 1021,
    "ឝ": 1022,
    "ស": 1023,
    "ឯ": 1024,
    "ា": 1025,
    "ិ": 1026,
    "ី": 1027,
    "ុ": 1028,
    "ូ": 1029,
    "ៀ": 1030,
    "េ": 1031,
    "ំ": 1032,
    "៊": 1033,
    "់": 1034,
    "៍": 1035,
    "្": 1036,
    "ᠠ": 1037,
    "ᠣ": 1038,
    "ᠤ": 1039,
    "ᠨ": 1040,
    "ᠪ": 1041,
    "ᠮ": 1042,
    "ᠯ": 1043,
    "ᠰ": 1044,
    "ᠶ": 1045,
    "ᡠ": 1046,
    "ᡥ": 1047,
    "ᡳ": 1048,
    "ᱚ": 1049,
    "ᱛ": 1050,
    "ᱜ": 1051,
    "ᱟ": 1052,
    "ᱡ": 1053,
    "ᱤ": 1054,
    "ᱥ": 1055,
    "ᱦ": 1056,
    "ᱨ": 1057,
    "ᱱ": 1058,
    "ᱲ": 1059,
    "ᱵ": 1060,
    "ᱽ": 1061,
    "ᵊ": 1062,
    "ḇ": 1063,
    "ḋ": 1064,
    "ḍ": 1065,
    "Ḥ": 1066,
    "ḥ": 1067,
    "ḫ": 1068,
    "Ḳ": 1069,
    "ḳ": 1070,
    "Ḵ": 1071,
    "ḵ": 1072,
    "ḻ": 1073,
    "ṁ": 1074,
    "ṃ": 1075,
    "ṅ": 1076,
    "ṇ": 1077,
    "ṛ": 1078,
    "ṣ": 1079,
    "Ṭ": 1080,
    "ṭ": 1081,
    "ẏ": 1082,
    "ạ": 1083,
    "ả": 1084,
    "ữ": 1085,
    "ἀ": 1086,
    "ἄ": 1087,
    "ἐ": 1088,
    "ἢ": 1089,
    "Ἢ": 1090,
    "ἰ": 1091,
    "ἱ": 1092,
    "ἴ": 1093,
    "ὅ": 1094,
    "ὐ": 1095,
    "ὖ": 1096,
    "Ὑ": 1097,
    "ὰ": 1098,
    "ὴ": 1099,
    "ὶ": 1100,
    "ᾶ": 1101,
    "ῖ": 1102,
    "​": 1103,
    "‌": 1104,
    "‍": 1105,
    "‎": 1106,
    "‏": 1107,
    "–": 1108,
    "—": 1109,
    "―": 1110,
    "‘": 1111,
    "’": 1112,
    "“": 1113,
    "”": 1114,
    "†": 1115,
    "‡": 1116,
    "•": 1117,
    "…": 1118,
    "′": 1119,
    "″": 1120,
    "⁄": 1121,
    "⁡": 1122,
    "₂": 1123,
    "₄": 1124,
    "₩": 1125,
    "€": 1126,
    "₹": 1127,
    "ℏ": 1128,
    "→": 1129,
    "↓": 1130,
    "↔": 1131,
    "⇔": 1132,
    "∀": 1133,
    "∂": 1134,
    "∃": 1135,
    "∇": 1136,
    "∈": 1137,
    "∑": 1138,
    "−": 1139,
    "∓": 1140,
    "∖": 1141,
    "∗": 1142,
    "∘": 1143,
    "∞": 1144,
    "∧": 1145,
    "∨": 1146,
    "∩": 1147,
    "∫": 1148,
    "∬": 1149,
    "∮": 1150,
    "∴": 1151,
    "≈": 1152,
    "≠": 1153,
    "≡": 1154,
    "≤": 1155,
    "≥": 1156,
    "⊕": 1157,
    "⋅": 1158,
    "⋆": 1159,
    "⋮": 1160,
    "⋯": 1161,
    "⌈": 1162,
    "⌉": 1163,
    "ⓘ": 1164,
    "█": 1165,
    "▢": 1166,
    "◆": 1167,
    "●": 1168,
    "★": 1169,
    "☊": 1170,
    "♥": 1171,
    "➤": 1172,
    "⟨": 1173,
    "⟩": 1174,
    "⟶": 1175,
    "⠁": 1176,
    "⠂": 1177,
    "⠃": 1178,
    "⠄": 1179,
    "⠅": 1180,
    "⠇": 1181,
    "⠈": 1182,
    "⠉": 1183,
    "⠊": 1184,
    "⠌": 1185,
    "⠍": 1186,
    "⠎": 1187,
    "⠏": 1188,
    "⠐": 1189,
    "⠑": 1190,
    "⠒": 1191,
    "⠓": 1192,
    "⠔": 1193,
    "⠕": 1194,
    "⠖": 1195,
    "⠗": 1196,
    "⠘": 1197,
    "⠙": 1198,
    "⠚": 1199,
    "⠛": 1200,
    "⠜": 1201,
    "⠝": 1202,
    "⠞": 1203,
    "⠟": 1204,
    "⠠": 1205,
    "⠡": 1206,
    "⠣": 1207,
    "⠥": 1208,
    "⠧": 1209,
    "⠨": 1210,
    "⠩": 1211,
    "⠪": 1212,
    "⠫": 1213,
    "⠬": 1214,
    "⠭": 1215,
    "⠮": 1216,
    "⠯": 1217,
    "⠰": 1218,
    "⠱": 1219,
    "⠲": 1220,
    "⠳": 1221,
    "⠴": 1222,
    "⠵": 1223,
    "⠸": 1224,
    "⠹": 1225,
    "⠺": 1226,
    "⠻": 1227,
    "⠼": 1228,
    "⠽": 1229,
    "⠾": 1230,
    "⠿": 1231,
    "ⴰ": 1232,
    "ⵍ": 1233,
    "ⵎ": 1234,
    "ⵙ": 1235,
    "、": 1236,
    "「": 1237,
    "」": 1238,
    "あ": 1239,
    "い": 1240,
    "う": 1241,
    "え": 1242,
    "お": 1243,
    "か": 1244,
    "が": 1245,
    "き": 1246,
    "ぐ": 1247,
    "げ": 1248,
    "さ": 1249,
    "し": 1250,
    "す": 1251,
    "た": 1252,
    "ち": 1253,
    "っ": 1254,
    "つ": 1255,
    "な": 1256,
    "の": 1257,
    "は": 1258,
    "ひ": 1259,
    "び": 1260,
    "ぺ": 1261,
    "ぼ": 1262,
    "ぽ": 1263,
    "ま": 1264,
    "み": 1265,
    "も": 1266,
    "ゃ": 1267,
    "や": 1268,
    "ら": 1269,
    "り": 1270,
    "れ": 1271,
    "ん": 1272,
    "ア": 1273,
    "イ": 1274,
    "ェ": 1275,
    "エ": 1276,
    "カ": 1277,
    "キ": 1278,
    "ク": 1279,
    "グ": 1280,
    "コ": 1281,
    "サ": 1282,
    "シ": 1283,
    "ジ": 1284,
    "ス": 1285,
    "ズ": 1286,
    "タ": 1287,
    "ダ": 1288,
    "チ": 1289,
    "ッ": 1290,
    "デ": 1291,
    "ト": 1292,
    "ド": 1293,
    "ナ": 1294,
    "ヌ": 1295,
    "ネ": 1296,
    "ノ": 1297,
    "ハ": 1298,
    "バ": 1299,
    "パ": 1300,
    "ビ": 1301,
    "ベ": 1302,
    "マ": 1303,
    "ミ": 1304,
    "ャ": 1305,
    "ュ": 1306,
    "ラ": 1307,
    "ル": 1308,
    "ン": 1309,
    "・": 1310,
    "ー": 1311,
    "一": 1312,
    "万": 1313,
    "三": 1314,
    "上": 1315,
    "下": 1316,
    "不": 1317,
    "丕": 1318,
    "世": 1319,
    "中": 1320,
    "主": 1321,
    "久": 1322,
    "之": 1323,
    "也": 1324,
    "事": 1325,
    "互": 1326,
    "京": 1327,
    "亭": 1328,
    "人": 1329,
    "仁": 1330,
    "仪": 1331,
    "会": 1332,
    "伝": 1333,
    "伴": 1334,
    "伽": 1335,
    "体": 1336,
    "使": 1337,
    "侠": 1338,
    "侵": 1339,
    "個": 1340,
    "倍": 1341,
    "借": 1342,
    "傳": 1343,
    "党": 1344,
    "公": 1345,
    "六": 1346,
    "兵": 1347,
    "典": 1348,
    "内": 1349,
    "净": 1350,
    "分": 1351,
    "列": 1352,
    "剛": 1353,
    "力": 1354,
    "功": 1355,
    "加": 1356,
    "勝": 1357,
    "勧": 1358,
    "化": 1359,
    "北": 1360,
    "千": 1361,
    "华": 1362,
    "南": 1363,
    "単": 1364,
    "博": 1365,
    "卡": 1366,
    "印": 1367,
    "原": 1368,
    "县": 1369,
    "古": 1370,
    "台": 1371,
    "史": 1372,
    "司": 1373,
    "合": 1374,
    "名": 1375,
    "吳": 1376,
    "吴": 1377,
    "周": 1378,
    "呪": 1379,
    "和": 1380,
    "哈": 1381,
    "商": 1382,
    "器": 1383,
    "四": 1384,
    "国": 1385,
    "图": 1386,
    "國": 1387,
    "地": 1388,
    "坂": 1389,
    "坡": 1390,
    "基": 1391,
    "堂": 1392,
    "墨": 1393,
    "夏": 1394,
    "外": 1395,
    "多": 1396,
    "大": 1397,
    "天": 1398,
    "夫": 1399,
    "央": 1400,
    "失": 1401,
    "奈": 1402,
    "奕": 1403,
    "套": 1404,
    "女": 1405,
    "娥": 1406,
    "娼": 1407,
    "婆": 1408,
    "婦": 1409,
    "子": 1410,
    "字": 1411,
    "孙": 1412,
    "孫": 1413,
    "守": 1414,
    "安": 1415,
    "宝": 1416,
    "宮": 1417,
    "家": 1418,
    "密": 1419,
    "寺": 1420,
    "小": 1421,
    "少": 1422,
    "尼": 1423,
    "屋": 1424,
    "山": 1425,
    "島": 1426,
    "川": 1427,
    "州": 1428,
    "工": 1429,
    "师": 1430,
    "庄": 1431,
    "府": 1432,
    "度": 1433,
    "建": 1434,
    "开": 1435,
    "弁": 1436,
    "式": 1437,
    "形": 1438,
    "彦": 1439,
    "彼": 1440,
    "徳": 1441,
    "德": 1442,
    "心": 1443,
    "思": 1444,
    "性": 1445,
    "恵": 1446,
    "悟": 1447,
    "慈": 1448,
    "慧": 1449,
    "慶": 1450,
    "我": 1451,
    "手": 1452,
    "才": 1453,
    "打": 1454,
    "技": 1455,
    "拳": 1456,
    "持": 1457,
    "搏": 1458,
    "摩": 1459,
    "擂": 1460,
    "效": 1461,
    "散": 1462,
    "文": 1463,
    "斯": 1464,
    "新": 1465,
    "无": 1466,
    "明": 1467,
    "星": 1468,
    "昭": 1469,
    "暁": 1470,
    "書": 1471,
    "曹": 1472,
    "曼": 1473,
    "朝": 1474,
    "木": 1475,
    "本": 1476,
    "术": 1477,
    "朱": 1478,
    "李": 1479,
    "村": 1480,
    "条": 1481,
    "杭": 1482,
    "松": 1483,
    "极": 1484,
    "林": 1485,
    "株": 1486,
    "桑": 1487,
    "條": 1488,
    "械": 1489,
    "森": 1490,
    "業": 1491,
    "欧": 1492,
    "歌": 1493,
    "歐": 1494,
    "正": 1495,
    "步": 1496,
    "武": 1497,
    "毒": 1498,
    "民": 1499,
    "气": 1500,
    "氣": 1501,
    "水": 1502,
    "江": 1503,
    "池": 1504,
    "沙": 1505,
    "河": 1506,
    "泉": 1507,
    "泓": 1508,
    "法": 1509,
    "波": 1510,
    "洪": 1511,
    "派": 1512,
    "流": 1513,
    "浦": 1514,
    "海": 1515,
    "清": 1516,
    "渠": 1517,
    "湘": 1518,
    "源": 1519,
    "滕": 1520,
    "漓": 1521,
    "漢": 1522,
    "瀬": 1523,
    "灵": 1524,
    "無": 1525,
    "熱": 1526,
    "片": 1527,
    "版": 1528,
    "物": 1529,
    "犯": 1530,
    "独": 1531,
    "王": 1532,
    "理": 1533,
    "生": 1534,
    "田": 1535,
    "由": 1536,
    "男": 1537,
    "病": 1538,
    "症": 1539,
    "百": 1540,
    "皇": 1541,
    "相": 1542,
    "省": 1543,
    "真": 1544,
    "研": 1545,
    "礼": 1546,
    "社": 1547,
    "神": 1548,
    "禮": 1549,
    "秋": 1550,
    "立": 1551,
    "篠": 1552,
    "米": 1553,
    "精": 1554,
    "紀": 1555,
    "約": 1556,
    "素": 1557,
    "経": 1558,
    "統": 1559,
    "総": 1560,
    "约": 1561,
    "网": 1562,
    "罗": 1563,
    "美": 1564,
    "義": 1565,
    "老": 1566,
    "考": 1567,
    "者": 1568,
    "育": 1569,
    "腾": 1570,
    "臣": 1571,
    "自": 1572,
    "臺": 1573,
    "舜": 1574,
    "船": 1575,
    "色": 1576,
    "艺": 1577,
    "花": 1578,
    "苏": 1579,
    "苗": 1580,
    "英": 1581,
    "荆": 1582,
    "草": 1583,
    "華": 1584,
    "蕊": 1585,
    "藝": 1586,
    "蘇": 1587,
    "處": 1588,
    "術": 1589,
    "表": 1590,
    "裁": 1591,
    "裂": 1592,
    "觀": 1593,
    "角": 1594,
    "記": 1595,
    "訳": 1596,
    "説": 1597,
    "調": 1598,
    "諾": 1599,
    "讯": 1600,
    "诃": 1601,
    "说": 1602,
    "谱": 1603,
    "谷": 1604,
    "象": 1605,
    "財": 1606,
    "距": 1607,
    "路": 1608,
    "身": 1609,
    "車": 1610,
    "輝": 1611,
    "轲": 1612,
    "辦": 1613,
    "進": 1614,
    "遊": 1615,
    "都": 1616,
    "里": 1617,
    "金": 1618,
    "鎮": 1619,
    "門": 1620,
    "閣": 1621,
    "陈": 1622,
    "陳": 1623,
    "陽": 1624,
    "際": 1625,
    "雁": 1626,
    "離": 1627,
    "雪": 1628,
    "電": 1629,
    "震": 1630,
    "館": 1631,
    "馆": 1632,
    "首": 1633,
    "駐": 1634,
    "马": 1635,
    "驻": 1636,
    "骑": 1637,
    "體": 1638,
    "鶴": 1639,
    "黃": 1640,
    "黄": 1641,
    "黑": 1642,
    "黒": 1643,
    "齡": 1644,
    "齢": 1645,
    "龄": 1646,
    "龙": 1647,
    "꞉": 1648,
    "개": 1649,
    "걸": 1650,
    "고": 1651,
    "곡": 1652,
    "관": 1653,
    "교": 1654,
    "구": 1655,
    "국": 1656,
    "기": 1657,
    "김": 1658,
    "녀": 1659,
    "당": 1660,
    "대": 1661,
    "뎅": 1662,
    "도": 1663,
    "디": 1664,
    "떡": 1665,
    "륜": 1666,
    "리": 1667,
    "막": 1668,
    "멸": 1669,
    "명": 1670,
    "물": 1671,
    "박": 1672,
    "볶": 1673,
    "부": 1674,
    "사": 1675,
    "산": 1676,
    "삼": 1677,
    "상": 1678,
    "생": 1679,
    "선": 1680,
    "성": 1681,
    "슨": 1682,
    "식": 1683,
    "안": 1684,
    "오": 1685,
    "외": 1686,
    "용": 1687,
    "음": 1688,
    "의": 1689,
    "이": 1690,
    "자": 1691,
    "장": 1692,
    "재": 1693,
    "전": 1694,
    "정": 1695,
    "존": 1696,
    "주": 1697,
    "진": 1698,
    "찌": 1699,
    "추": 1700,
    "충": 1701,
    "치": 1702,
    "탕": 1703,
    "택": 1704,
    "통": 1705,
    "평": 1706,
    "피": 1707,
    "해": 1708,
    "회": 1709,
    "휘": 1710,
    "﴾": 1711,
    "﴿": 1712,
    "️": 1713,
    "ﺐ": 1714,
    "ﺣ": 1715,
    "ﻠ": 1716,
    "﻿": 1717,
    "）": 1718,
    "，": 1719,
    "￣": 1720,
    "￼": 1721,
    "𒂍": 1722,
    "𒅍": 1723,
    "𒅎": 1724,
    "𒋼": 1725,
    "𝜙": 1726,
    "🇫": 1727,
    "🇷": 1728,
    "👍": 1729,
    "👪": 1730,
    "😂": 1731,
    "🙏": 1732,
    "े</w>": 1733,
    "ा</w>": 1734,
    "ी</w>": 1735,
    "र</w>": 1736,
    "ं</w>": 1737,
    "के</w>": 1738,
    "्र": 1739,
    "।</w>": 1740,
    "मे": 1741,
    "है": 1742,
    "न</w>": 1743,
    "र्": 1744,
    "क</w>": 1745,
    ",</w>": 1746,
    "में</w>": 1747,
    "त</w>": 1748,
    "स्": 1749,
    "िय": 1750,
    "्य": 1751,
    "==": 1752,
    "ो</w>": 1753,
    "की</w>": 1754,
    "ने</w>": 1755,
    "ार": 1756,
    "प्र": 1757,
    "से</w>": 1758,
    "ों</w>": 1759,
    "ल</w>": 1760,
    "का</w>": 1761,
    "और</w>": 1762,
    "क्": 1763,
    "वि": 1764,
    "स</w>": 1765,
    "ता</w>": 1766,
    "==</w>": 1767,
    "रा": 1768,
    "मा": 1769,
    "ि</w>": 1770,
    "न्": 1771,
    "का": 1772,
    "है।</w>": 1773,
    "त्": 1774,
    "म</w>": 1775,
    "वा": 1776,
    "को</w>": 1777,
    "सा": 1778,
    "य</w>": 1779,
    "लि": 1780,
    "ह</w>": 1781,
    "जा": 1782,
    "एक</w>": 1783,
    "सं": 1784,
    "ना": 1785,
    "कर": 1786,
    ")</w>": 1787,
    "नि": 1788,
    "ए</w>": 1789,
    "िया</w>": 1790,
    "ण</w>": 1791,
    "बा": 1792,
    "ला": 1793,
    "ित</w>": 1794,
    "ग</w>": 1795,
    "हा": 1796,
    "द्": 1797,
    "ट</w>": 1798,
    "हो": 1799,
    "दे": 1800,
    "ना</w>": 1801,
    "द</w>": 1802,
    "ड़": 1803,
    "क्ष": 1804,
    "िक</w>": 1805,
    "्य</w>": 1806,
    "व</w>": 1807,
    "पर</w>": 1808,
    "या</w>": 1809,
    "था": 1810,
    "िल": 1811,
    "ई</w>": 1812,
    "पा": 1813,
    "प</w>": 1814,
    "है</w>": 1815,
    "भी</w>": 1816,
    "हैं": 1817,
    "ड</w>": 1818,
    "ता": 1819,
    "िया": 1820,
    "ते</w>": 1821,
    "रू": 1822,
    "लिए</w>": 1823,
    "सम": 1824,
    "भा": 1825,
    "रि": 1826,
    "हु": 1827,
    "कि": 1828,
    "ती</w>": 1829,
    "ले": 1830,
    "कि</w>": 1831,
    "ति": 1832,
    "या": 1833,
    "ति</w>": 1834,
    "श</w>": 1835,
    "नी</w>": 1836,
    "जि": 1837,
    "ष्": 1838,
    "कर</w>": 1839,
    "हैं।</w>": 1840,
    "ीय</w>": 1841,
    "राज": 1842,
    "त्र": 1843,
    "री</w>": 1844,
    "पु": 1845,
    "सि": 1846,
    "20": 1847,
    "अन": 1848,
    "्या": 1849,
    ".</w>": 1850,
    "ज़": 1851,
    "शा": 1852,
    "ंग": 1853,
    "अप": 1854,
    "थ</w>": 1855,
    "मु": 1856,
    "यह</w>": 1857,
    "कार": 1858,
    "ली</w>": 1859,
    "किया</w>": 1860,
    "मि": 1861,
    "=</w>": 1862,
    "कार</w>": 1863,
    "दा": 1864,
    "ल्": 1865,
    "रूप</w>": 1866,
    "चा": 1867,
    "ें</w>": 1868,
    "भार": 1869,
    "वर्": 1870,
    "इस": 1871,
    "ले</w>": 1872,
    "था</w>": 1873,
    "को": 1874,
    "उत्": 1875,
    "19": 1876,
    "पू": 1877,
    "क्र": 1878,
    "श्": 1879,
    "कु": 1880,
    "ँ</w>": 1881,
    "हि": 1882,
    "===</w>": 1883,
    "गा": 1884,
    "के": 1885,
    "ब</w>": 1886,
    "त्र</w>": 1887,
    "इस</w>": 1888,
    "दि": 1889,
    "ही": 1890,
    "ही</w>": 1891,
    "म्": 1892,
    "ट्र": 1893,
    "है,</w>": 1894,
    "ज</w>": 1895,
    "अध": 1896,
    "ला</w>": 1897,
    "द्व": 1898,
    "ारा</w>": 1899,
    "च</w>": 1900,
    "यो": 1901,
    "ने": 1902,
    "जो</w>": 1903,
    "वे": 1904,
    "से": 1905,
    "लो": 1906,
    "ध</w>": 1907,
    "धा": 1908,
    "सी": 1909,
    "ग्र": 1910,
    "सी</w>": 1911,
    "दी</w>": 1912,
    "दर्": 1913,
    "ियों</w>": 1914,
    "-</w>": 1915,
    "प्": 1916,
    "करने</w>": 1917,
    "जाता</w>": 1918,
    "रो": 1919,
    ":</w>": 1920,
    "ण्": 1921,
    "उप": 1922,
    "गया</w>": 1923,
    "ु</w>": 1924,
    "था।</w>": 1925,
    "स्त": 1926,
    "सर": 1927,
    "शि": 1928,
    "उत्त": 1929,
    "स्थ": 1930,
    "उन्": 1931,
    "स्ट": 1932,
    "उन": 1933,
    "द्वारा</w>": 1934,
    "ओं</w>": 1935,
    "0</w>": 1936,
    "जी": 1937,
    "प्रा": 1938,
    "सु": 1939,
    "स्था": 1940,
    "पर": 1941,
    "साथ</w>": 1942,
    "अनु": 1943,
    "हीं</w>": 1944,
    "ब्": 1945,
    "निर्": 1946,
    "ंड": 1947,
    "कृ": 1948,
    "रह": 1949,
    "फ़": 1950,
    "ी।</w>": 1951,
    "पूर्": 1952,
    "िल्": 1953,
    "रे": 1954,
    "तर": 1955,
    "ंग</w>": 1956,
    "मान": 1957,
    "भारत</w>": 1958,
    "चि": 1959,
    "पह": 1960,
    "हो</w>": 1961,
    "ं,</w>": 1962,
    "नी": 1963,
    "हें</w>": 1964,
    "नहीं</w>": 1965,
    "e</w>": 1966,
    "परि": 1967,
    "दू": 1968,
    "जिस": 1969,
    "े।</w>": 1970,
    "बी": 1971,
    "ज्": 1972,
    "बाद</w>": 1973,
    "ष</w>": 1974,
    "मी": 1975,
    "नों</w>": 1976,
    "देश</w>": 1977,
    "भ</w>": 1978,
    "तक</w>": 1979,
    "अं": 1980,
    "यु": 1981,
    "अपने</w>": 1982,
    "हैं</w>": 1983,
    "उस": 1984,
    "श्र": 1985,
    "सक": 1986,
    "व्य": 1987,
    "मुख": 1988,
    "कार्": 1989,
    "ीन</w>": 1990,
    "ढ़": 1991,
    "वह</w>": 1992,
    "क्षे": 1993,
    "बि": 1994,
    "खा": 1995,
    "टे": 1996,
    "शन</w>": 1997,
    "िया।</w>": 1998,
    "तथा</w>": 1999,
    "\"</w>": 2000,
    "तीय</w>": 2001,
    "मै": 2002,
    "हों": 2003,
    "राज्य</w>": 2004,
    "बे": 2005,
    "वी": 2006,
    "ज्ञ": 2007,
    "सन्": 2008,
    "an": 2009,
    "होंने</w>": 2010,
    "री": 2011,
    "गु": 2012,
    "सू": 2013,
    "टि": 2014,
    "बं": 2015,
    "जा</w>": 2016,
    "देख": 2017,
    "च्": 2018,
    "जन": 2019,
    "1</w>": 2020,
    "मो": 2021,
    "्यू": 2022,
    "मू": 2023,
    "ण्ड</w>": 2024,
    "गो": 2025,
    "कड़": 2026,
    "शु": 2027,
    "ियाँ</w>": 2028,
    "भि": 2029,
    "ंड</w>": 2030,
    "वा</w>": 2031,
    "्रा": 2032,
    "वे</w>": 2033,
    "ट्": 2034,
    "क्त</w>": 2035,
    "ली": 2036,
    "टी": 2037,
    "200": 2038,
    "जै": 2039,
    "रु": 2040,
    "होता</w>": 2041,
    "er": 2042,
    "टी</w>": 2043,
    "मी</w>": 2044,
    "in": 2045,
    "on": 2046,
    "मह": 2047,
    "बाह": 2048,
    "ंद": 2049,
    "2</w>": 2050,
    "कह": 2051,
    "भू": 2052,
    "मान</w>": 2053,
    "सा</w>": 2054,
    "आध": 2055,
    "पी": 2056,
    "वी</w>": 2057,
    "लग": 2058,
    "शे": 2059,
    "हुआ": 2060,
    "पि": 2061,
    "मं": 2062,
    "रा</w>": 2063,
    "टर</w>": 2064,
    "कों</w>": 2065,
    "योग</w>": 2066,
    "छ</w>": 2067,
    "बर</w>": 2068,
    "गया": 2069,
    "त्य": 2070,
    "उत्तरा": 2071,
    "पो": 2072,
    "पे": 2073,
    "s</w>": 2074,
    "ज्ञा": 2075,
    "इन्": 2076,
    "द्ध</w>": 2077,
    "डे": 2078,
    "5</w>": 2079,
    "जी</w>": 2080,
    "फ</w>": 2081,
    "दर्भ</w>": 2082,
    "बना": 2083,
    "खण्ड</w>": 2084,
    "उन्होंने</w>": 2085,
    "में,</w>": 2086,
    "एव": 2087,
    "ती": 2088,
    "कुछ</w>": 2089,
    "निक</w>": 2090,
    "्रे": 2091,
    "स्व": 2092,
    "डि": 2093,
    "प्रति": 2094,
    "निय": 2095,
    "201": 2096,
    "टा": 2097,
    "थे।</w>": 2098,
    "एवं</w>": 2099,
    "िले</w>": 2100,
    "अधि": 2101,
    "ू</w>": 2102,
    "नाम</w>": 2103,
    "उत्तराखण्ड</w>": 2104,
    "न,</w>": 2105,
    "कॉ": 2106,
    "भारतीय</w>": 2107,
    "विश्": 2108,
    "मा</w>": 2109,
    "देश": 2110,
    "ष्ट्र": 2111,
    "or": 2112,
    "दिया</w>": 2113,
    "at": 2114,
    "सम्": 2115,
    "भाष": 2116,
    "सब": 2117,
    "स्थित</w>": 2118,
    "ारी</w>": 2119,
    "लै": 2120,
    "बाहरी</w>": 2121,
    "करते</w>": 2122,
    "हैं,</w>": 2123,
    "दु": 2124,
    "मिल": 2125,
    "दो": 2126,
    "सन्दर्भ</w>": 2127,
    "मिल</w>": 2128,
    "3</w>": 2129,
    "क्षेत्र</w>": 2130,
    "प्त</w>": 2131,
    "चु": 2132,
    "इन</w>": 2133,
    "वाले</w>": 2134,
    "ar": 2135,
    "8</w>": 2136,
    "फिल्": 2137,
    "4</w>": 2138,
    "करता</w>": 2139,
    "बो": 2140,
    "जु": 2141,
    "अन्य</w>": 2142,
    "मार्": 2143,
    "ी,</w>": 2144,
    "सरकार</w>": 2145,
    "होने</w>": 2146,
    "इसके</w>": 2147,
    "al": 2148,
    "कै": 2149,
    "कर्": 2150,
    "ये</w>": 2151,
    "किया।</w>": 2152,
    "तो</w>": 2153,
    "कई</w>": 2154,
    "समय</w>": 2155,
    "),</w>": 2156,
    "उनके</w>": 2157,
    "7</w>": 2158,
    "तु": 2159,
    "6</w>": 2160,
    "बहु": 2161,
    "्यो": 2162,
    "कड़ियाँ</w>": 2163,
    "यू": 2164,
    "गर</w>": 2165,
    "प्रदेश</w>": 2166,
    "सो": 2167,
    "अधिक</w>": 2168,
    "गया।</w>": 2169,
    "d</w>": 2170,
    "जे": 2171,
    "पर्": 2172,
    "क्षा</w>": 2173,
    "इन": 2174,
    "गी": 2175,
    "जन</w>": 2176,
    "लय</w>": 2177,
    "अपनी</w>": 2178,
    "्या</w>": 2179,
    "ंट": 2180,
    "णा": 2181,
    "थी।</w>": 2182,
    "अव": 2183,
    "धि</w>": 2184,
    "ब्र": 2185,
    "ड़ी</w>": 2186,
    "ारे</w>": 2187,
    "सबसे</w>": 2188,
    "फि": 2189,
    "ण्ड": 2190,
    "जो": 2191,
    "राष्ट्र": 2192,
    "रण</w>": 2193,
    "वन</w>": 2194,
    "दा</w>": 2195,
    "ंप": 2196,
    "स्ता": 2197,
    "सर्": 2198,
    "पहले</w>": 2199,
    "होती</w>": 2200,
    "ठ</w>": 2201,
    "समा": 2202,
    "उन्हें</w>": 2203,
    "st": 2204,
    "गि": 2205,
    "इन्हें</w>": 2206,
    "नो": 2207,
    "र्थ": 2208,
    "गत</w>": 2209,
    "द्र": 2210,
    "हुआ</w>": 2211,
    "दो</w>": 2212,
    "किसी</w>": 2213,
    "डा": 2214,
    "तं": 2215,
    "en": 2216,
    "चार</w>": 2217,
    "th": 2218,
    "हुए</w>": 2219,
    "खि": 2220,
    "गों</w>": 2221,
    "कारण</w>": 2222,
    "जब</w>": 2223,
    "बै": 2224,
    "'</w>": 2225,
    "ः</w>": 2226,
    "वै": 2227,
    "ड़</w>": 2228,
    "रख": 2229,
    "न्न</w>": 2230,
    "सकता</w>": 2231,
    "ज़</w>": 2232,
    "िला</w>": 2233,
    "शामिल</w>": 2234,
    "मक</w>": 2235,
    "जिले</w>": 2236,
    "भाग</w>": 2237,
    "ग्रा": 2238,
    "बंध": 2239,
    "देखें</w>": 2240,
    ";</w>": 2241,
    "क्ति</w>": 2242,
    "किन</w>": 2243,
    "अंग": 2244,
    "लों</w>": 2245,
    "शी": 2246,
    "व्या": 2247,
    "स्ट</w>": 2248,
    "तिक</w>": 2249,
    "ारा": 2250,
    "गाँ": 2251,
    "ड़ा</w>": 2252,
    "हर</w>": 2253,
    "प्रभा": 2254,
    "पै": 2255,
    "स्थाप": 2256,
    "र,</w>": 2257,
    "लेकिन</w>": 2258,
    "हे": 2259,
    "दौ": 2260,
    "जू": 2261,
    "महा": 2262,
    "सन</w>": 2263,
    "ते": 2264,
    "a</w>": 2265,
    "त्व</w>": 2266,
    "साइ": 2267,
    "१९": 2268,
    "लेख": 2269,
    "हाँ</w>": 2270,
    "फिल्म</w>": 2271,
    "दि</w>": 2272,
    "रे</w>": 2273,
    "कम</w>": 2274,
    "==।</w>": 2275,
    "9</w>": 2276,
    "बहुत</w>": 2277,
    "न्त": 2278,
    "छो": 2279,
    "ंट</w>": 2280,
    "करण</w>": 2281,
    "खे": 2282,
    "स्थान</w>": 2283,
    "जाती</w>": 2284,
    "अमे": 2285,
    "कारी</w>": 2286,
    "फा": 2287,
    "ic": 2288,
    "की": 2289,
    "सिं": 2290,
    "लिय": 2291,
    "विद": 2292,
    "जैसे</w>": 2293,
    "ंकि</w>": 2294,
    "होते</w>": 2295,
    "२०": 2296,
    "दान</w>": 2297,
    "र्म": 2298,
    "क्षि": 2299,
    "संस्": 2300,
    "निर्मा": 2301,
    "विशे": 2302,
    "कहा</w>": 2303,
    "प्रकार</w>": 2304,
    "अमेरि": 2305,
    "यों</w>": 2306,
    "जन्": 2307,
    "सभी</w>": 2308,
    "गाँव</w>": 2309,
    "ए।</w>": 2310,
    "विधा": 2311,
    "िकार": 2312,
    "द्र</w>": 2313,
    "ग्": 2314,
    "जाने</w>": 2315,
    "बु": 2316,
    "अभि": 2317,
    "तर</w>": 2318,
    "क्रि": 2319,
    "तिहा": 2320,
    "ंख": 2321,
    "उनकी</w>": 2322,
    "अर्": 2323,
    "पूर्ण</w>": 2324,
    "वर</w>": 2325,
    "सार</w>": 2326,
    "उस</w>": 2327,
    "सह": 2328,
    "हां</w>": 2329,
    "इसे</w>": 2330,
    "सद": 2331,
    "था,</w>": 2332,
    "सर</w>": 2333,
    "ियो": 2334,
    "00</w>": 2335,
    "ड़े</w>": 2336,
    "लन</w>": 2337,
    "पुर</w>": 2338,
    "डी": 2339,
    "उसके</w>": 2340,
    "प्रे": 2341,
    "पूर्व</w>": 2342,
    "वर्ष</w>": 2343,
    "आधिकार": 2344,
    "आधिकारिक</w>": 2345,
    "y</w>": 2346,
    "रों</w>": 2347,
    "स्थि": 2348,
    "ौर</w>": 2349,
    "अंग्रे": 2350,
    "हार</w>": 2351,
    "भाषा</w>": 2352,
    "दी": 2353,
    "जिसमें</w>": 2354,
    "199": 2355,
    "गे": 2356,
    "उसे</w>": 2357,
    "t</w>": 2358,
    "वार</w>": 2359,
    "मण्ड": 2360,
    "ंच": 2361,
    "सै": 2362,
    "नु": 2363,
    "वृ": 2364,
    "मौ": 2365,
    "प्राप्त</w>": 2366,
    "मुख</w>": 2367,
    "पश्": 2368,
    "रू</w>": 2369,
    "क,</w>": 2370,
    "उपयोग</w>": 2371,
    "साम": 2372,
    "वर्त": 2373,
    "संख": 2374,
    "ेक</w>": 2375,
    "भा</w>": 2376,
    "त्री</w>": 2377,
    "न्या": 2378,
    "अल": 2379,
    "मध": 2380,
    "दक्षि": 2381,
    "मण्डल</w>": 2382,
    "उत्तर</w>": 2383,
    "पुर": 2384,
    "तरह</w>": 2385,
    "यन</w>": 2386,
    "ष्ट</w>": 2387,
    "र्ट": 2388,
    "ंध": 2389,
    "राष्ट्रीय</w>": 2390,
    "बीच</w>": 2391,
    "वल</w>": 2392,
    "इसका</w>": 2393,
    "काम</w>": 2394,
    "लिख": 2395,
    "मुख्य</w>": 2396,
    "ion": 2397,
    "गए</w>": 2398,
    "चार": 2399,
    "गढ़": 2400,
    "धार": 2401,
    "०</w>": 2402,
    "णी</w>": 2403,
    "युक्त</w>": 2404,
    "ृष्": 2405,
    "र्ड</w>": 2406,
    "बार</w>": 2407,
    "कोई</w>": 2408,
    "क्षण</w>": 2409,
    "योग": 2410,
    "पाद": 2411,
    "जान": 2412,
    "त्व": 2413,
    "ंस</w>": 2414,
    "क्ष</w>": 2415,
    "क्स</w>": 2416,
    "आई": 2417,
    "वाली</w>": 2418,
    "यी</w>": 2419,
    "त्य</w>": 2420,
    "लिया</w>": 2421,
    "टू": 2422,
    "f</w>": 2423,
    "लोगों</w>": 2424,
    "विज्ञा": 2425,
    "जीवन</w>": 2426,
    "टा</w>": 2427,
    "िया,</w>": 2428,
    "कंप": 2429,
    "पत्": 2430,
    "डी</w>": 2431,
    "यर</w>": 2432,
    "प्रमुख</w>": 2433,
    "ं।</w>": 2434,
    "गई</w>": 2435,
    "ंत</w>": 2436,
    "नगर</w>": 2437,
    "तियों</w>": 2438,
    "स्टे": 2439,
    "थी</w>": 2440,
    "लैंड</w>": 2441,
    "ंग्": 2442,
    "टो": 2443,
    "निर्माण</w>": 2444,
    "व्यव": 2445,
    "भिन्न</w>": 2446,
    "स्ट्र": 2447,
    "दूसर": 2448,
    "पास</w>": 2449,
    "प्रका": 2450,
    "रच": 2451,
    "सूच": 2452,
    "करना</w>": 2453,
    "शुरू</w>": 2454,
    "18": 2455,
    "मन</w>": 2456,
    "ंब": 2457,
    "एँ</w>": 2458,
    "रान</w>": 2459,
    "तह": 2460,
    "त्रों</w>": 2461,
    "स,</w>": 2462,
    "हम": 2463,
    "बढ़": 2464,
    "हिन्": 2465,
    "अक्": 2466,
    "कार्य": 2467,
    "वाद</w>": 2468,
    "ल,</w>": 2469,
    "थे</w>": 2470,
    "घट": 2471,
    "तों</w>": 2472,
    "लगा": 2473,
    "केट</w>": 2474,
    "कू": 2475,
    "शो": 2476,
    "च्छ": 2477,
    "फ्": 2478,
    "जन्म</w>": 2479,
    "चे": 2480,
    "सभा</w>": 2481,
    "मों</w>": 2482,
    "जिसे</w>": 2483,
    "विका": 2484,
    "जब": 2485,
    "it": 2486,
    "प्रो": 2487,
    "जाते</w>": 2488,
    "द्ध": 2489,
    "लगभ": 2490,
    "भी": 2491,
    "मित</w>": 2492,
    "रॉ": 2493,
    "हाला": 2494,
    "पं": 2495,
    "लगभग</w>": 2496,
    "े,</w>": 2497,
    "ंश</w>": 2498,
    "ड्": 2499,
    "गण": 2500,
    "खु": 2501,
    "दोनों</w>": 2502,
    "is": 2503,
    "बारे</w>": 2504,
    "विद्या": 2505,
    "ताओं</w>": 2506,
    "गीत</w>": 2507,
    "द,</w>": 2508,
    "दिर</w>": 2509,
    "of</w>": 2510,
    "कृत</w>": 2511,
    "खिला": 2512,
    "रहा</w>": 2513,
    "णा</w>": 2514,
    "स्वा": 2515,
    "ियन</w>": 2516,
    "टन</w>": 2517,
    "इं": 2518,
    "हुई</w>": 2519,
    "इतिहा": 2520,
    "श्य": 2521,
    "निया</w>": 2522,
    "च्च": 2523,
    "काल</w>": 2524,
    "स्त</w>": 2525,
    "की।</w>": 2526,
    "करती</w>": 2527,
    "मृ": 2528,
    "ई।</w>": 2529,
    "ए,</w>": 2530,
    "कुमा": 2531,
    "अध्य": 2532,
    "ख़": 2533,
    "संख्या</w>": 2534,
    "विष": 2535,
    "पश्चि": 2536,
    "लॉ": 2537,
    "पुरस्": 2538,
    "स्प": 2539,
    "कार्य</w>": 2540,
    "लोक": 2541,
    "पार्": 2542,
    "तु</w>": 2543,
    "ro": 2544,
    "फो": 2545,
    "फे": 2546,
    "कता</w>": 2547,
    "es": 2548,
    "तौर</w>": 2549,
    "जिन": 2550,
    "डॉ": 2551,
    "आव": 2552,
    "यक</w>": 2553,
    "न्यू": 2554,
    "बी</w>": 2555,
    "तः</w>": 2556,
    "शब्": 2557,
    "साहि": 2558,
    "केवल</w>": 2559,
    "ओर</w>": 2560,
    "फिर</w>": 2561,
    "बर्": 2562,
    "एस": 2563,
    "णों</w>": 2564,
    "सिंह</w>": 2565,
    "विश्व": 2566,
    "विकास</w>": 2567,
    "र्म</w>": 2568,
    "त,</w>": 2569,
    "त्रि": 2570,
    "198": 2571,
    "उद": 2572,
    "वरी</w>": 2573,
    "आर": 2574,
    "अनुसार</w>": 2575,
    "लु": 2576,
    "ड़ा": 2577,
    "लता</w>": 2578,
    "धार</w>": 2579,
    "शहर</w>": 2580,
    "तीन</w>": 2581,
    "प्रयोग</w>": 2582,
    "जाना</w>": 2583,
    "–</w>": 2584,
    "योज": 2585,
    "सदस्": 2586,
    "कल</w>": 2587,
    "्र</w>": 2588,
    "ब्रि": 2589,
    "रहे</w>": 2590,
    "दौरान</w>": 2591,
    "नाट": 2592,
    "ur": 2593,
    "श्रे": 2594,
    "क्यो": 2595,
    "घा": 2596,
    "आदि</w>": 2597,
    "यहाँ</w>": 2598,
    "विशेष</w>": 2599,
    "विभिन्न</w>": 2600,
    "गै": 2601,
    "नू": 2602,
    "al</w>": 2603,
    "एं</w>": 2604,
    "र-": 2605,
    "शिक्षा</w>": 2606,
    "धि": 2607,
    "la": 2608,
    "विश्व</w>": 2609,
    "ख</w>": 2610,
    "इसकी</w>": 2611,
    "लोग</w>": 2612,
    "फ़</w>": 2613,
    "त्मक</w>": 2614,
    "शा</w>": 2615,
    "व्यक्ति</w>": 2616,
    "20</w>": 2617,
    "पार": 2618,
    "समू": 2619,
    "क़": 2620,
    "सार": 2621,
    "ch": 2622,
    "र्गत</w>": 2623,
    "ॉर्": 2624,
    "दक्षिण</w>": 2625,
    "धन</w>": 2626,
    "पहु": 2627,
    "बन</w>": 2628,
    "इसमें</w>": 2629,
    "खो": 2630,
    "टे</w>": 2631,
    "सकते</w>": 2632,
    "बद": 2633,
    "त्रा</w>": 2634,
    "ज़ी": 2635,
    "ing": 2636,
    "मार": 2637,
    "द्धा": 2638,
    "राजनी": 2639,
    "समु": 2640,
    "क्योंकि</w>": 2641,
    "सर्व": 2642,
    "नव": 2643,
    "चौ": 2644,
    "पुरस्कार</w>": 2645,
    "हिस्": 2646,
    "फी</w>": 2647,
    "दर्शन</w>": 2648,
    "आवश्य": 2649,
    "वीं</w>": 2650,
    "ंक": 2651,
    "कहा": 2652,
    "इतिहास</w>": 2653,
    "पुरा": 2654,
    "माध": 2655,
    "अग": 2656,
    "िय</w>": 2657,
    "चै": 2658,
    "नल</w>": 2659,
    "डिय": 2660,
    "वाला</w>": 2661,
    "ची": 2662,
    "स्था</w>": 2663,
    "हन</w>": 2664,
    "अब</w>": 2665,
    "थी": 2666,
    "विध": 2667,
    "फ़िल्": 2668,
    "अंत": 2669,
    "ंद्र": 2670,
    "ृंख": 2671,
    "ह्": 2672,
    "भूमि": 2673,
    "अलग</w>": 2674,
    "परी": 2675,
    "ंगा": 2676,
    "गठ": 2677,
    "दिन</w>": 2678,
    "मीटर</w>": 2679,
    "ra": 2680,
    "दर</w>": 2681,
    "सामान": 2682,
    "शास्": 2683,
    "स्तु": 2684,
    "माना</w>": 2685,
    "उनका</w>": 2686,
    "the</w>": 2687,
    "दिया।</w>": 2688,
    "क्रिकेट</w>": 2689,
    "लित</w>": 2690,
    "लिये</w>": 2691,
    "दार</w>": 2692,
    "अपना</w>": 2693,
    "किए</w>": 2694,
    "le": 2695,
    "मे</w>": 2696,
    "र्य</w>": 2697,
    "स्थिति</w>": 2698,
    "अन्त": 2699,
    "काल": 2700,
    "ंटर": 2701,
    "मूल</w>": 2702,
    "%</w>": 2703,
    "घो": 2704,
    "नीय</w>": 2705,
    "वित</w>": 2706,
    "धान</w>": 2707,
    "सिद्ध</w>": 2708,
    "उल्": 2709,
    "चीन</w>": 2710,
    "ियां</w>": 2711,
    "चित</w>": 2712,
    "मंदिर</w>": 2713,
    "202": 2714,
    "कला": 2715,
    "आंध": 2716,
    "ंक</w>": 2717,
    "दर्श": 2718,
    "संबंध": 2719,
    "प्रत्य": 2720,
    "कृति</w>": 2721,
    "लिस</w>": 2722,
    "पहली</w>": 2723,
    "फै": 2724,
    "उन</w>": 2725,
    "प्रदान</w>": 2726,
    "ऑफ</w>": 2727,
    "युद्ध</w>": 2728,
    "भे": 2729,
    "बॉ": 2730,
    "विज्ञान</w>": 2731,
    "क्रम</w>": 2732,
    "लर</w>": 2733,
    "डो": 2734,
    "आंध्र</w>": 2735,
    "माल</w>": 2736,
    "जिन्": 2737,
    "वन": 2738,
    "एम": 2739,
    "अंतर": 2740,
    "हिं": 2741,
    "क्ति": 2742,
    "वर्ष": 2743,
    "अप्र": 2744,
    "स्तान</w>": 2745,
    "ट्स</w>": 2746,
    "र्ष": 2747,
    "ंच</w>": 2748,
    "वेब": 2749,
    "विद्यालय</w>": 2750,
    "भो": 2751,
    "197": 2752,
    "सफ": 2753,
    "दिखा": 2754,
    "उसकी</w>": 2755,
    "्यम</w>": 2756,
    "क्रिया</w>": 2757,
    "संयुक्त</w>": 2758,
    "संघ": 2759,
    "and</w>": 2760,
    "सहा": 2761,
    "परिवार</w>": 2762,
    "संगीत</w>": 2763,
    "वान</w>": 2764,
    "नौ": 2765,
    "साल</w>": 2766,
    "क्षा": 2767,
    "नै": 2768,
    "आग": 2769,
    "एक": 2770,
    "ठा": 2771,
    "निक": 2772,
    "चाहि": 2773,
    "शै": 2774,
    "बन": 2775,
    "ृंखला</w>": 2776,
    "ation": 2777,
    "न्त</w>": 2778,
    "च्च</w>": 2779,
    "196": 2780,
    "अति": 2781,
    "टीम</w>": 2782,
    "m</w>": 2783,
    "कुल</w>": 2784,
    "जबकि</w>": 2785,
    "विक": 2786,
    "त्वपूर्ण</w>": 2787,
    "तो": 2788,
    "छा": 2789,
    "तब</w>": 2790,
    "सामा": 2791,
    "जिक</w>": 2792,
    "हुआ।</w>": 2793,
    "षण</w>": 2794,
    "यर": 2795,
    "लिक</w>": 2796,
    "वास</w>": 2797,
    "नदी</w>": 2798,
    "ब्रा": 2799,
    "जिसका</w>": 2800,
    "स्थापित</w>": 2801,
    "दूसरे</w>": 2802,
    "वाल</w>": 2803,
    "प्रथ": 2804,
    "बाद,</w>": 2805,
    "सिक</w>": 2806,
    "इसी</w>": 2807,
    "पति</w>": 2808,
    "चुना": 2809,
    "re": 2810,
    "सित</w>": 2811,
    "पड़": 2812,
    "कहते</w>": 2813,
    "जिसके</w>": 2814,
    "पोर्ट": 2815,
    "अमेरिका</w>": 2816,
    "द्वी": 2817,
    "र्स</w>": 2818,
    ")।</w>": 2819,
    "प्रणा": 2820,
    "ol": 2821,
    "इंटर": 2822,
    "er</w>": 2823,
    "अर": 2824,
    "सिद्धा": 2825,
    "तहसी": 2826,
    "पन</w>": 2827,
    "राजा</w>": 2828,
    "उत्पाद": 2829,
    "जुला": 2830,
    "कृष्": 2831,
    "१</w>": 2832,
    "इंड": 2833,
    "एक्": 2834,
    "त्या": 2835,
    "वेबसाइ": 2836,
    "(अंग्रे": 2837,
    "स्थापना</w>": 2838,
    "il": 2839,
    "10": 2840,
    "फ्र": 2841,
    "{\\": 2842,
    "एन": 2843,
    "॰</w>": 2844,
    "म,</w>": 2845,
    "समझ": 2846,
    "वज": 2847,
    "बड़े</w>": 2848,
    "स्थल</w>": 2849,
    "रुआ": 2850,
    "म्प": 2851,
    "मध्य</w>": 2852,
    "पृष्": 2853,
    "२०१": 2854,
    "पिता</w>": 2855,
    "बंध</w>": 2856,
    "धर्म</w>": 2857,
    "आ</w>": 2858,
    "्यों</w>": 2859,
    "उद्": 2860,
    "बता": 2861,
    "प्रथम</w>": 2862,
    "हर": 2863,
    "वर्तमान</w>": 2864,
    "भाव": 2865,
    "तै": 2866,
    "el": 2867,
    "पी</w>": 2868,
    "सौ": 2869,
    "सां": 2870,
    "विक</w>": 2871,
    "कभी</w>": 2872,
    "बल</w>": 2873,
    "बच्च": 2874,
    "माण": 2875,
    "तहसील</w>": 2876,
    "प्रार": 2877,
    "लाइ": 2878,
    "लक्ष": 2879,
    "बना</w>": 2880,
    "४</w>": 2881,
    "्यु": 2882,
    "अक्टू": 2883,
    "प्रसिद्ध</w>": 2884,
    "शुरुआ": 2885,
    "र्ट</w>": 2886,
    "ब्ल": 2887,
    "लब्": 2888,
    "मद": 2889,
    "अप्रै": 2890,
    "षि</w>": 2891,
    "देता</w>": 2892,
    "अन्तर्गत</w>": 2893,
    "अला": 2894,
    "वर्ण": 2895,
    "लने</w>": 2896,
    "थे,</w>": 2897,
    "यहां</w>": 2898,
    "करा": 2899,
    "प्रति</w>": 2900,
    "ारों</w>": 2901,
    "उदा": 2902,
    "मिक</w>": 2903,
    "पुन": 2904,
    "जग": 2905,
    "परिणा": 2906,
    "दिल्": 2907,
    "नेट</w>": 2908,
    "य,</w>": 2909,
    "सेवा</w>": 2910,
    "ंद्र</w>": 2911,
    "ता,</w>": 2912,
    "सेना</w>": 2913,
    "२</w>": 2914,
    "तृ": 2915,
    "ियर</w>": 2916,
    "वादी</w>": 2917,
    "ंत्र": 2918,
    "महत्वपूर्ण</w>": 2919,
    "कारों</w>": 2920,
    "अभ": 2921,
    "दू</w>": 2922,
    "जाल": 2923,
    "शब्द</w>": 2924,
    "घर</w>": 2925,
    "यता</w>": 2926,
    "टि</w>": 2927,
    "देशों</w>": 2928,
    "ध्या": 2929,
    "19</w>": 2930,
    "स्वी": 2931,
    "५</w>": 2932,
    "सामान्य</w>": 2933,
    "अमेरिकी</w>": 2934,
    "ल्ड</w>": 2935,
    "ई,</w>": 2936,
    "कित्": 2937,
    "मूल": 2938,
    "हिन्दी</w>": 2939,
    "स्तर</w>": 2940,
    "पुलिस</w>": 2941,
    "उपलब्": 2942,
    "रेल": 2943,
    "पोर्टल</w>": 2944,
    "कंपनी</w>": 2945,
    "om": 2946,
    "मेंट</w>": 2947,
    "चिकित्": 2948,
    "ना,</w>": 2949,
    "समूह</w>": 2950,
    "गा</w>": 2951,
    "गढ़</w>": 2952,
    "सामाजिक</w>": 2953,
    "मार्ग</w>": 2954,
    "पता</w>": 2955,
    "जारी</w>": 2956,
    "श्री": 2957,
    "दश": 2958,
    "आधार": 2959,
    "विस्त": 2960,
    "फी": 2961,
    "धी": 2962,
    "शरी": 2963,
    "प्रकाश": 2964,
    "बन्": 2965,
    "उसने</w>": 2966,
    "am": 2967,
    "भु": 2968,
    "इस्त": 2969,
    "ज़ा": 2970,
    "कृतिक</w>": 2971,
    "मंत्री</w>": 2972,
    "(अंग्रेज़ी": 2973,
    "di": 2974,
    "पाल</w>": 2975,
    "देने</w>": 2976,
    "मन्": 2977,
    "मार्च</w>": 2978,
    "पुस्त": 2979,
    "सुर": 2980,
    "६</w>": 2981,
    "ृत</w>": 2982,
    "दे</w>": 2983,
    "पौ": 2984,
    "साथ": 2985,
    "रही</w>": 2986,
    "कुमाऊ": 2987,
    "an</w>": 2988,
    "ंद</w>": 2989,
    "म्ब": 2990,
    "अध्ययन</w>": 2991,
    "अल्": 2992,
    "चा</w>": 2993,
    "खा</w>": 2994,
    "साहित्य</w>": 2995,
    "भाषा": 2996,
    "भूमिका</w>": 2997,
    "विशेष": 2998,
    "नामक</w>": 2999,
    "बड़ी</w>": 3000,
    "क्रा": 3001,
    "मॉ": 3002,
    "देव": 3003,
    "हरण</w>": 3004,
    "तम</w>": 3005,
    "iv": 3006,
    "जून</w>": 3007,
    "डियो</w>": 3008,
    "नर</w>": 3009,
    "माम": 3010,
    "माध्यम</w>": 3011,
    "ण,</w>": 3012,
    "चन</w>": 3013,
    "in</w>": 3014,
    "बिहार</w>": 3015,
    "बात</w>": 3016,
    "आधार</w>": 3017,
    "वेश</w>": 3018,
    "स्वतं": 3019,
    "====</w>": 3020,
    "किल": 3021,
    "निर्वा": 3022,
    "|</w>": 3023,
    "कम": 3024,
    "195": 3025,
    "महारा": 3026,
    "गी</w>": 3027,
    "कुमाऊँ</w>": 3028,
    "कोशि": 3029,
    "धी</w>": 3030,
    "क्रम": 3031,
    "मृत्य": 3032,
    "पानी</w>": 3033,
    "es</w>": 3034,
    "जिससे</w>": 3035,
    "जहां</w>": 3036,
    "प्रया": 3037,
    "थी,</w>": 3038,
    "गर्": 3039,
    "्रो": 3040,
    "ed</w>": 3041,
    "दों</w>": 3042,
    "In": 3043,
    "ग्राम</w>": 3044,
    "हरा": 3045,
    "हालांकि</w>": 3046,
    "प्रत्येक</w>": 3047,
    "न-": 3048,
    "बनाने</w>": 3049,
    "000</w>": 3050,
    "दूर</w>": 3051,
    "194": 3052,
    "le</w>": 3053,
    "उच्च</w>": 3054,
    "शासन</w>": 3055,
    "समी": 3056,
    "प्रभाव</w>": 3057,
    "चे</w>": 3058,
    "त्ता</w>": 3059,
    "ष्ठ</w>": 3060,
    "द्वि": 3061,
    "गल</w>": 3062,
    "i</w>": 3063,
    "वों</w>": 3064,
    "o</w>": 3065,
    "et": 3066,
    "पृ": 3067,
    "पहला</w>": 3068,
    "३</w>": 3069,
    "चित्र</w>": 3070,
    "पाकि": 3071,
    "स्कू": 3072,
    "आप": 3073,
    "अनेक</w>": 3074,
    "लेख</w>": 3075,
    "ियाई</w>": 3076,
    "महिला</w>": 3077,
    "डा</w>": 3078,
    "नित</w>": 3079,
    "द्धि</w>": 3080,
    "श्रृंखला</w>": 3081,
    "नियम</w>": 3082,
    "शास": 3083,
    "र्थ</w>": 3084,
    "सरी</w>": 3085,
    "कृषि</w>": 3086,
    "द्वीप</w>": 3087,
    "मैच</w>": 3088,
    "बर": 3089,
    "इस्ते": 3090,
    "विश्वविद्यालय</w>": 3091,
    "विभाग</w>": 3092,
    "भर</w>": 3093,
    "चुनाव</w>": 3094,
    "ल-": 3095,
    "आम</w>": 3096,
    "पश्चिम</w>": 3097,
    "ऑफ़</w>": 3098,
    "सदस्य</w>": 3099,
    "सन्</w>": 3100,
    "या।</w>": 3101,
    "दुनिया</w>": 3102,
    "ज्या": 3103,
    "इस्तेमाल</w>": 3104,
    "बड़ा</w>": 3105,
    "ऐसा</w>": 3106,
    "ing</w>": 3107,
    "वॉ": 3108,
    "शी</w>": 3109,
    "राम": 3110,
    "वृत्": 3111,
    "८</w>": 3112,
    "ou": 3113,
    "शुरुआत</w>": 3114,
    "-1": 3115,
    "घोष": 3116,
    "सकती</w>": 3117,
    "श्री</w>": 3118,
    "शं": 3119,
    "दृ": 3120,
    "वो": 3121,
    "तुल": 3122,
    "स्ट्रे": 3123,
    "फ़िल्म</w>": 3124,
    "गर": 3125,
    "चाह": 3126,
    "ज़िले</w>": 3127,
    "दर": 3128,
    "कानू": 3129,
    "मनो": 3130,
    "प्राचीन</w>": 3131,
    "दृष्": 3132,
    "वास्त": 3133,
    "दिल्ली</w>": 3134,
    "कला</w>": 3135,
    "शरीर</w>": 3136,
    "त्रा": 3137,
    "नाओं</w>": 3138,
    "अच्छ": 3139,
    "विस्तृत</w>": 3140,
    "पन्न</w>": 3141,
    "गोल</w>": 3142,
    "राज</w>": 3143,
    "आधारित</w>": 3144,
    "गा।</w>": 3145,
    ").</w>": 3146,
    "२००": 3147,
    "विभा": 3148,
    "ri": 3149,
    "राजनीतिक</w>": 3150,
    "मंड": 3151,
    "ग्रह</w>": 3152,
    "वर्ग</w>": 3153,
    "स्टेशन</w>": 3154,
    "सितं": 3155,
    "पुरु": 3156,
    "लाल</w>": 3157,
    "इस्": 3158,
    "किया,</w>": 3159,
    "गए।</w>": 3160,
    "पृष्ठ</w>": 3161,
    "हित</w>": 3162,
    "महि": 3163,
    "है.</w>": 3164,
    "प्रणाली</w>": 3165,
    "िये</w>": 3166,
    "वरण</w>": 3167,
    "थो": 3168,
    "लू": 3169,
    "हॉ": 3170,
    "ct": 3171,
    "जे</w>": 3172,
    "वर": 3173,
    "ऐसे</w>": 3174,
    "कवि": 3175,
    "विधान</w>": 3176,
    "जों</w>": 3177,
    "कल्": 3178,
    "धिक</w>": 3179,
    "चो": 3180,
    "]</w>": 3181,
    "नई</w>": 3182,
    "यूरो": 3183,
    "सूची</w>": 3184,
    "रचना</w>": 3185,
    "मृत्यु</w>": 3186,
    "७</w>": 3187,
    "उसका</w>": 3188,
    "}}": 3189,
    "नाटक</w>": 3190,
    "आत्": 3191,
    "खिलाफ</w>": 3192,
    "अभिने": 3193,
    "लंब": 3194,
    "तक": 3195,
    "आधु": 3196,
    "ष्ट्": 3197,
    "गां": 3198,
    "अर्थ</w>": 3199,
    "17": 3200,
    "निम्": 3201,
    "टिश</w>": 3202,
    "जिला</w>": 3203,
    "आर्": 3204,
    "ग्रे": 3205,
    "ष्ट्र</w>": 3206,
    "ir": 3207,
    "for": 3208,
    "पृथ": 3209,
    "क्षित</w>": 3210,
    "बनाया</w>": 3211,
    "रिया</w>": 3212,
    "प्रदर्शन</w>": 3213,
    "कल": 3214,
    "पार्टी</w>": 3215,
    "आय": 3216,
    "गढ़वाल</w>": 3217,
    "विकसित</w>": 3218,
    "कालीन</w>": 3219,
    "गई।</w>": 3220,
    "तार</w>": 3221,
    "वैज्ञा": 3222,
    "अथ": 3223,
    "00": 3224,
    "ज़िला</w>": 3225,
    "पूरी</w>": 3226,
    "लेक्": 3227,
    "व्": 3228,
    "जल</w>": 3229,
    "गं": 3230,
    "जुलाई</w>": 3231,
    "शक्ति</w>": 3232,
    "ियोज": 3233,
    "साय": 3234,
    "ारी": 3235,
    "वेबसाइट</w>": 3236,
    "तिम</w>": 3237,
    "चर्": 3238,
    "उदाहरण</w>": 3239,
    "द्यो": 3240,
    "करके</w>": 3241,
    "सितंबर</w>": 3242,
    "गया,</w>": 3243,
    "यदि</w>": 3244,
    "दुर्": 3245,
    "शता": 3246,
    "समान</w>": 3247,
    "फ्रा": 3248,
    "अधिका": 3249,
    "पार</w>": 3250,
    "Th": 3251,
    "संगठ": 3252,
    "से,</w>": 3253,
    "क्षेत्रों</w>": 3254,
    "करे": 3255,
    "पा</w>": 3256,
    "काफी</w>": 3257,
    "मत</w>": 3258,
    "बांग्": 3259,
    "ब्रिटिश</w>": 3260,
    "उपलब्ध</w>": 3261,
    "न)</w>": 3262,
    "नाइ": 3263,
    "आगे</w>": 3264,
    "मि</w>": 3265,
    "व्यवस्था</w>": 3266,
    "कि,</w>": 3267,
    "पक</w>": 3268,
    "पॉ": 3269,
    "लिए,</w>": 3270,
    "रखा</w>": 3271,
    "n</w>": 3272,
    "भग": 3273,
    "स्टा": 3274,
    "लिया।</w>": 3275,
    "शताब्": 3276,
    "डे</w>": 3277,
    "पर्य": 3278,
    "एश": 3279,
    "खेल</w>": 3280,
    "में": 3281,
    "हों</w>": 3282,
    "परिवर्त": 3283,
    "लोक</w>": 3284,
    "लोकप्र": 3285,
    "गति</w>": 3286,
    "फर": 3287,
    "माइ": 3288,
    "लं": 3289,
    "जित</w>": 3290,
    "भव</w>": 3291,
    "परियोज": 3292,
    "इसलिए</w>": 3293,
    "जर</w>": 3294,
    "भौ": 3295,
    "इससे</w>": 3296,
    "नियंत्र": 3297,
    "प्रकाशित</w>": 3298,
    "किलो": 3299,
    "जल": 3300,
    "इला": 3301,
    "हार्": 3302,
    "बल्": 3303,
    "em": 3304,
    "संबंधित</w>": 3305,
    "15": 3306,
    "जर्म": 3307,
    "नाथ</w>": 3308,
    "श्वर</w>": 3309,
    "की,</w>": 3310,
    "अतिरि": 3311,
    "यात</w>": 3312,
    "इंग्": 3313,
    "डिया</w>": 3314,
    "व्य</w>": 3315,
    "केन्": 3316,
    "स्पे": 3317,
    "व्यक्ति": 3318,
    "10</w>": 3319,
    "्यता</w>": 3320,
    "लिंग</w>": 3321,
    "उपा": 3322,
    "पाकिस्तान</w>": 3323,
    "दशक</w>": 3324,
    "स्वरूप</w>": 3325,
    "आधुनिक</w>": 3326,
    "महिला": 3327,
    "ध्यान</w>": 3328,
    "निर्देश": 3329,
    "तान</w>": 3330,
    "उम्": 3331,
    "राम</w>": 3332,
    "क्षेत्र": 3333,
    "र्ष</w>": 3334,
    "धा</w>": 3335,
    "जय</w>": 3336,
    "्राष्ट्र": 3337,
    "सरकारी</w>": 3338,
    "समाज</w>": 3339,
    "सों</w>": 3340,
    "सार्": 3341,
    "समर्थ": 3342,
    "जनवरी</w>": 3343,
    "यार</w>": 3344,
    "पदा": 3345,
    "टेड</w>": 3346,
    "बाहर</w>": 3347,
    "as": 3348,
    "ज़न</w>": 3349,
    "्राष्ट्रीय</w>": 3350,
    "on</w>": 3351,
    "गति": 3352,
    "गू": 3353,
    "अथवा</w>": 3354,
    "हू": 3355,
    "रल</w>": 3356,
    "जय": 3357,
    "बौ": 3358,
    "ंतर": 3359,
    "धारण</w>": 3360,
    "प्रबंध": 3361,
    "जहा": 3362,
    "तन</w>": 3363,
    "ंस": 3364,
    "आज</w>": 3365,
    "भिक</w>": 3366,
    "स्टर</w>": 3367,
    "लेकर</w>": 3368,
    "वाई</w>": 3369,
    "लाइन</w>": 3370,
    "मुख्य": 3371,
    "देते</w>": 3372,
    "विधि</w>": 3373,
    "टेली": 3374,
    "ल्स</w>": 3375,
    "’</w>": 3376,
    "चित्र": 3377,
    "अक्टूबर</w>": 3378,
    "I</w>": 3379,
    "ग्री</w>": 3380,
    "आम": 3381,
    "सांख": 3382,
    "केंद्र": 3383,
    "त्</w>": 3384,
    "ग्रं": 3385,
    "न्तु</w>": 3386,
    "विधान": 3387,
    "शीर्ष": 3388,
    "छोटे</w>": 3389,
    ",000</w>": 3390,
    "जाति</w>": 3391,
    "(</w>": 3392,
    "ज्य</w>": 3393,
    "रै": 3394,
    "ऑस्ट्रे": 3395,
    "इंटरनेट</w>": 3396,
    "भूमि</w>": 3397,
    "प्रतिनि": 3398,
    "अंतिम</w>": 3399,
    "्यि": 3400,
    "जूद</w>": 3401,
    "शताब्दी</w>": 3402,
    "चल</w>": 3403,
    "बार": 3404,
    "अप्रैल</w>": 3405,
    "जाए": 3406,
    "/</w>": 3407,
    "अधिकांश</w>": 3408,
    "पूर्व": 3409,
    "जालपृष्ठ</w>": 3410,
    "ी)</w>": 3411,
    "ओ</w>": 3412,
    "वाह</w>": 3413,
    "ॉन</w>": 3414,
    "अन्": 3415,
    "शिष्ट</w>": 3416,
    "अगस्त</w>": 3417,
    "अंत</w>": 3418,
    "क्रे": 3419,
    "वाद": 3420,
    "ag": 3421,
    "+</w>": 3422,
    "कं": 3423,
    "पद</w>": 3424,
    "तैयार</w>": 3425,
    "डब्ल": 3426,
    "अपरा": 3427,
    "देव</w>": 3428,
    "यात्रा</w>": 3429,
    "ट्रे": 3430,
    "एस</w>": 3431,
    "कुमार</w>": 3432,
    "पश्चिमी</w>": 3433,
    "ंश": 3434,
    "नए</w>": 3435,
    "वत</w>": 3436,
    "e)</w>": 3437,
    "पत्ति</w>": 3438,
    "लड़": 3439,
    "ग़": 3440,
    "टाइ": 3441,
    "ंकन</w>": 3442,
    "जिनमें</w>": 3443,
    "मई</w>": 3444,
    "भाई</w>": 3445,
    "टिंग</w>": 3446,
    "देखा</w>": 3447,
    "प्रारं": 3448,
    "स्वय": 3449,
    "पर्या": 3450,
    "ध्": 3451,
    "रहता</w>": 3452,
    "रूप": 3453,
    "टल</w>": 3454,
    "193": 3455,
    "क्षम": 3456,
    "पूरा</w>": 3457,
    "रंग": 3458,
    "वंश</w>": 3459,
    "अक्सर</w>": 3460,
    "मानव</w>": 3461,
    "निश्": 3462,
    "ट,</w>": 3463,
    "इनके</w>": 3464,
    "वार": 3465,
    "सांख्यि": 3466,
    "कीय</w>": 3467,
    "म्स</w>": 3468,
    "िली": 3469,
    "उद्देश": 3470,
    "बढ़ा": 3471,
    "अंतर्राष्ट्रीय</w>": 3472,
    "लब</w>": 3473,
    "सद</w>": 3474,
    "रत</w>": 3475,
    "कहानी</w>": 3476,
    "गयी</w>": 3477,
    "..": 3478,
    "गौ": 3479,
    "देशी</w>": 3480,
    "यि": 3481,
    "रात</w>": 3482,
    "विरो": 3483,
    "हा</w>": 3484,
    "थे": 3485,
    "नि</w>": 3486,
    "उत्पादन</w>": 3487,
    "अत्य": 3488,
    "दूसरी</w>": 3489,
    "अतिरिक्त</w>": 3490,
    "लौ": 3491,
    "पूर्वी</w>": 3492,
    "हिस्सा</w>": 3493,
    "बंद</w>": 3494,
    "भाग": 3495,
    "बांग्ला": 3496,
    "प्रामाण": 3497,
    "13": 3498,
    "फ्रे": 3499,
    "अधिकार</w>": 3500,
    "आई</w>": 3501,
    "C</w>": 3502,
    "pla": 3503,
    "इस्ला": 3504,
    "बा</w>": 3505,
    "संचा": 3506,
    "देवी</w>": 3507,
    "स्कूल</w>": 3508,
    "फु": 3509,
    "ent": 3510,
    "अंड": 3511,
    "वो</w>": 3512,
    "उत्पन्न</w>": 3513,
    "विधानसभा</w>": 3514,
    "पहचा": 3515,
    "णि": 3516,
    "दर्श</w>": 3517,
    "(अंग्रेज़ी)</w>": 3518,
    "yst": 3519,
    "एंड</w>": 3520,
    "उसी</w>": 3521,
    "परियोजना</w>": 3522,
    "प्रयास</w>": 3523,
    "ली,</w>": 3524,
    "दल</w>": 3525,
    "रो</w>": 3526,
    "उत्तरी</w>": 3527,
    "लिखित</w>": 3528,
    "शल</w>": 3529,
    "ता।</w>": 3530,
    "गय": 3531,
    "नियों</w>": 3532,
    "संबंध</w>": 3533,
    "आर्थ": 3534,
    "प्ले": 3535,
    "बू": 3536,
    "रहते</w>": 3537,
    "उद्यो": 3538,
    "शीर्षक</w>": 3539,
    "पृथ्": 3540,
    "हिंदी</w>": 3541,
    "वर्षों</w>": 3542,
    "म्म": 3543,
    "गांव</w>": 3544,
    "एल": 3545,
    "फ्री": 3546,
    "लते</w>": 3547,
    "वैज्ञानिक</w>": 3548,
    "आदि": 3549,
    "2)</w>": 3550,
    "टों</w>": 3551,
    "जिस</w>": 3552,
    "टै": 3553,
    "प्रामाणिक</w>": 3554,
    "कॉले": 3555,
    "रु</w>": 3556,
    "आदर्श</w>": 3557,
    "मानित</w>": 3558,
    "सीमा</w>": 3559,
    "गणना</w>": 3560,
    "जहाँ</w>": 3561,
    "होकर</w>": 3562,
    "म्बर</w>": 3563,
    "प्रक्रिया</w>": 3564,
    "ul": 3565,
    "जानकार": 3566,
    "शास्त्र</w>": 3567,
    "स्ति": 3568,
    "बह": 3569,
    "तत्": 3570,
    "फाइ": 3571,
    "न्स</w>": 3572,
    "मदद</w>": 3573,
    "क्रिया": 3574,
    "लोकप्रिय</w>": 3575,
    "मिला": 3576,
    "बिना</w>": 3577,
    "मति</w>": 3578,
    "ँचा": 3579,
    "बेस</w>": 3580,
    "साम्रा": 3581,
    "योजना</w>": 3582,
    "भूगोल</w>": 3583,
    "सत</w>": 3584,
    "हम</w>": 3585,
    "हुई।</w>": 3586,
    "निर्दे": 3587,
    "16": 3588,
    "un": 3589,
    "टेस्ट</w>": 3590,
    "पद": 3591,
    "ज्ञान</w>": 3592,
    "सेवा": 3593,
    "मुक्त</w>": 3594,
    "विचार</w>": 3595,
    "(200": 3596,
    "मर</w>": 3597,
    "कौ": 3598,
    "झा": 3599,
    "संघ</w>": 3600,
    "दिसं": 3601,
    "संस्करण</w>": 3602,
    "ऊपर</w>": 3603,
    "जीत</w>": 3604,
    "अलावा</w>": 3605,
    "श्रेष्ठ</w>": 3606,
    "न्य</w>": 3607,
    "तरी": 3608,
    "रेलवे</w>": 3609,
    "त-": 3610,
    "बहा": 3611,
    "नेट": 3612,
    "एच": 3613,
    "ऐसी</w>": 3614,
    "पट": 3615,
    "केंद्र</w>": 3616,
    "उपन्या": 3617,
    "कथा": 3618,
    "धर्म": 3619,
    "रहने</w>": 3620,
    "चू": 3621,
    "समस्": 3622,
    "ज़ी</w>": 3623,
    "किलोमीटर</w>": 3624,
    "रहे।</w>": 3625,
    "घु": 3626,
    "९</w>": 3627,
    "dis": 3628,
    "वेश": 3629,
    "जिन्हें</w>": 3630,
    "प्रस्तु": 3631,
    "ताल</w>": 3632,
    "लेने</w>": 3633,
    "ंबर</w>": 3634,
    "ंतु</w>": 3635,
    "ष्ण": 3636,
    "रण": 3637,
    "श्य</w>": 3638,
    "त्रता</w>": 3639,
    "थि": 3640,
    "डै": 3641,
    "पूरे</w>": 3642,
    "बादी</w>": 3643,
    "बंगा": 3644,
    "वु": 3645,
    "ist": 3646,
    "कांग": 3647,
    "मूर्": 3648,
    "न्याया": 3649,
    "वाप": 3650,
    "वाह": 3651,
    "सफल</w>": 3652,
    "सार्वज": 3653,
    "किये</w>": 3654,
    "संदर्भ</w>": 3655,
    "शादी</w>": 3656,
    "धित</w>": 3657,
    "कार्ड</w>": 3658,
    "स्थानीय</w>": 3659,
    "टर": 3660,
    "कोड</w>": 3661,
    "पि</w>": 3662,
    "us": 3663,
    "(उत्तराखण्ड</w>": 3664,
    "ट्रो": 3665,
    "पक्ष": 3666,
    "15</w>": 3667,
    "जिसने</w>": 3668,
    "विषय</w>": 3669,
    "आवश्यक</w>": 3670,
    "(S": 3671,
    "ई.</w>": 3672,
    "आने</w>": 3673,
    "शर्": 3674,
    "अर्थ": 3675,
    "जनसांख्यि": 3676,
    "ीक</w>": 3677,
    "थीं।</w>": 3678,
    "उर्": 3679,
    "रता</w>": 3680,
    "दूसरा</w>": 3681,
    "अका": 3682,
    "तिहासिक</w>": 3683,
    "जनसंख्या</w>": 3684,
    "चिकित्सा</w>": 3685,
    "जार</w>": 3686,
    "कॉर्ड</w>": 3687,
    "ट्रा": 3688,
    "नृ": 3689,
    "१८": 3690,
    "पढ़": 3691,
    "क्रो": 3692,
    "तियो": 3693,
    "ढा": 3694,
    "समि": 3695,
    "परे": 3696,
    "बनी</w>": 3697,
    "ग्रह": 3698,
    "गेम</w>": 3699,
    "तहत</w>": 3700,
    "आवश्यकता</w>": 3701,
    "बांग्लादेश</w>": 3702,
    "ph": 3703,
    "नेश": 3704,
    "लक</w>": 3705,
    "सहायता</w>": 3706,
    "इन्होंने</w>": 3707,
    "निर्वाचन</w>": 3708,
    "प्रभावित</w>": 3709,
    "मात्रा</w>": 3710,
    "योजित</w>": 3711,
    "सार्वजनिक</w>": 3712,
    "सान</w>": 3713,
    "कंप्यू": 3714,
    "विशिष्ट</w>": 3715,
    "प्रदर्श": 3716,
    "लोच": 3717,
    "डेटा": 3718,
    "त्या</w>": 3719,
    "k</w>": 3720,
    "द्वितीय</w>": 3721,
    "ic</w>": 3722,
    "मूवी</w>": 3723,
    "रंग</w>": 3724,
    "धानी</w>": 3725,
    "क्षमता</w>": 3726,
    "अस": 3727,
    "पीछ": 3728,
    "घोषणा</w>": 3729,
    "प्ला": 3730,
    "वाय": 3731,
    "त:</w>": 3732,
    "दमी</w>": 3733,
    "हाइ": 3734,
    "मैन</w>": 3735,
    "मीर</w>": 3736,
    "सिल</w>": 3737,
    "को,</w>": 3738,
    "सके": 3739,
    "आप</w>": 3740,
    "2008</w>": 3741,
    "बल": 3742,
    "तुलना</w>": 3743,
    "ई-": 3744,
    "रिक</w>": 3745,
    "लियों</w>": 3746,
    "खिलाड़ी</w>": 3747,
    "ंचा": 3748,
    "पुत्र</w>": 3749,
    "ंपर": 3750,
    "ठा</w>": 3751,
    "नीचे</w>": 3752,
    "गुज": 3753,
    "ध्र": 3754,
    "घटना</w>": 3755,
    "निवा": 3756,
    "ac": 3757,
    "जानकारी</w>": 3758,
    "—</w>": 3759,
    "at</w>": 3760,
    "सहित</w>": 3761,
    "चरण</w>": 3762,
    "इंग्लैंड</w>": 3763,
    "डर</w>": 3764,
    "चरि": 3765,
    "पाठ": 3766,
    "राजस्थान</w>": 3767,
    "उद्देश्य</w>": 3768,
    "दिखाई</w>": 3769,
    "अभी</w>": 3770,
    "कट</w>": 3771,
    "तना</w>": 3772,
    "गुण": 3773,
    "जगह</w>": 3774,
    "आबादी</w>": 3775,
    "त्ती": 3776,
    "तकनी": 3777,
    "गिर": 3778,
    "चर</w>": 3779,
    "परीक्षण</w>": 3780,
    "कलाकार</w>": 3781,
    "स्रो": 3782,
    "भाव</w>": 3783,
    "टीवी</w>": 3784,
    "A</w>": 3785,
    "बद्ध</w>": 3786,
    "याता": 3787,
    "एं": 3788,
    "रानी</w>": 3789,
    "_{": 3790,
    "रिय": 3791,
    "न्न": 3792,
    "दाय</w>": 3793,
    "माने</w>": 3794,
    "सांस्": 3795,
    "वें</w>": 3796,
    "ख्या": 3797,
    "क्या</w>": 3798,
    "है:</w>": 3799,
    "ज्ञ</w>": 3800,
    "सामने</w>": 3801,
    "ज,</w>": 3802,
    "दिसंबर</w>": 3803,
    "ऐतिहासिक</w>": 3804,
    "12": 3805,
    "पित</w>": 3806,
    "भगवान</w>": 3807,
    "हार": 3808,
    "प्रशि": 3809,
    "कृष्ण</w>": 3810,
    "रोग</w>": 3811,
    "आर्थिक</w>": 3812,
    "सीसी</w>": 3813,
    "डेटाबेस</w>": 3814,
    "ड्स</w>": 3815,
    "संस्कृति</w>": 3816,
    "लाह</w>": 3817,
    "होना</w>": 3818,
    "कथा</w>": 3819,
    "नियु": 3820,
    "राइ": 3821,
    "यातायात</w>": 3822,
    "प्रेर": 3823,
    "ig": 3824,
    "ब्रह्": 3825,
    "प्रबंधन</w>": 3826,
    "कर्ता</w>": 3827,
    "महिलाओं</w>": 3828,
    "परिणाम</w>": 3829,
    "००</w>": 3830,
    "ँच</w>": 3831,
    "14": 3832,
    "जिन्होंने</w>": 3833,
    "30</w>": 3834,
    "निर्मित</w>": 3835,
    "शो</w>": 3836,
    "जनसांख्यिकी</w>": 3837,
    "निश्चित</w>": 3838,
    "स्टी": 3839,
    "सम्बन्": 3840,
    "एड": 3841,
    "ad": 3842,
    "कन</w>": 3843,
    "व्यापार</w>": 3844,
    "सर्वश्रेष्ठ</w>": 3845,
    "शैली</w>": 3846,
    "yle</w>": 3847,
    "समर्थन</w>": 3848,
    "आस": 3849,
    "(B": 3850,
    "ation</w>": 3851,
    "स्टो": 3852,
    "संर": 3853,
    "राष्ट्रपति</w>": 3854,
    "साम्राज्य</w>": 3855,
    "आमतौर</w>": 3856,
    "अफ्री": 3857,
    "अनुसं": 3858,
    "जानकारी)</w>": 3859,
    "उत्तरा</w>": 3860,
    "displa": 3861,
    "त)</w>": 3862,
    "आन्": 3863,
    "स्वयं</w>": 3864,
    "-0": 3865,
    "मात्र</w>": 3866,
    "कां": 3867,
    "प्रती": 3868,
    "ला,</w>": 3869,
    "समाप्त</w>": 3870,
    "displayst": 3871,
    "displaystyle</w>": 3872,
    "por": 3873,
    "वर्णन</w>": 3874,
    "id": 3875,
    "तियाँ</w>": 3876,
    "भावना</w>": 3877,
    "विचार": 3878,
    "ज्यादा</w>": 3879,
    "ut": 3880,
    "प्रभा।</w>": 3881,
    "क्र</w>": 3882,
    "अंग्रेजी</w>": 3883,
    "पत्र</w>": 3884,
    "इनमें</w>": 3885,
    "The</w>": 3886,
    "कानून</w>": 3887,
    "र्मिक</w>": 3888,
    "पूर्ति</w>": 3889,
    "र्क</w>": 3890,
    "(C": 3891,
    "शिप</w>": 3892,
    "th</w>": 3893,
    "वृद्धि</w>": 3894,
    "पाया</w>": 3895,
    "एफ": 3896,
    "}</w>": 3897,
    "छत्ती": 3898,
    "सांस्कृतिक</w>": 3899,
    "(P": 3900,
    "प्रसार": 3901,
    "ताप": 3902,
    "धार्मिक</w>": 3903,
    "श्रेणी</w>": 3904,
    "रखने</w>": 3905,
    "रं": 3906,
    "x</w>": 3907,
    "ed": 3908,
    "स्पष्ट</w>": 3909,
    "पहा": 3910,
    "क्तियों</w>": 3911,
    "छत्तीस": 3912,
    "टिक</w>": 3913,
    "टर्": 3914,
    "कप</w>": 3915,
    "दूरी</w>": 3916,
    "गूगल</w>": 3917,
    "सम्मानित</w>": 3918,
    "11</w>": 3919,
    "हैं:</w>": 3920,
    "{\\displaystyle</w>": 3921,
    "दास</w>": 3922,
    "योजन</w>": 3923,
    "व,</w>": 3924,
    "आलोच": 3925,
    "प्रकाश</w>": 3926,
    "पान</w>": 3927,
    "आकार</w>": 3928,
    "12</w>": 3929,
    "राजधानी</w>": 3930,
    "1.": 3931,
    "नो</w>": 3932,
    "ट्टी</w>": 3933,
    "ंकि,</w>": 3934,
    "50</w>": 3935,
    "वरी": 3936,
    "संस्कृत</w>": 3937,
    "कार्यक्रम</w>": 3938,
    "विशा": 3939,
    "कांग्रे": 3940,
    "हम्म": 3941,
    "प्रारंभिक</w>": 3942,
    "सहायक</w>": 3943,
    "देती</w>": 3944,
    "फू": 3945,
    "हेतु</w>": 3946,
    "सुरक्षा</w>": 3947,
    "ट्रॉ": 3948,
    "त्त</w>": 3949,
    "s)</w>": 3950,
    "रहती</w>": 3951,
    "वीडियो</w>": 3952,
    "शास्त्र": 3953,
    "क्स": 3954,
    "र्ना": 3955,
    "2019</w>": 3956,
    "ot": 3957,
    "वस्तु": 3958,
    "शाली</w>": 3959,
    "im": 3960,
    "(A": 3961,
    "अनुसार": 3962,
    "पृथ्वी</w>": 3963,
    "मिलियन</w>": 3964,
    "प्री": 3965,
    "गू</w>": 3966,
    "अगर</w>": 3967,
    "प्रतियो": 3968,
    "प्राय": 3969,
    "बनाए</w>": 3970,
    "2007</w>": 3971,
    "मॉड": 3972,
    "खान</w>": 3973,
    "कॉलेज</w>": 3974,
    "गल": 3975,
    "3)</w>": 3976,
    "शरा": 3977,
    "फ़ा": 3978,
    "बेह": 3979,
    "टेलीवि": 3980,
    "नी,</w>": 3981,
    "सागर</w>": 3982,
    "चार्य</w>": 3983,
    "गिक</w>": 3984,
    "अवधि</w>": 3985,
    "लिखा</w>": 3986,
    "नाग": 3987,
    "रिली": 3988,
    "हालांकि,</w>": 3989,
    "h</w>": 3990,
    "ap": 3991,
    "ति,</w>": 3992,
    "॰ऍ": 3993,
    "नय</w>": 3994,
    "अर्था": 3995,
    "मर": 3996,
    "आता</w>": 3997,
    "मही": 3998,
    "निष्": 3999
  },
  "id_to_token": {
    "0": "<PAD>",
    "1": "<UNK>",
    "2": "<BOS>",
    "3": "<EOS>",
    "4": "!",
    "5": "\"",
    "6": "#",
    "7": "$",
    "8": "%",
    "9": "&",
    "10": "'",
    "11": "(",
    "12": ")",
    "13": "*",
    "14": "+",
    "15": ",",
    "16": "-",
    "17": ".",
    "18": "/",
    "19": "0",
    "20": "1",
    "21": "2",
    "22": "3",
    "23": "4",
    "24": "5",
    "25": "6",
    "26": "7",
    "27": "8",
    "28": "9",
    "29": ":",
    "30": ";",
    "31": "<",
    "32": "</w>",
    "33": "=",
    "34": ">",
    "35": "?",
    "36": "@",
    "37": "A",
    "38": "B",
    "39": "C",
    "40": "D",
    "41": "E",
    "42": "F",
    "43": "G",
    "44": "H",
    "45": "I",
    "46": "J",
    "47": "K",
    "48": "L",
    "49": "M",
    "50": "N",
    "51": "O",
    "52": "P",
    "53": "Q",
    "54": "R",
    "55": "S",
    "56": "T",
    "57": "U",
    "58": "V",
    "59": "W",
    "60": "X",
    "61": "Y",
    "62": "Z",
    "63": "[",
    "64": "\\",
    "65": "]",
    "66": "^",
    "67": "_",
    "68": "`",
    "69": "a",
    "70": "b",
    "71": "c",
    "72": "d",
    "73": "e",
    "74": "f",
    "75": "g",
    "76": "h",
    "77": "i",
    "78": "j",
    "79": "k",
    "80": "l",
    "81": "m",
    "82": "n",
    "83": "o",
    "84": "p",
    "85": "q",
    "86": "r",
    "87": "s",
    "88": "t",
    "89": "u",
    "90": "v",
    "91": "w",
    "92": "x",
    "93": "y",
    "94": "z",
    "95": "{",
    "96": "|",
    "97": "}",
    "98": "~",
    "99": "¢",
    "100": "£",
    "101": "¤",
    "102": "¥",
    "103": "§",
    "104": "¨",
    "105": "©",
    "106": "ª",
    "107": "«",
    "108": "¬",
    "109": "¯",
    "110": "°",
    "111": "±",
    "112": "²",
    "113": "³",
    "114": "´",
    "115": "µ",
    "116": "·",
    "117": "¹",
    "118": "»",
    "119": "¼",
    "120": "½",
    "121": "¾",
    "122": "Á",
    "123": "Å",
    "124": "Æ",
    "125": "Ç",
    "126": "È",
    "127": "É",
    "128": "Ó",
    "129": "Ö",
    "130": "×",
    "131": "Ø",
    "132": "Ú",
    "133": "Ü",
    "134": "Þ",
    "135": "ß",
    "136": "à",
    "137": "á",
    "138": "ã",
    "139": "ä",
    "140": "å",
    "141": "æ",
    "142": "ç",
    "143": "è",
    "144": "é",
    "145": "ê",
    "146": "ë",
    "147": "ì",
    "148": "í",
    "149": "ï",
    "150": "ð",
    "151": "ñ",
    "152": "ò",
    "153": "ó",
    "154": "ô",
    "155": "õ",
    "156": "ö",
    "157": "ø",
    "158": "ù",
    "159": "ú",
    "160": "û",
    "161": "ü",
    "162": "ý",
    "163": "Ā",
    "164": "ā",
    "165": "ă",
    "166": "ć",
    "167": "č",
    "168": "Ē",
    "169": "ē",
    "170": "ě",
    "171": "ğ",
    "172": "ī",
    "173": "į",
    "174": "İ",
    "175": "ı",
    "176": "Ł",
    "177": "ł",
    "178": "ń",
    "179": "ň",
    "180": "ŋ",
    "181": "Ō",
    "182": "ō",
    "183": "ŏ",
    "184": "œ",
    "185": "Ś",
    "186": "ś",
    "187": "Ş",
    "188": "ş",
    "189": "Š",
    "190": "š",
    "191": "Ū",
    "192": "ū",
    "193": "ű",
    "194": "Ż",
    "195": "ż",
    "196": "ƒ",
    "197": "ơ",
    "198": "ư",
    "199": "ǎ",
    "200": "ǐ",
    "201": "ǒ",
    "202": "ǔ",
    "203": "ǫ",
    "204": "ɐ",
    "205": "ɑ",
    "206": "ɒ",
    "207": "ɔ",
    "208": "ɕ",
    "209": "ə",
    "210": "ɚ",
    "211": "ɛ",
    "212": "ɜ",
    "213": "ɟ",
    "214": "ɡ",
    "215": "ɨ",
    "216": "ɪ",
    "217": "ɫ",
    "218": "ɭ",
    "219": "ɯ",
    "220": "ɲ",
    "221": "ɳ",
    "222": "ɵ",
    "223": "ɹ",
    "224": "ɻ",
    "225": "ɾ",
    "226": "ʁ",
    "227": "ʂ",
    "228": "ʃ",
    "229": "ʈ",
    "230": "ʊ",
    "231": "ʋ",
    "232": "ʌ",
    "233": "ʎ",
    "234": "ʒ",
    "235": "ʧ",
    "236": "ʨ",
    "237": "ʰ",
    "238": "ʲ",
    "239": "ʷ",
    "240": "ʹ",
    "241": "ʻ",
    "242": "ʼ",
    "243": "ʾ",
    "244": "ʿ",
    "245": "ˈ",
    "246": "ˌ",
    "247": "ː",
    "248": "˙",
    "249": "˚",
    "250": "̀",
    "251": "́",
    "252": "̃",
    "253": "̄",
    "254": "̊",
    "255": "̧",
    "256": "̪",
    "257": "̯",
    "258": "Γ",
    "259": "Δ",
    "260": "Θ",
    "261": "Λ",
    "262": "Μ",
    "263": "Π",
    "264": "Σ",
    "265": "Τ",
    "266": "Φ",
    "267": "Ω",
    "268": "ά",
    "269": "έ",
    "270": "ή",
    "271": "ί",
    "272": "α",
    "273": "β",
    "274": "γ",
    "275": "δ",
    "276": "ε",
    "277": "ζ",
    "278": "η",
    "279": "θ",
    "280": "ι",
    "281": "κ",
    "282": "λ",
    "283": "μ",
    "284": "ν",
    "285": "ξ",
    "286": "ο",
    "287": "π",
    "288": "ρ",
    "289": "ς",
    "290": "σ",
    "291": "τ",
    "292": "υ",
    "293": "φ",
    "294": "χ",
    "295": "ψ",
    "296": "ω",
    "297": "ό",
    "298": "ύ",
    "299": "ώ",
    "300": "ϑ",
    "301": "ϕ",
    "302": "ϵ",
    "303": "Ќ",
    "304": "Ў",
    "305": "А",
    "306": "Б",
    "307": "В",
    "308": "Г",
    "309": "Д",
    "310": "Е",
    "311": "Ж",
    "312": "И",
    "313": "К",
    "314": "Л",
    "315": "М",
    "316": "Н",
    "317": "О",
    "318": "П",
    "319": "С",
    "320": "Т",
    "321": "Ф",
    "322": "Х",
    "323": "Ч",
    "324": "Э",
    "325": "а",
    "326": "б",
    "327": "в",
    "328": "г",
    "329": "д",
    "330": "е",
    "331": "ж",
    "332": "з",
    "333": "и",
    "334": "й",
    "335": "к",
    "336": "л",
    "337": "м",
    "338": "н",
    "339": "о",
    "340": "п",
    "341": "р",
    "342": "с",
    "343": "т",
    "344": "у",
    "345": "х",
    "346": "ц",
    "347": "ч",
    "348": "ш",
    "349": "щ",
    "350": "ы",
    "351": "ь",
    "352": "э",
    "353": "ю",
    "354": "я",
    "355": "ё",
    "356": "і",
    "357": "Қ",
    "358": "қ",
    "359": "ү",
    "360": "ұ",
    "361": "ӑ",
    "362": "ְ",
    "363": "ִ",
    "364": "ֵ",
    "365": "ֶ",
    "366": "ַ",
    "367": "ָ",
    "368": "ֹ",
    "369": "ּ",
    "370": "־",
    "371": "ׁ",
    "372": "א",
    "373": "ב",
    "374": "ג",
    "375": "ד",
    "376": "ה",
    "377": "ו",
    "378": "ז",
    "379": "ח",
    "380": "י",
    "381": "כ",
    "382": "ל",
    "383": "מ",
    "384": "ן",
    "385": "נ",
    "386": "ס",
    "387": "ע",
    "388": "ף",
    "389": "פ",
    "390": "צ",
    "391": "ר",
    "392": "ש",
    "393": "ת",
    "394": "،",
    "395": "؏",
    "396": "ؕ",
    "397": "ء",
    "398": "آ",
    "399": "أ",
    "400": "ؤ",
    "401": "إ",
    "402": "ئ",
    "403": "ا",
    "404": "ب",
    "405": "ة",
    "406": "ت",
    "407": "ث",
    "408": "ج",
    "409": "ح",
    "410": "خ",
    "411": "د",
    "412": "ذ",
    "413": "ر",
    "414": "ز",
    "415": "س",
    "416": "ش",
    "417": "ص",
    "418": "ض",
    "419": "ط",
    "420": "ظ",
    "421": "ع",
    "422": "غ",
    "423": "ف",
    "424": "ق",
    "425": "ك",
    "426": "ل",
    "427": "م",
    "428": "ن",
    "429": "ه",
    "430": "و",
    "431": "ى",
    "432": "ي",
    "433": "ً",
    "434": "ٌ",
    "435": "ٍ",
    "436": "َ",
    "437": "ُ",
    "438": "ِ",
    "439": "ّ",
    "440": "ْ",
    "441": "ٰ",
    "442": "ٱ",
    "443": "ٴ",
    "444": "ٹ",
    "445": "ٽ",
    "446": "پ",
    "447": "چ",
    "448": "ڈ",
    "449": "ڌ",
    "450": "ڑ",
    "451": "ژ",
    "452": "ڤ",
    "453": "ک",
    "454": "ڪ",
    "455": "گ",
    "456": "ڵ",
    "457": "ں",
    "458": "ھ",
    "459": "ہ",
    "460": "ۆ",
    "461": "ۇ",
    "462": "ی",
    "463": "ۍ",
    "464": "ێ",
    "465": "ې",
    "466": "ے",
    "467": "۔",
    "468": "ە",
    "469": "ۡ",
    "470": "ۤ",
    "471": "۱",
    "472": "۵",
    "473": "۹",
    "474": "ܐ",
    "475": "ܓ",
    "476": "ܘ",
    "477": "ܚ",
    "478": "ܝ",
    "479": "ܟ",
    "480": "ܠ",
    "481": "ܡ",
    "482": "ܢ",
    "483": "ހ",
    "484": "ނ",
    "485": "ރ",
    "486": "ބ",
    "487": "ކ",
    "488": "އ",
    "489": "ވ",
    "490": "މ",
    "491": "ދ",
    "492": "ލ",
    "493": "ސ",
    "494": "ޑ",
    "495": "ޙ",
    "496": "ަ",
    "497": "ި",
    "498": "ީ",
    "499": "ު",
    "500": "ް",
    "501": "ँ",
    "502": "ं",
    "503": "ः",
    "504": "अ",
    "505": "आ",
    "506": "इ",
    "507": "ई",
    "508": "उ",
    "509": "ऊ",
    "510": "ऋ",
    "511": "ऍ",
    "512": "ऎ",
    "513": "ए",
    "514": "ऐ",
    "515": "ऑ",
    "516": "ऒ",
    "517": "ओ",
    "518": "औ",
    "519": "क",
    "520": "ख",
    "521": "ग",
    "522": "घ",
    "523": "ङ",
    "524": "च",
    "525": "छ",
    "526": "ज",
    "527": "झ",
    "528": "ञ",
    "529": "ट",
    "530": "ठ",
    "531": "ड",
    "532": "ढ",
    "533": "ण",
    "534": "त",
    "535": "थ",
    "536": "द",
    "537": "ध",
    "538": "न",
    "539": "ऩ",
    "540": "प",
    "541": "फ",
    "542": "ब",
    "543": "भ",
    "544": "म",
    "545": "य",
    "546": "र",
    "547": "ऱ",
    "548": "ल",
    "549": "ळ",
    "550": "ऴ",
    "551": "व",
    "552": "श",
    "553": "ष",
    "554": "स",
    "555": "ह",
    "556": "़",
    "557": "ऽ",
    "558": "ा",
    "559": "ि",
    "560": "ी",
    "561": "ु",
    "562": "ू",
    "563": "ृ",
    "564": "ॄ",
    "565": "ॅ",
    "566": "ॆ",
    "567": "े",
    "568": "ै",
    "569": "ॉ",
    "570": "ॊ",
    "571": "ो",
    "572": "ौ",
    "573": "्",
    "574": "ॏ",
    "575": "ॐ",
    "576": "॑",
    "577": "॓",
    "578": "ॠ",
    "579": "ॢ",
    "580": "।",
    "581": "॥",
    "582": "०",
    "583": "१",
    "584": "२",
    "585": "३",
    "586": "४",
    "587": "५",
    "588": "६",
    "589": "७",
    "590": "८",
    "591": "९",
    "592": "॰",
    "593": "ং",
    "594": "আ",
    "595": "ই",
    "596": "উ",
    "597": "ঊ",
    "598": "ও",
    "599": "ক",
    "600": "খ",
    "601": "গ",
    "602": "ঙ",
    "603": "চ",
    "604": "ছ",
    "605": "জ",
    "606": "ঞ",
    "607": "ট",
    "608": "ড",
    "609": "ণ",
    "610": "ত",
    "611": "থ",
    "612": "দ",
    "613": "ধ",
    "614": "ন",
    "615": "প",
    "616": "ফ",
    "617": "ব",
    "618": "ভ",
    "619": "ম",
    "620": "য",
    "621": "র",
    "622": "ল",
    "623": "শ",
    "624": "ষ",
    "625": "স",
    "626": "হ",
    "627": "়",
    "628": "া",
    "629": "ি",
    "630": "ী",
    "631": "ু",
    "632": "ূ",
    "633": "ৃ",
    "634": "ে",
    "635": "ৈ",
    "636": "ো",
    "637": "ৌ",
    "638": "্",
    "639": "ৰ",
    "640": "৷",
    "641": "ਆ",
    "642": "ਈ",
    "643": "ਉ",
    "644": "ਕ",
    "645": "ਖ",
    "646": "ਘ",
    "647": "ਜ",
    "648": "ਡ",
    "649": "ਣ",
    "650": "ਤ",
    "651": "ਦ",
    "652": "ਧ",
    "653": "ਨ",
    "654": "ਪ",
    "655": "ਫ",
    "656": "ਬ",
    "657": "ਮ",
    "658": "ਰ",
    "659": "ਲ",
    "660": "ਵ",
    "661": "ਸ",
    "662": "ਹ",
    "663": "਼",
    "664": "ਾ",
    "665": "ਿ",
    "666": "ੀ",
    "667": "ੁ",
    "668": "ੂ",
    "669": "ੌ",
    "670": "ੜ",
    "671": "ੰ",
    "672": "ੱ",
    "673": "ં",
    "674": "અ",
    "675": "ઈ",
    "676": "એ",
    "677": "ક",
    "678": "ખ",
    "679": "ગ",
    "680": "ઘ",
    "681": "ચ",
    "682": "જ",
    "683": "ઠ",
    "684": "ડ",
    "685": "ઢ",
    "686": "ણ",
    "687": "ત",
    "688": "દ",
    "689": "ધ",
    "690": "ન",
    "691": "પ",
    "692": "બ",
    "693": "ભ",
    "694": "મ",
    "695": "ય",
    "696": "ર",
    "697": "લ",
    "698": "વ",
    "699": "શ",
    "700": "સ",
    "701": "હ",
    "702": "ા",
    "703": "િ",
    "704": "ી",
    "705": "ુ",
    "706": "ે",
    "707": "ો",
    "708": "્",
    "709": "૪",
    "710": "ଅ",
    "711": "ଗ",
    "712": "ଜ",
    "713": "ଡ",
    "714": "ତ",
    "715": "ଥ",
    "716": "ଦ",
    "717": "ଧ",
    "718": "ନ",
    "719": "ପ",
    "720": "ବ",
    "721": "ଭ",
    "722": "ମ",
    "723": "ର",
    "724": "ସ",
    "725": "ହ",
    "726": "଼",
    "727": "ା",
    "728": "ି",
    "729": "ୀ",
    "730": "ୁ",
    "731": "େ",
    "732": "୍",
    "733": "ୟ",
    "734": "அ",
    "735": "ஆ",
    "736": "இ",
    "737": "உ",
    "738": "எ",
    "739": "க",
    "740": "ங",
    "741": "ச",
    "742": "ஜ",
    "743": "ஞ",
    "744": "ட",
    "745": "ண",
    "746": "த",
    "747": "ந",
    "748": "ன",
    "749": "ப",
    "750": "ம",
    "751": "ய",
    "752": "ர",
    "753": "ற",
    "754": "ல",
    "755": "ள",
    "756": "ழ",
    "757": "வ",
    "758": "ஷ",
    "759": "ஹ",
    "760": "ா",
    "761": "ி",
    "762": "ு",
    "763": "ூ",
    "764": "ெ",
    "765": "ே",
    "766": "ை",
    "767": "ொ",
    "768": "்",
    "769": "ం",
    "770": "అ",
    "771": "ఆ",
    "772": "క",
    "773": "గ",
    "774": "జ",
    "775": "ట",
    "776": "డ",
    "777": "త",
    "778": "ద",
    "779": "ధ",
    "780": "న",
    "781": "ప",
    "782": "బ",
    "783": "మ",
    "784": "ర",
    "785": "ల",
    "786": "వ",
    "787": "శ",
    "788": "ష",
    "789": "స",
    "790": "హ",
    "791": "ా",
    "792": "ి",
    "793": "ు",
    "794": "ూ",
    "795": "ె",
    "796": "ే",
    "797": "ై",
    "798": "్",
    "799": "ಂ",
    "800": "ಅ",
    "801": "ಒ",
    "802": "ಕ",
    "803": "ಗ",
    "804": "ಚ",
    "805": "ಜ",
    "806": "ಟ",
    "807": "ಣ",
    "808": "ತ",
    "809": "ದ",
    "810": "ಧ",
    "811": "ನ",
    "812": "ಪ",
    "813": "ಬ",
    "814": "ಭ",
    "815": "ಮ",
    "816": "ಯ",
    "817": "ರ",
    "818": "ಲ",
    "819": "ಳ",
    "820": "ವ",
    "821": "ಶ",
    "822": "ಸ",
    "823": "ಹ",
    "824": "ಾ",
    "825": "ಿ",
    "826": "ೀ",
    "827": "ು",
    "828": "ೂ",
    "829": "ೆ",
    "830": "್",
    "831": "ം",
    "832": "അ",
    "833": "എ",
    "834": "ക",
    "835": "ഖ",
    "836": "ഗ",
    "837": "ങ",
    "838": "ച",
    "839": "ജ",
    "840": "ഞ",
    "841": "ട",
    "842": "ത",
    "843": "ധ",
    "844": "ന",
    "845": "പ",
    "846": "ഭ",
    "847": "മ",
    "848": "യ",
    "849": "ര",
    "850": "ല",
    "851": "ള",
    "852": "വ",
    "853": "ശ",
    "854": "ഷ",
    "855": "സ",
    "856": "ഹ",
    "857": "ാ",
    "858": "ി",
    "859": "ീ",
    "860": "ു",
    "861": "ൂ",
    "862": "െ",
    "863": "േ",
    "864": "ൊ",
    "865": "ോ",
    "866": "്",
    "867": "ൺ",
    "868": "ൻ",
    "869": "ർ",
    "870": "ං",
    "871": "අ",
    "872": "උ",
    "873": "ක",
    "874": "ග",
    "875": "ජ",
    "876": "ට",
    "877": "ඩ",
    "878": "ණ",
    "879": "ත",
    "880": "ද",
    "881": "න",
    "882": "ප",
    "883": "ම",
    "884": "ය",
    "885": "ර",
    "886": "ල",
    "887": "ව",
    "888": "ස",
    "889": "්",
    "890": "ා",
    "891": "ි",
    "892": "ී",
    "893": "ු",
    "894": "ෙ",
    "895": "ෝ",
    "896": "ก",
    "897": "ข",
    "898": "ค",
    "899": "ง",
    "900": "จ",
    "901": "ช",
    "902": "ญ",
    "903": "ณ",
    "904": "ด",
    "905": "ต",
    "906": "ถ",
    "907": "ท",
    "908": "น",
    "909": "บ",
    "910": "ป",
    "911": "พ",
    "912": "ม",
    "913": "ย",
    "914": "ร",
    "915": "ล",
    "916": "ว",
    "917": "ศ",
    "918": "ษ",
    "919": "ส",
    "920": "ห",
    "921": "อ",
    "922": "ะ",
    "923": "ั",
    "924": "า",
    "925": "ำ",
    "926": "ิ",
    "927": "ี",
    "928": "ื",
    "929": "ุ",
    "930": "ู",
    "931": "เ",
    "932": "แ",
    "933": "โ",
    "934": "ไ",
    "935": "็",
    "936": "่",
    "937": "้",
    "938": "์",
    "939": "๐",
    "940": "๑",
    "941": "๒",
    "942": "๓",
    "943": "๔",
    "944": "๕",
    "945": "๖",
    "946": "๗",
    "947": "๘",
    "948": "๙",
    "949": "ງ",
    "950": "ຈ",
    "951": "ທ",
    "952": "ນ",
    "953": "ຣ",
    "954": "ວ",
    "955": "ັ",
    "956": "ຽ",
    "957": "໌",
    "958": "་",
    "959": "།",
    "960": "ག",
    "961": "ང",
    "962": "ཆ",
    "963": "ཐ",
    "964": "ད",
    "965": "ན",
    "966": "ཕ",
    "967": "བ",
    "968": "མ",
    "969": "ར",
    "970": "ལ",
    "971": "ཤ",
    "972": "ས",
    "973": "ི",
    "974": "ུ",
    "975": "ེ",
    "976": "ོ",
    "977": "ྐ",
    "978": "ྒ",
    "979": "ྣ",
    "980": "ྩ",
    "981": "ྭ",
    "982": "ྱ",
    "983": "ྲ",
    "984": "ླ",
    "985": "က",
    "986": "စ",
    "987": "ဇ",
    "988": "တ",
    "989": "န",
    "990": "မ",
    "991": "ရ",
    "992": "သ",
    "993": "ာ",
    "994": "ိ",
    "995": "ု",
    "996": "ေ",
    "997": "့",
    "998": "္",
    "999": "်",
    "1000": "ြ",
    "1001": "ွ",
    "1002": "ት",
    "1003": "ኢ",
    "1004": "ያ",
    "1005": "ዮ",
    "1006": "ጵ",
    "1007": "ក",
    "1008": "ខ",
    "1009": "ឃ",
    "1010": "ង",
    "1011": "ច",
    "1012": "ឌ",
    "1013": "ណ",
    "1014": "ត",
    "1015": "ថ",
    "1016": "ទ",
    "1017": "ន",
    "1018": "ភ",
    "1019": "ម",
    "1020": "រ",
    "1021": "វ",
    "1022": "ឝ",
    "1023": "ស",
    "1024": "ឯ",
    "1025": "ា",
    "1026": "ិ",
    "1027": "ី",
    "1028": "ុ",
    "1029": "ូ",
    "1030": "ៀ",
    "1031": "េ",
    "1032": "ំ",
    "1033": "៊",
    "1034": "់",
    "1035": "៍",
    "1036": "្",
    "1037": "ᠠ",
    "1038": "ᠣ",
    "1039": "ᠤ",
    "1040": "ᠨ",
    "1041": "ᠪ",
    "1042": "ᠮ",
    "1043": "ᠯ",
    "1044": "ᠰ",
    "1045": "ᠶ",
    "1046": "ᡠ",
    "1047": "ᡥ",
    "1048": "ᡳ",
    "1049": "ᱚ",
    "1050": "ᱛ",
    "1051": "ᱜ",
    "1052": "ᱟ",
    "1053": "ᱡ",
    "1054": "ᱤ",
    "1055": "ᱥ",
    "1056": "ᱦ",
    "1057": "ᱨ",
    "1058": "ᱱ",
    "1059": "ᱲ",
    "1060": "ᱵ",
    "1061": "ᱽ",
    "1062": "ᵊ",
    "1063": "ḇ",
    "1064": "ḋ",
    "1065": "ḍ",
    "1066": "Ḥ",
    "1067": "ḥ",
    "1068": "ḫ",
    "1069": "Ḳ",
    "1070": "ḳ",
    "1071": "Ḵ",
    "1072": "ḵ",
    "1073": "ḻ",
    "1074": "ṁ",
    "1075": "ṃ",
    "1076": "ṅ",
    "1077": "ṇ",
    "1078": "ṛ",
    "1079": "ṣ",
    "1080": "Ṭ",
    "1081": "ṭ",
    "1082": "ẏ",
    "1083": "ạ",
    "1084": "ả",
    "1085": "ữ",
    "1086": "ἀ",
    "1087": "ἄ",
    "1088": "ἐ",
    "1089": "ἢ",
    "1090": "Ἢ",
    "1091": "ἰ",
    "1092": "ἱ",
    "1093": "ἴ",
    "1094": "ὅ",
    "1095": "ὐ",
    "1096": "ὖ",
    "1097": "Ὑ",
    "1098": "ὰ",
    "1099": "ὴ",
    "1100": "ὶ",
    "1101": "ᾶ",
    "1102": "ῖ",
    "1103": "​",
    "1104": "‌",
    "1105": "‍",
    "1106": "‎",
    "1107": "‏",
    "1108": "–",
    "1109": "—",
    "1110": "―",
    "1111": "‘",
    "1112": "’",
    "1113": "“",
    "1114": "”",
    "1115": "†",
    "1116": "‡",
    "1117": "•",
    "1118": "…",
    "1119": "′",
    "1120": "″",
    "1121": "⁄",
    "1122": "⁡",
    "1123": "₂",
    "1124": "₄",
    "1125": "₩",
    "1126": "€",
    "1127": "₹",
    "1128": "ℏ",
    "1129": "→",
    "1130": "↓",
    "1131": "↔",
    "1132": "⇔",
    "1133": "∀",
    "1134": "∂",
    "1135": "∃",
    "1136": "∇",
    "1137": "∈",
    "1138": "∑",
    "1139": "−",
    "1140": "∓",
    "1141": "∖",
    "1142": "∗",
    "1143": "∘",
    "1144": "∞",
    "1145": "∧",
    "1146": "∨",
    "1147": "∩",
    "1148": "∫",
    "1149": "∬",
    "1150": "∮",
    "1151": "∴",
    "1152": "≈",
    "1153": "≠",
    "1154": "≡",
    "1155": "≤",
    "1156": "≥",
    "1157": "⊕",
    "1158": "⋅",
    "1159": "⋆",
    "1160": "⋮",
    "1161": "⋯",
    "1162": "⌈",
    "1163": "⌉",
    "1164": "ⓘ",
    "1165": "█",
    "1166": "▢",
    "1167": "◆",
    "1168": "●",
    "1169": "★",
    "1170": "☊",
    "1171": "♥",
    "1172": "➤",
    "1173": "⟨",
    "1174": "⟩",
    "1175": "⟶",
    "1176": "⠁",
    "1177": "⠂",
    "1178": "⠃",
    "1179": "⠄",
    "1180": "⠅",
    "1181": "⠇",
    "1182": "⠈",
    "1183": "⠉",
    "1184": "⠊",
    "1185": "⠌",
    "1186": "⠍",
    "1187": "⠎",
    "1188": "⠏",
    "1189": "⠐",
    "1190": "⠑",
    "1191": "⠒",
    "1192": "⠓",
    "1193": "⠔",
    "1194": "⠕",
    "1195": "⠖",
    "1196": "⠗",
    "1197": "⠘",
    "1198": "⠙",
    "1199": "⠚",
    "1200": "⠛",
    "1201": "⠜",
    "1202": "⠝",
    "1203": "⠞",
    "1204": "⠟",
    "1205": "⠠",
    "1206": "⠡",
    "1207": "⠣",
    "1208": "⠥",
    "1209": "⠧",
    "1210": "⠨",
    "1211": "⠩",
    "1212": "⠪",
    "1213": "⠫",
    "1214": "⠬",
    "1215": "⠭",
    "1216": "⠮",
    "1217": "⠯",
    "1218": "⠰",
    "1219": "⠱",
    "1220": "⠲",
    "1221": "⠳",
    "1222": "⠴",
    "1223": "⠵",
    "1224": "⠸",
    "1225": "⠹",
    "1226": "⠺",
    "1227": "⠻",
    "1228": "⠼",
    "1229": "⠽",
    "1230": "⠾",
    "1231": "⠿",
    "1232": "ⴰ",
    "1233": "ⵍ",
    "1234": "ⵎ",
    "1235": "ⵙ",
    "1236": "、",
    "1237": "「",
    "1238": "」",
    "1239": "あ",
    "1240": "い",
    "1241": "う",
    "1242": "え",
    "1243": "お",
    "1244": "か",
    "1245": "が",
    "1246": "き",
    "1247": "ぐ",
    "1248": "げ",
    "1249": "さ",
    "1250": "し",
    "1251": "す",
    "1252": "た",
    "1253": "ち",
    "1254": "っ",
    "1255": "つ",
    "1256": "な",
    "1257": "の",
    "1258": "は",
    "1259": "ひ",
    "1260": "び",
    "1261": "ぺ",
    "1262": "ぼ",
    "1263": "ぽ",
    "1264": "ま",
    "1265": "み",
    "1266": "も",
    "1267": "ゃ",
    "1268": "や",
    "1269": "ら",
    "1270": "り",
    "1271": "れ",
    "1272": "ん",
    "1273": "ア",
    "1274": "イ",
    "1275": "ェ",
    "1276": "エ",
    "1277": "カ",
    "1278": "キ",
    "1279": "ク",
    "1280": "グ",
    "1281": "コ",
    "1282": "サ",
    "1283": "シ",
    "1284": "ジ",
    "1285": "ス",
    "1286": "ズ",
    "1287": "タ",
    "1288": "ダ",
    "1289": "チ",
    "1290": "ッ",
    "1291": "デ",
    "1292": "ト",
    "1293": "ド",
    "1294": "ナ",
    "1295": "ヌ",
    "1296": "ネ",
    "1297": "ノ",
    "1298": "ハ",
    "1299": "バ",
    "1300": "パ",
    "1301": "ビ",
    "1302": "ベ",
    "1303": "マ",
    "1304": "ミ",
    "1305": "ャ",
    "1306": "ュ",
    "1307": "ラ",
    "1308": "ル",
    "1309": "ン",
    "1310": "・",
    "1311": "ー",
    "1312": "一",
    "1313": "万",
    "1314": "三",
    "1315": "上",
    "1316": "下",
    "1317": "不",
    "1318": "丕",
    "1319": "世",
    "1320": "中",
    "1321": "主",
    "1322": "久",
    "1323": "之",
    "1324": "也",
    "1325": "事",
    "1326": "互",
    "1327": "京",
    "1328": "亭",
    "1329": "人",
    "1330": "仁",
    "1331": "仪",
    "1332": "会",
    "1333": "伝",
    "1334": "伴",
    "1335": "伽",
    "1336": "体",
    "1337": "使",
    "1338": "侠",
    "1339": "侵",
    "1340": "個",
    "1341": "倍",
    "1342": "借",
    "1343": "傳",
    "1344": "党",
    "1345": "公",
    "1346": "六",
    "1347": "兵",
    "1348": "典",
    "1349": "内",
    "1350": "净",
    "1351": "分",
    "1352": "列",
    "1353": "剛",
    "1354": "力",
    "1355": "功",
    "1356": "加",
    "1357": "勝",
    "1358": "勧",
    "1359": "化",
    "1360": "北",
    "1361": "千",
    "1362": "华",
    "1363": "南",
    "1364": "単",
    "1365": "博",
    "1366": "卡",
    "1367": "印",
    "1368": "原",
    "1369": "县",
    "1370": "古",
    "1371": "台",
    "1372": "史",
    "1373": "司",
    "1374": "合",
    "1375": "名",
    "1376": "吳",
    "1377": "吴",
    "1378": "周",
    "1379": "呪",
    "1380": "和",
    "1381": "哈",
    "1382": "商",
    "1383": "器",
    "1384": "四",
    "1385": "国",
    "1386": "图",
    "1387": "國",
    "1388": "地",
    "1389": "坂",
    "1390": "坡",
    "1391": "基",
    "1392": "堂",
    "1393": "墨",
    "1394": "夏",
    "1395": "外",
    "1396": "多",
    "1397": "大",
    "1398": "天",
    "1399": "夫",
    "1400": "央",
    "1401": "失",
    "1402": "奈",
    "1403": "奕",
    "1404": "套",
    "1405": "女",
    "1406": "娥",
    "1407": "娼",
    "1408": "婆",
    "1409": "婦",
    "1410": "子",
    "1411": "字",
    "1412": "孙",
    "1413": "孫",
    "1414": "守",
    "1415": "安",
    "1416": "宝",
    "1417": "宮",
    "1418": "家",
    "1419": "密",
    "1420": "寺",
    "1421": "小",
    "1422": "少",
    "1423": "尼",
    "1424": "屋",
    "1425": "山",
    "1426": "島",
    "1427": "川",
    "1428": "州",
    "1429": "工",
    "1430": "师",
    "1431": "庄",
    "1432": "府",
    "1433": "度",
    "1434": "建",
    "1435": "开",
    "1436": "弁",
    "1437": "式",
    "1438": "形",
    "1439": "彦",
    "1440": "彼",
    "1441": "徳",
    "1442": "德",
    "1443": "心",
    "1444": "思",
    "1445": "性",
    "1446": "恵",
    "1447": "悟",
    "1448": "慈",
    "1449": "慧",
    "1450": "慶",
    "1451": "我",
    "1452": "手",
    "1453": "才",
    "1454": "打",
    "1455": "技",
    "1456": "拳",
    "1457": "持",
    "1458": "搏",
    "1459": "摩",
    "1460": "擂",
    "1461": "效",
    "1462": "散",
    "1463": "文",
    "1464": "斯",
    "1465": "新",
    "1466": "无",
    "1467": "明",
    "1468": "星",
    "1469": "昭",
    "1470": "暁",
    "1471": "書",
    "1472": "曹",
    "1473": "曼",
    "1474": "朝",
    "1475": "木",
    "1476": "本",
    "1477": "术",
    "1478": "朱",
    "1479": "李",
    "1480": "村",
    "1481": "条",
    "1482": "杭",
    "1483": "松",
    "1484": "极",
    "1485": "林",
    "1486": "株",
    "1487": "桑",
    "1488": "條",
    "1489": "械",
    "1490": "森",
    "1491": "業",
    "1492": "欧",
    "1493": "歌",
    "1494": "歐",
    "1495": "正",
    "1496": "步",
    "1497": "武",
    "1498": "毒",
    "1499": "民",
    "1500": "气",
    "1501": "氣",
    "1502": "水",
    "1503": "江",
    "1504": "池",
    "1505": "沙",
    "1506": "河",
    "1507": "泉",
    "1508": "泓",
    "1509": "法",
    "1510": "波",
    "1511": "洪",
    "1512": "派",
    "1513": "流",
    "1514": "浦",
    "1515": "海",
    "1516": "清",
    "1517": "渠",
    "1518": "湘",
    "1519": "源",
    "1520": "滕",
    "1521": "漓",
    "1522": "漢",
    "1523": "瀬",
    "1524": "灵",
    "1525": "無",
    "1526": "熱",
    "1527": "片",
    "1528": "版",
    "1529": "物",
    "1530": "犯",
    "1531": "独",
    "1532": "王",
    "1533": "理",
    "1534": "生",
    "1535": "田",
    "1536": "由",
    "1537": "男",
    "1538": "病",
    "1539": "症",
    "1540": "百",
    "1541": "皇",
    "1542": "相",
    "1543": "省",
    "1544": "真",
    "1545": "研",
    "1546": "礼",
    "1547": "社",
    "1548": "神",
    "1549": "禮",
    "1550": "秋",
    "1551": "立",
    "1552": "篠",
    "1553": "米",
    "1554": "精",
    "1555": "紀",
    "1556": "約",
    "1557": "素",
    "1558": "経",
    "1559": "統",
    "1560": "総",
    "1561": "约",
    "1562": "网",
    "1563": "罗",
    "1564": "美",
    "1565": "義",
    "1566": "老",
    "1567": "考",
    "1568": "者",
    "1569": "育",
    "1570": "腾",
    "1571": "臣",
    "1572": "自",
    "1573": "臺",
    "1574": "舜",
    "1575": "船",
    "1576": "色",
    "1577": "艺",
    "1578": "花",
    "1579": "苏",
    "1580": "苗",
    "1581": "英",
    "1582": "荆",
    "1583": "草",
    "1584": "華",
    "1585": "蕊",
    "1586": "藝",
    "1587": "蘇",
    "1588": "處",
    "1589": "術",
    "1590": "表",
    "1591": "裁",
    "1592": "裂",
    "1593": "觀",
    "1594": "角",
    "1595": "記",
    "1596": "訳",
    "1597": "説",
    "1598": "調",
    "1599": "諾",
    "1600": "讯",
    "1601": "诃",
    "1602": "说",
    "1603": "谱",
    "1604": "谷",
    "1605": "象",
    "1606": "財",
    "1607": "距",
    "1608": "路",
    "1609": "身",
    "1610": "車",
    "1611": "輝",
    "1612": "轲",
    "1613": "辦",
    "1614": "進",
    "1615": "遊",
    "1616": "都",
    "1617": "里",
    "1618": "金",
    "1619": "鎮",
    "1620": "門",
    "1621": "閣",
    "1622": "陈",
    "1623": "陳",
    "1624": "陽",
    "1625": "際",
    "1626": "雁",
    "1627": "離",
    "1628": "雪",
    "1629": "電",
    "1630": "震",
    "1631": "館",
    "1632": "馆",
    "1633": "首",
    "1634": "駐",
    "1635": "马",
    "1636": "驻",
    "1637": "骑",
    "1638": "體",
    "1639": "鶴",
    "1640": "黃",
    "1641": "黄",
    "1642": "黑",
    "1643": "黒",
    "1644": "齡",
    "1645": "齢",
    "1646": "龄",
    "1647": "龙",
    "1648": "꞉",
    "1649": "개",
    "1650": "걸",
    "1651": "고",
    "1652": "곡",
    "1653": "관",
    "1654": "교",
    "1655": "구",
    "1656": "국",
    "1657": "기",
    "1658": "김",
    "1659": "녀",
    "1660": "당",
    "1661": "대",
    "1662": "뎅",
    "1663": "도",
    "1664": "디",
    "1665": "떡",
    "1666": "륜",
    "1667": "리",
    "1668": "막",
    "1669": "멸",
    "1670": "명",
    "1671": "물",
    "1672": "박",
    "1673": "볶",
    "1674": "부",
    "1675": "사",
    "1676": "산",
    "1677": "삼",
    "1678": "상",
    "1679": "생",
    "1680": "선",
    "1681": "성",
    "1682": "슨",
    "1683": "식",
    "1684": "안",
    "1685": "오",
    "1686": "외",
    "1687": "용",
    "1688": "음",
    "1689": "의",
    "1690": "이",
    "1691": "자",
    "1692": "장",
    "1693": "재",
    "1694": "전",
    "1695": "정",
    "1696": "존",
    "1697": "주",
    "1698": "진",
    "1699": "찌",
    "1700": "추",
    "1701": "충",
    "1702": "치",
    "1703": "탕",
    "1704": "택",
    "1705": "통",
    "1706": "평",
    "1707": "피",
    "1708": "해",
    "1709": "회",
    "1710": "휘",
    "1711": "﴾",
    "1712": "﴿",
    "1713": "️",
    "1714": "ﺐ",
    "1715": "ﺣ",
    "1716": "ﻠ",
    "1717": "﻿",
    "1718": "）",
    "1719": "，",
    "1720": "￣",
    "1721": "￼",
    "1722": "𒂍",
    "1723": "𒅍",
    "1724": "𒅎",
    "1725": "𒋼",
    "1726": "𝜙",
    "1727": "🇫",
    "1728": "🇷",
    "1729": "👍",
    "1730": "👪",
    "1731": "😂",
    "1732": "🙏",
    "1733": "े</w>",
    "1734": "ा</w>",
    "1735": "ी</w>",
    "1736": "र</w>",
    "1737": "ं</w>",
    "1738": "के</w>",
    "1739": "्र",
    "1740": "।</w>",
    "1741": "मे",
    "1742": "है",
    "1743": "न</w>",
    "1744": "र्",
    "1745": "क</w>",
    "1746": ",</w>",
    "1747": "में</w>",
    "1748": "त</w>",
    "1749": "स्",
    "1750": "िय",
    "1751": "्य",
    "1752": "==",
    "1753": "ो</w>",
    "1754": "की</w>",
    "1755": "ने</w>",
    "1756": "ार",
    "1757": "प्र",
    "1758": "से</w>",
    "1759": "ों</w>",
    "1760": "ल</w>",
    "1761": "का</w>",
    "1762": "और</w>",
    "1763": "क्",
    "1764": "वि",
    "1765": "स</w>",
    "1766": "ता</w>",
    "1767": "==</w>",
    "1768": "रा",
    "1769": "मा",
    "1770": "ि</w>",
    "1771": "न्",
    "1772": "का",
    "1773": "है।</w>",
    "1774": "त्",
    "1775": "म</w>",
    "1776": "वा",
    "1777": "को</w>",
    "1778": "सा",
    "1779": "य</w>",
    "1780": "लि",
    "1781": "ह</w>",
    "1782": "जा",
    "1783": "एक</w>",
    "1784": "सं",
    "1785": "ना",
    "1786": "कर",
    "1787": ")</w>",
    "1788": "नि",
    "1789": "ए</w>",
    "1790": "िया</w>",
    "1791": "ण</w>",
    "1792": "बा",
    "1793": "ला",
    "1794": "ित</w>",
    "1795": "ग</w>",
    "1796": "हा",
    "1797": "द्",
    "1798": "ट</w>",
    "1799": "हो",
    "1800": "दे",
    "1801": "ना</w>",
    "1802": "द</w>",
    "1803": "ड़",
    "1804": "क्ष",
    "1805": "िक</w>",
    "1806": "्य</w>",
    "1807": "व</w>",
    "1808": "पर</w>",
    "1809": "या</w>",
    "1810": "था",
    "1811": "िल",
    "1812": "ई</w>",
    "1813": "पा",
    "1814": "प</w>",
    "1815": "है</w>",
    "1816": "भी</w>",
    "1817": "हैं",
    "1818": "ड</w>",
    "1819": "ता",
    "1820": "िया",
    "1821": "ते</w>",
    "1822": "रू",
    "1823": "लिए</w>",
    "1824": "सम",
    "1825": "भा",
    "1826": "रि",
    "1827": "हु",
    "1828": "कि",
    "1829": "ती</w>",
    "1830": "ले",
    "1831": "कि</w>",
    "1832": "ति",
    "1833": "या",
    "1834": "ति</w>",
    "1835": "श</w>",
    "1836": "नी</w>",
    "1837": "जि",
    "1838": "ष्",
    "1839": "कर</w>",
    "1840": "हैं।</w>",
    "1841": "ीय</w>",
    "1842": "राज",
    "1843": "त्र",
    "1844": "री</w>",
    "1845": "पु",
    "1846": "सि",
    "1847": "20",
    "1848": "अन",
    "1849": "्या",
    "1850": ".</w>",
    "1851": "ज़",
    "1852": "शा",
    "1853": "ंग",
    "1854": "अप",
    "1855": "थ</w>",
    "1856": "मु",
    "1857": "यह</w>",
    "1858": "कार",
    "1859": "ली</w>",
    "1860": "किया</w>",
    "1861": "मि",
    "1862": "=</w>",
    "1863": "कार</w>",
    "1864": "दा",
    "1865": "ल्",
    "1866": "रूप</w>",
    "1867": "चा",
    "1868": "ें</w>",
    "1869": "भार",
    "1870": "वर्",
    "1871": "इस",
    "1872": "ले</w>",
    "1873": "था</w>",
    "1874": "को",
    "1875": "उत्",
    "1876": "19",
    "1877": "पू",
    "1878": "क्र",
    "1879": "श्",
    "1880": "कु",
    "1881": "ँ</w>",
    "1882": "हि",
    "1883": "===</w>",
    "1884": "गा",
    "1885": "के",
    "1886": "ब</w>",
    "1887": "त्र</w>",
    "1888": "इस</w>",
    "1889": "दि",
    "1890": "ही",
    "1891": "ही</w>",
    "1892": "म्",
    "1893": "ट्र",
    "1894": "है,</w>",
    "1895": "ज</w>",
    "1896": "अध",
    "1897": "ला</w>",
    "1898": "द्व",
    "1899": "ारा</w>",
    "1900": "च</w>",
    "1901": "यो",
    "1902": "ने",
    "1903": "जो</w>",
    "1904": "वे",
    "1905": "से",
    "1906": "लो",
    "1907": "ध</w>",
    "1908": "धा",
    "1909": "सी",
    "1910": "ग्र",
    "1911": "सी</w>",
    "1912": "दी</w>",
    "1913": "दर्",
    "1914": "ियों</w>",
    "1915": "-</w>",
    "1916": "प्",
    "1917": "करने</w>",
    "1918": "जाता</w>",
    "1919": "रो",
    "1920": ":</w>",
    "1921": "ण्",
    "1922": "उप",
    "1923": "गया</w>",
    "1924": "ु</w>",
    "1925": "था।</w>",
    "1926": "स्त",
    "1927": "सर",
    "1928": "शि",
    "1929": "उत्त",
    "1930": "स्थ",
    "1931": "उन्",
    "1932": "स्ट",
    "1933": "उन",
    "1934": "द्वारा</w>",
    "1935": "ओं</w>",
    "1936": "0</w>",
    "1937": "जी",
    "1938": "प्रा",
    "1939": "सु",
    "1940": "स्था",
    "1941": "पर",
    "1942": "साथ</w>",
    "1943": "अनु",
    "1944": "हीं</w>",
    "1945": "ब्",
    "1946": "निर्",
    "1947": "ंड",
    "1948": "कृ",
    "1949": "रह",
    "1950": "फ़",
    "1951": "ी।</w>",
    "1952": "पूर्",
    "1953": "िल्",
    "1954": "रे",
    "1955": "तर",
    "1956": "ंग</w>",
    "1957": "मान",
    "1958": "भारत</w>",
    "1959": "चि",
    "1960": "पह",
    "1961": "हो</w>",
    "1962": "ं,</w>",
    "1963": "नी",
    "1964": "हें</w>",
    "1965": "नहीं</w>",
    "1966": "e</w>",
    "1967": "परि",
    "1968": "दू",
    "1969": "जिस",
    "1970": "े।</w>",
    "1971": "बी",
    "1972": "ज्",
    "1973": "बाद</w>",
    "1974": "ष</w>",
    "1975": "मी",
    "1976": "नों</w>",
    "1977": "देश</w>",
    "1978": "भ</w>",
    "1979": "तक</w>",
    "1980": "अं",
    "1981": "यु",
    "1982": "अपने</w>",
    "1983": "हैं</w>",
    "1984": "उस",
    "1985": "श्र",
    "1986": "सक",
    "1987": "व्य",
    "1988": "मुख",
    "1989": "कार्",
    "1990": "ीन</w>",
    "1991": "ढ़",
    "1992": "वह</w>",
    "1993": "क्षे",
    "1994": "बि",
    "1995": "खा",
    "1996": "टे",
    "1997": "शन</w>",
    "1998": "िया।</w>",
    "1999": "तथा</w>",
    "2000": "\"</w>",
    "2001": "तीय</w>",
    "2002": "मै",
    "2003": "हों",
    "2004": "राज्य</w>",
    "2005": "बे",
    "2006": "वी",
    "2007": "ज्ञ",
    "2008": "सन्",
    "2009": "an",
    "2010": "होंने</w>",
    "2011": "री",
    "2012": "गु",
    "2013": "सू",
    "2014": "टि",
    "2015": "बं",
    "2016": "जा</w>",
    "2017": "देख",
    "2018": "च्",
    "2019": "जन",
    "2020": "1</w>",
    "2021": "मो",
    "2022": "्यू",
    "2023": "मू",
    "2024": "ण्ड</w>",
    "2025": "गो",
    "2026": "कड़",
    "2027": "शु",
    "2028": "ियाँ</w>",
    "2029": "भि",
    "2030": "ंड</w>",
    "2031": "वा</w>",
    "2032": "्रा",
    "2033": "वे</w>",
    "2034": "ट्",
    "2035": "क्त</w>",
    "2036": "ली",
    "2037": "टी",
    "2038": "200",
    "2039": "जै",
    "2040": "रु",
    "2041": "होता</w>",
    "2042": "er",
    "2043": "टी</w>",
    "2044": "मी</w>",
    "2045": "in",
    "2046": "on",
    "2047": "मह",
    "2048": "बाह",
    "2049": "ंद",
    "2050": "2</w>",
    "2051": "कह",
    "2052": "भू",
    "2053": "मान</w>",
    "2054": "सा</w>",
    "2055": "आध",
    "2056": "पी",
    "2057": "वी</w>",
    "2058": "लग",
    "2059": "शे",
    "2060": "हुआ",
    "2061": "पि",
    "2062": "मं",
    "2063": "रा</w>",
    "2064": "टर</w>",
    "2065": "कों</w>",
    "2066": "योग</w>",
    "2067": "छ</w>",
    "2068": "बर</w>",
    "2069": "गया",
    "2070": "त्य",
    "2071": "उत्तरा",
    "2072": "पो",
    "2073": "पे",
    "2074": "s</w>",
    "2075": "ज्ञा",
    "2076": "इन्",
    "2077": "द्ध</w>",
    "2078": "डे",
    "2079": "5</w>",
    "2080": "जी</w>",
    "2081": "फ</w>",
    "2082": "दर्भ</w>",
    "2083": "बना",
    "2084": "खण्ड</w>",
    "2085": "उन्होंने</w>",
    "2086": "में,</w>",
    "2087": "एव",
    "2088": "ती",
    "2089": "कुछ</w>",
    "2090": "निक</w>",
    "2091": "्रे",
    "2092": "स्व",
    "2093": "डि",
    "2094": "प्रति",
    "2095": "निय",
    "2096": "201",
    "2097": "टा",
    "2098": "थे।</w>",
    "2099": "एवं</w>",
    "2100": "िले</w>",
    "2101": "अधि",
    "2102": "ू</w>",
    "2103": "नाम</w>",
    "2104": "उत्तराखण्ड</w>",
    "2105": "न,</w>",
    "2106": "कॉ",
    "2107": "भारतीय</w>",
    "2108": "विश्",
    "2109": "मा</w>",
    "2110": "देश",
    "2111": "ष्ट्र",
    "2112": "or",
    "2113": "दिया</w>",
    "2114": "at",
    "2115": "सम्",
    "2116": "भाष",
    "2117": "सब",
    "2118": "स्थित</w>",
    "2119": "ारी</w>",
    "2120": "लै",
    "2121": "बाहरी</w>",
    "2122": "करते</w>",
    "2123": "हैं,</w>",
    "2124": "दु",
    "2125": "मिल",
    "2126": "दो",
    "2127": "सन्दर्भ</w>",
    "2128": "मिल</w>",
    "2129": "3</w>",
    "2130": "क्षेत्र</w>",
    "2131": "प्त</w>",
    "2132": "चु",
    "2133": "इन</w>",
    "2134": "वाले</w>",
    "2135": "ar",
    "2136": "8</w>",
    "2137": "फिल्",
    "2138": "4</w>",
    "2139": "करता</w>",
    "2140": "बो",
    "2141": "जु",
    "2142": "अन्य</w>",
    "2143": "मार्",
    "2144": "ी,</w>",
    "2145": "सरकार</w>",
    "2146": "होने</w>",
    "2147": "इसके</w>",
    "2148": "al",
    "2149": "कै",
    "2150": "कर्",
    "2151": "ये</w>",
    "2152": "किया।</w>",
    "2153": "तो</w>",
    "2154": "कई</w>",
    "2155": "समय</w>",
    "2156": "),</w>",
    "2157": "उनके</w>",
    "2158": "7</w>",
    "2159": "तु",
    "2160": "6</w>",
    "2161": "बहु",
    "2162": "्यो",
    "2163": "कड़ियाँ</w>",
    "2164": "यू",
    "2165": "गर</w>",
    "2166": "प्रदेश</w>",
    "2167": "सो",
    "2168": "अधिक</w>",
    "2169": "गया।</w>",
    "2170": "d</w>",
    "2171": "जे",
    "2172": "पर्",
    "2173": "क्षा</w>",
    "2174": "इन",
    "2175": "गी",
    "2176": "जन</w>",
    "2177": "लय</w>",
    "2178": "अपनी</w>",
    "2179": "्या</w>",
    "2180": "ंट",
    "2181": "णा",
    "2182": "थी।</w>",
    "2183": "अव",
    "2184": "धि</w>",
    "2185": "ब्र",
    "2186": "ड़ी</w>",
    "2187": "ारे</w>",
    "2188": "सबसे</w>",
    "2189": "फि",
    "2190": "ण्ड",
    "2191": "जो",
    "2192": "राष्ट्र",
    "2193": "रण</w>",
    "2194": "वन</w>",
    "2195": "दा</w>",
    "2196": "ंप",
    "2197": "स्ता",
    "2198": "सर्",
    "2199": "पहले</w>",
    "2200": "होती</w>",
    "2201": "ठ</w>",
    "2202": "समा",
    "2203": "उन्हें</w>",
    "2204": "st",
    "2205": "गि",
    "2206": "इन्हें</w>",
    "2207": "नो",
    "2208": "र्थ",
    "2209": "गत</w>",
    "2210": "द्र",
    "2211": "हुआ</w>",
    "2212": "दो</w>",
    "2213": "किसी</w>",
    "2214": "डा",
    "2215": "तं",
    "2216": "en",
    "2217": "चार</w>",
    "2218": "th",
    "2219": "हुए</w>",
    "2220": "खि",
    "2221": "गों</w>",
    "2222": "कारण</w>",
    "2223": "जब</w>",
    "2224": "बै",
    "2225": "'</w>",
    "2226": "ः</w>",
    "2227": "वै",
    "2228": "ड़</w>",
    "2229": "रख",
    "2230": "न्न</w>",
    "2231": "सकता</w>",
    "2232": "ज़</w>",
    "2233": "िला</w>",
    "2234": "शामिल</w>",
    "2235": "मक</w>",
    "2236": "जिले</w>",
    "2237": "भाग</w>",
    "2238": "ग्रा",
    "2239": "बंध",
    "2240": "देखें</w>",
    "2241": ";</w>",
    "2242": "क्ति</w>",
    "2243": "किन</w>",
    "2244": "अंग",
    "2245": "लों</w>",
    "2246": "शी",
    "2247": "व्या",
    "2248": "स्ट</w>",
    "2249": "तिक</w>",
    "2250": "ारा",
    "2251": "गाँ",
    "2252": "ड़ा</w>",
    "2253": "हर</w>",
    "2254": "प्रभा",
    "2255": "पै",
    "2256": "स्थाप",
    "2257": "र,</w>",
    "2258": "लेकिन</w>",
    "2259": "हे",
    "2260": "दौ",
    "2261": "जू",
    "2262": "महा",
    "2263": "सन</w>",
    "2264": "ते",
    "2265": "a</w>",
    "2266": "त्व</w>",
    "2267": "साइ",
    "2268": "१९",
    "2269": "लेख",
    "2270": "हाँ</w>",
    "2271": "फिल्म</w>",
    "2272": "दि</w>",
    "2273": "रे</w>",
    "2274": "कम</w>",
    "2275": "==।</w>",
    "2276": "9</w>",
    "2277": "बहुत</w>",
    "2278": "न्त",
    "2279": "छो",
    "2280": "ंट</w>",
    "2281": "करण</w>",
    "2282": "खे",
    "2283": "स्थान</w>",
    "2284": "जाती</w>",
    "2285": "अमे",
    "2286": "कारी</w>",
    "2287": "फा",
    "2288": "ic",
    "2289": "की",
    "2290": "सिं",
    "2291": "लिय",
    "2292": "विद",
    "2293": "जैसे</w>",
    "2294": "ंकि</w>",
    "2295": "होते</w>",
    "2296": "२०",
    "2297": "दान</w>",
    "2298": "र्म",
    "2299": "क्षि",
    "2300": "संस्",
    "2301": "निर्मा",
    "2302": "विशे",
    "2303": "कहा</w>",
    "2304": "प्रकार</w>",
    "2305": "अमेरि",
    "2306": "यों</w>",
    "2307": "जन्",
    "2308": "सभी</w>",
    "2309": "गाँव</w>",
    "2310": "ए।</w>",
    "2311": "विधा",
    "2312": "िकार",
    "2313": "द्र</w>",
    "2314": "ग्",
    "2315": "जाने</w>",
    "2316": "बु",
    "2317": "अभि",
    "2318": "तर</w>",
    "2319": "क्रि",
    "2320": "तिहा",
    "2321": "ंख",
    "2322": "उनकी</w>",
    "2323": "अर्",
    "2324": "पूर्ण</w>",
    "2325": "वर</w>",
    "2326": "सार</w>",
    "2327": "उस</w>",
    "2328": "सह",
    "2329": "हां</w>",
    "2330": "इसे</w>",
    "2331": "सद",
    "2332": "था,</w>",
    "2333": "सर</w>",
    "2334": "ियो",
    "2335": "00</w>",
    "2336": "ड़े</w>",
    "2337": "लन</w>",
    "2338": "पुर</w>",
    "2339": "डी",
    "2340": "उसके</w>",
    "2341": "प्रे",
    "2342": "पूर्व</w>",
    "2343": "वर्ष</w>",
    "2344": "आधिकार",
    "2345": "आधिकारिक</w>",
    "2346": "y</w>",
    "2347": "रों</w>",
    "2348": "स्थि",
    "2349": "ौर</w>",
    "2350": "अंग्रे",
    "2351": "हार</w>",
    "2352": "भाषा</w>",
    "2353": "दी",
    "2354": "जिसमें</w>",
    "2355": "199",
    "2356": "गे",
    "2357": "उसे</w>",
    "2358": "t</w>",
    "2359": "वार</w>",
    "2360": "मण्ड",
    "2361": "ंच",
    "2362": "सै",
    "2363": "नु",
    "2364": "वृ",
    "2365": "मौ",
    "2366": "प्राप्त</w>",
    "2367": "मुख</w>",
    "2368": "पश्",
    "2369": "रू</w>",
    "2370": "क,</w>",
    "2371": "उपयोग</w>",
    "2372": "साम",
    "2373": "वर्त",
    "2374": "संख",
    "2375": "ेक</w>",
    "2376": "भा</w>",
    "2377": "त्री</w>",
    "2378": "न्या",
    "2379": "अल",
    "2380": "मध",
    "2381": "दक्षि",
    "2382": "मण्डल</w>",
    "2383": "उत्तर</w>",
    "2384": "पुर",
    "2385": "तरह</w>",
    "2386": "यन</w>",
    "2387": "ष्ट</w>",
    "2388": "र्ट",
    "2389": "ंध",
    "2390": "राष्ट्रीय</w>",
    "2391": "बीच</w>",
    "2392": "वल</w>",
    "2393": "इसका</w>",
    "2394": "काम</w>",
    "2395": "लिख",
    "2396": "मुख्य</w>",
    "2397": "ion",
    "2398": "गए</w>",
    "2399": "चार",
    "2400": "गढ़",
    "2401": "धार",
    "2402": "०</w>",
    "2403": "णी</w>",
    "2404": "युक्त</w>",
    "2405": "ृष्",
    "2406": "र्ड</w>",
    "2407": "बार</w>",
    "2408": "कोई</w>",
    "2409": "क्षण</w>",
    "2410": "योग",
    "2411": "पाद",
    "2412": "जान",
    "2413": "त्व",
    "2414": "ंस</w>",
    "2415": "क्ष</w>",
    "2416": "क्स</w>",
    "2417": "आई",
    "2418": "वाली</w>",
    "2419": "यी</w>",
    "2420": "त्य</w>",
    "2421": "लिया</w>",
    "2422": "टू",
    "2423": "f</w>",
    "2424": "लोगों</w>",
    "2425": "विज्ञा",
    "2426": "जीवन</w>",
    "2427": "टा</w>",
    "2428": "िया,</w>",
    "2429": "कंप",
    "2430": "पत्",
    "2431": "डी</w>",
    "2432": "यर</w>",
    "2433": "प्रमुख</w>",
    "2434": "ं।</w>",
    "2435": "गई</w>",
    "2436": "ंत</w>",
    "2437": "नगर</w>",
    "2438": "तियों</w>",
    "2439": "स्टे",
    "2440": "थी</w>",
    "2441": "लैंड</w>",
    "2442": "ंग्",
    "2443": "टो",
    "2444": "निर्माण</w>",
    "2445": "व्यव",
    "2446": "भिन्न</w>",
    "2447": "स्ट्र",
    "2448": "दूसर",
    "2449": "पास</w>",
    "2450": "प्रका",
    "2451": "रच",
    "2452": "सूच",
    "2453": "करना</w>",
    "2454": "शुरू</w>",
    "2455": "18",
    "2456": "मन</w>",
    "2457": "ंब",
    "2458": "एँ</w>",
    "2459": "रान</w>",
    "2460": "तह",
    "2461": "त्रों</w>",
    "2462": "स,</w>",
    "2463": "हम",
    "2464": "बढ़",
    "2465": "हिन्",
    "2466": "अक्",
    "2467": "कार्य",
    "2468": "वाद</w>",
    "2469": "ल,</w>",
    "2470": "थे</w>",
    "2471": "घट",
    "2472": "तों</w>",
    "2473": "लगा",
    "2474": "केट</w>",
    "2475": "कू",
    "2476": "शो",
    "2477": "च्छ",
    "2478": "फ्",
    "2479": "जन्म</w>",
    "2480": "चे",
    "2481": "सभा</w>",
    "2482": "मों</w>",
    "2483": "जिसे</w>",
    "2484": "विका",
    "2485": "जब",
    "2486": "it",
    "2487": "प्रो",
    "2488": "जाते</w>",
    "2489": "द्ध",
    "2490": "लगभ",
    "2491": "भी",
    "2492": "मित</w>",
    "2493": "रॉ",
    "2494": "हाला",
    "2495": "पं",
    "2496": "लगभग</w>",
    "2497": "े,</w>",
    "2498": "ंश</w>",
    "2499": "ड्",
    "2500": "गण",
    "2501": "खु",
    "2502": "दोनों</w>",
    "2503": "is",
    "2504": "बारे</w>",
    "2505": "विद्या",
    "2506": "ताओं</w>",
    "2507": "गीत</w>",
    "2508": "द,</w>",
    "2509": "दिर</w>",
    "2510": "of</w>",
    "2511": "कृत</w>",
    "2512": "खिला",
    "2513": "रहा</w>",
    "2514": "णा</w>",
    "2515": "स्वा",
    "2516": "ियन</w>",
    "2517": "टन</w>",
    "2518": "इं",
    "2519": "हुई</w>",
    "2520": "इतिहा",
    "2521": "श्य",
    "2522": "निया</w>",
    "2523": "च्च",
    "2524": "काल</w>",
    "2525": "स्त</w>",
    "2526": "की।</w>",
    "2527": "करती</w>",
    "2528": "मृ",
    "2529": "ई।</w>",
    "2530": "ए,</w>",
    "2531": "कुमा",
    "2532": "अध्य",
    "2533": "ख़",
    "2534": "संख्या</w>",
    "2535": "विष",
    "2536": "पश्चि",
    "2537": "लॉ",
    "2538": "पुरस्",
    "2539": "स्प",
    "2540": "कार्य</w>",
    "2541": "लोक",
    "2542": "पार्",
    "2543": "तु</w>",
    "2544": "ro",
    "2545": "फो",
    "2546": "फे",
    "2547": "कता</w>",
    "2548": "es",
    "2549": "तौर</w>",
    "2550": "जिन",
    "2551": "डॉ",
    "2552": "आव",
    "2553": "यक</w>",
    "2554": "न्यू",
    "2555": "बी</w>",
    "2556": "तः</w>",
    "2557": "शब्",
    "2558": "साहि",
    "2559": "केवल</w>",
    "2560": "ओर</w>",
    "2561": "फिर</w>",
    "2562": "बर्",
    "2563": "एस",
    "2564": "णों</w>",
    "2565": "सिंह</w>",
    "2566": "विश्व",
    "2567": "विकास</w>",
    "2568": "र्म</w>",
    "2569": "त,</w>",
    "2570": "त्रि",
    "2571": "198",
    "2572": "उद",
    "2573": "वरी</w>",
    "2574": "आर",
    "2575": "अनुसार</w>",
    "2576": "लु",
    "2577": "ड़ा",
    "2578": "लता</w>",
    "2579": "धार</w>",
    "2580": "शहर</w>",
    "2581": "तीन</w>",
    "2582": "प्रयोग</w>",
    "2583": "जाना</w>",
    "2584": "–</w>",
    "2585": "योज",
    "2586": "सदस्",
    "2587": "कल</w>",
    "2588": "्र</w>",
    "2589": "ब्रि",
    "2590": "रहे</w>",
    "2591": "दौरान</w>",
    "2592": "नाट",
    "2593": "ur",
    "2594": "श्रे",
    "2595": "क्यो",
    "2596": "घा",
    "2597": "आदि</w>",
    "2598": "यहाँ</w>",
    "2599": "विशेष</w>",
    "2600": "विभिन्न</w>",
    "2601": "गै",
    "2602": "नू",
    "2603": "al</w>",
    "2604": "एं</w>",
    "2605": "र-",
    "2606": "शिक्षा</w>",
    "2607": "धि",
    "2608": "la",
    "2609": "विश्व</w>",
    "2610": "ख</w>",
    "2611": "इसकी</w>",
    "2612": "लोग</w>",
    "2613": "फ़</w>",
    "2614": "त्मक</w>",
    "2615": "शा</w>",
    "2616": "व्यक्ति</w>",
    "2617": "20</w>",
    "2618": "पार",
    "2619": "समू",
    "2620": "क़",
    "2621": "सार",
    "2622": "ch",
    "2623": "र्गत</w>",
    "2624": "ॉर्",
    "2625": "दक्षिण</w>",
    "2626": "धन</w>",
    "2627": "पहु",
    "2628": "बन</w>",
    "2629": "इसमें</w>",
    "2630": "खो",
    "2631": "टे</w>",
    "2632": "सकते</w>",
    "2633": "बद",
    "2634": "त्रा</w>",
    "2635": "ज़ी",
    "2636": "ing",
    "2637": "मार",
    "2638": "द्धा",
    "2639": "राजनी",
    "2640": "समु",
    "2641": "क्योंकि</w>",
    "2642": "सर्व",
    "2643": "नव",
    "2644": "चौ",
    "2645": "पुरस्कार</w>",
    "2646": "हिस्",
    "2647": "फी</w>",
    "2648": "दर्शन</w>",
    "2649": "आवश्य",
    "2650": "वीं</w>",
    "2651": "ंक",
    "2652": "कहा",
    "2653": "इतिहास</w>",
    "2654": "पुरा",
    "2655": "माध",
    "2656": "अग",
    "2657": "िय</w>",
    "2658": "चै",
    "2659": "नल</w>",
    "2660": "डिय",
    "2661": "वाला</w>",
    "2662": "ची",
    "2663": "स्था</w>",
    "2664": "हन</w>",
    "2665": "अब</w>",
    "2666": "थी",
    "2667": "विध",
    "2668": "फ़िल्",
    "2669": "अंत",
    "2670": "ंद्र",
    "2671": "ृंख",
    "2672": "ह्",
    "2673": "भूमि",
    "2674": "अलग</w>",
    "2675": "परी",
    "2676": "ंगा",
    "2677": "गठ",
    "2678": "दिन</w>",
    "2679": "मीटर</w>",
    "2680": "ra",
    "2681": "दर</w>",
    "2682": "सामान",
    "2683": "शास्",
    "2684": "स्तु",
    "2685": "माना</w>",
    "2686": "उनका</w>",
    "2687": "the</w>",
    "2688": "दिया।</w>",
    "2689": "क्रिकेट</w>",
    "2690": "लित</w>",
    "2691": "लिये</w>",
    "2692": "दार</w>",
    "2693": "अपना</w>",
    "2694": "किए</w>",
    "2695": "le",
    "2696": "मे</w>",
    "2697": "र्य</w>",
    "2698": "स्थिति</w>",
    "2699": "अन्त",
    "2700": "काल",
    "2701": "ंटर",
    "2702": "मूल</w>",
    "2703": "%</w>",
    "2704": "घो",
    "2705": "नीय</w>",
    "2706": "वित</w>",
    "2707": "धान</w>",
    "2708": "सिद्ध</w>",
    "2709": "उल्",
    "2710": "चीन</w>",
    "2711": "ियां</w>",
    "2712": "चित</w>",
    "2713": "मंदिर</w>",
    "2714": "202",
    "2715": "कला",
    "2716": "आंध",
    "2717": "ंक</w>",
    "2718": "दर्श",
    "2719": "संबंध",
    "2720": "प्रत्य",
    "2721": "कृति</w>",
    "2722": "लिस</w>",
    "2723": "पहली</w>",
    "2724": "फै",
    "2725": "उन</w>",
    "2726": "प्रदान</w>",
    "2727": "ऑफ</w>",
    "2728": "युद्ध</w>",
    "2729": "भे",
    "2730": "बॉ",
    "2731": "विज्ञान</w>",
    "2732": "क्रम</w>",
    "2733": "लर</w>",
    "2734": "डो",
    "2735": "आंध्र</w>",
    "2736": "माल</w>",
    "2737": "जिन्",
    "2738": "वन",
    "2739": "एम",
    "2740": "अंतर",
    "2741": "हिं",
    "2742": "क्ति",
    "2743": "वर्ष",
    "2744": "अप्र",
    "2745": "स्तान</w>",
    "2746": "ट्स</w>",
    "2747": "र्ष",
    "2748": "ंच</w>",
    "2749": "वेब",
    "2750": "विद्यालय</w>",
    "2751": "भो",
    "2752": "197",
    "2753": "सफ",
    "2754": "दिखा",
    "2755": "उसकी</w>",
    "2756": "्यम</w>",
    "2757": "क्रिया</w>",
    "2758": "संयुक्त</w>",
    "2759": "संघ",
    "2760": "and</w>",
    "2761": "सहा",
    "2762": "परिवार</w>",
    "2763": "संगीत</w>",
    "2764": "वान</w>",
    "2765": "नौ",
    "2766": "साल</w>",
    "2767": "क्षा",
    "2768": "नै",
    "2769": "आग",
    "2770": "एक",
    "2771": "ठा",
    "2772": "निक",
    "2773": "चाहि",
    "2774": "शै",
    "2775": "बन",
    "2776": "ृंखला</w>",
    "2777": "ation",
    "2778": "न्त</w>",
    "2779": "च्च</w>",
    "2780": "196",
    "2781": "अति",
    "2782": "टीम</w>",
    "2783": "m</w>",
    "2784": "कुल</w>",
    "2785": "जबकि</w>",
    "2786": "विक",
    "2787": "त्वपूर्ण</w>",
    "2788": "तो",
    "2789": "छा",
    "2790": "तब</w>",
    "2791": "सामा",
    "2792": "जिक</w>",
    "2793": "हुआ।</w>",
    "2794": "षण</w>",
    "2795": "यर",
    "2796": "लिक</w>",
    "2797": "वास</w>",
    "2798": "नदी</w>",
    "2799": "ब्रा",
    "2800": "जिसका</w>",
    "2801": "स्थापित</w>",
    "2802": "दूसरे</w>",
    "2803": "वाल</w>",
    "2804": "प्रथ",
    "2805": "बाद,</w>",
    "2806": "सिक</w>",
    "2807": "इसी</w>",
    "2808": "पति</w>",
    "2809": "चुना",
    "2810": "re",
    "2811": "सित</w>",
    "2812": "पड़",
    "2813": "कहते</w>",
    "2814": "जिसके</w>",
    "2815": "पोर्ट",
    "2816": "अमेरिका</w>",
    "2817": "द्वी",
    "2818": "र्स</w>",
    "2819": ")।</w>",
    "2820": "प्रणा",
    "2821": "ol",
    "2822": "इंटर",
    "2823": "er</w>",
    "2824": "अर",
    "2825": "सिद्धा",
    "2826": "तहसी",
    "2827": "पन</w>",
    "2828": "राजा</w>",
    "2829": "उत्पाद",
    "2830": "जुला",
    "2831": "कृष्",
    "2832": "१</w>",
    "2833": "इंड",
    "2834": "एक्",
    "2835": "त्या",
    "2836": "वेबसाइ",
    "2837": "(अंग्रे",
    "2838": "स्थापना</w>",
    "2839": "il",
    "2840": "10",
    "2841": "फ्र",
    "2842": "{\\",
    "2843": "एन",
    "2844": "॰</w>",
    "2845": "म,</w>",
    "2846": "समझ",
    "2847": "वज",
    "2848": "बड़े</w>",
    "2849": "स्थल</w>",
    "2850": "रुआ",
    "2851": "म्प",
    "2852": "मध्य</w>",
    "2853": "पृष्",
    "2854": "२०१",
    "2855": "पिता</w>",
    "2856": "बंध</w>",
    "2857": "धर्म</w>",
    "2858": "आ</w>",
    "2859": "्यों</w>",
    "2860": "उद्",
    "2861": "बता",
    "2862": "प्रथम</w>",
    "2863": "हर",
    "2864": "वर्तमान</w>",
    "2865": "भाव",
    "2866": "तै",
    "2867": "el",
    "2868": "पी</w>",
    "2869": "सौ",
    "2870": "सां",
    "2871": "विक</w>",
    "2872": "कभी</w>",
    "2873": "बल</w>",
    "2874": "बच्च",
    "2875": "माण",
    "2876": "तहसील</w>",
    "2877": "प्रार",
    "2878": "लाइ",
    "2879": "लक्ष",
    "2880": "बना</w>",
    "2881": "४</w>",
    "2882": "्यु",
    "2883": "अक्टू",
    "2884": "प्रसिद्ध</w>",
    "2885": "शुरुआ",
    "2886": "र्ट</w>",
    "2887": "ब्ल",
    "2888": "लब्",
    "2889": "मद",
    "2890": "अप्रै",
    "2891": "षि</w>",
    "2892": "देता</w>",
    "2893": "अन्तर्गत</w>",
    "2894": "अला",
    "2895": "वर्ण",
    "2896": "लने</w>",
    "2897": "थे,</w>",
    "2898": "यहां</w>",
    "2899": "करा",
    "2900": "प्रति</w>",
    "2901": "ारों</w>",
    "2902": "उदा",
    "2903": "मिक</w>",
    "2904": "पुन",
    "2905": "जग",
    "2906": "परिणा",
    "2907": "दिल्",
    "2908": "नेट</w>",
    "2909": "य,</w>",
    "2910": "सेवा</w>",
    "2911": "ंद्र</w>",
    "2912": "ता,</w>",
    "2913": "सेना</w>",
    "2914": "२</w>",
    "2915": "तृ",
    "2916": "ियर</w>",
    "2917": "वादी</w>",
    "2918": "ंत्र",
    "2919": "महत्वपूर्ण</w>",
    "2920": "कारों</w>",
    "2921": "अभ",
    "2922": "दू</w>",
    "2923": "जाल",
    "2924": "शब्द</w>",
    "2925": "घर</w>",
    "2926": "यता</w>",
    "2927": "टि</w>",
    "2928": "देशों</w>",
    "2929": "ध्या",
    "2930": "19</w>",
    "2931": "स्वी",
    "2932": "५</w>",
    "2933": "सामान्य</w>",
    "2934": "अमेरिकी</w>",
    "2935": "ल्ड</w>",
    "2936": "ई,</w>",
    "2937": "कित्",
    "2938": "मूल",
    "2939": "हिन्दी</w>",
    "2940": "स्तर</w>",
    "2941": "पुलिस</w>",
    "2942": "उपलब्",
    "2943": "रेल",
    "2944": "पोर्टल</w>",
    "2945": "कंपनी</w>",
    "2946": "om",
    "2947": "मेंट</w>",
    "2948": "चिकित्",
    "2949": "ना,</w>",
    "2950": "समूह</w>",
    "2951": "गा</w>",
    "2952": "गढ़</w>",
    "2953": "सामाजिक</w>",
    "2954": "मार्ग</w>",
    "2955": "पता</w>",
    "2956": "जारी</w>",
    "2957": "श्री",
    "2958": "दश",
    "2959": "आधार",
    "2960": "विस्त",
    "2961": "फी",
    "2962": "धी",
    "2963": "शरी",
    "2964": "प्रकाश",
    "2965": "बन्",
    "2966": "उसने</w>",
    "2967": "am",
    "2968": "भु",
    "2969": "इस्त",
    "2970": "ज़ा",
    "2971": "कृतिक</w>",
    "2972": "मंत्री</w>",
    "2973": "(अंग्रेज़ी",
    "2974": "di",
    "2975": "पाल</w>",
    "2976": "देने</w>",
    "2977": "मन्",
    "2978": "मार्च</w>",
    "2979": "पुस्त",
    "2980": "सुर",
    "2981": "६</w>",
    "2982": "ृत</w>",
    "2983": "दे</w>",
    "2984": "पौ",
    "2985": "साथ",
    "2986": "रही</w>",
    "2987": "कुमाऊ",
    "2988": "an</w>",
    "2989": "ंद</w>",
    "2990": "म्ब",
    "2991": "अध्ययन</w>",
    "2992": "अल्",
    "2993": "चा</w>",
    "2994": "खा</w>",
    "2995": "साहित्य</w>",
    "2996": "भाषा",
    "2997": "भूमिका</w>",
    "2998": "विशेष",
    "2999": "नामक</w>",
    "3000": "बड़ी</w>",
    "3001": "क्रा",
    "3002": "मॉ",
    "3003": "देव",
    "3004": "हरण</w>",
    "3005": "तम</w>",
    "3006": "iv",
    "3007": "जून</w>",
    "3008": "डियो</w>",
    "3009": "नर</w>",
    "3010": "माम",
    "3011": "माध्यम</w>",
    "3012": "ण,</w>",
    "3013": "चन</w>",
    "3014": "in</w>",
    "3015": "बिहार</w>",
    "3016": "बात</w>",
    "3017": "आधार</w>",
    "3018": "वेश</w>",
    "3019": "स्वतं",
    "3020": "====</w>",
    "3021": "किल",
    "3022": "निर्वा",
    "3023": "|</w>",
    "3024": "कम",
    "3025": "195",
    "3026": "महारा",
    "3027": "गी</w>",
    "3028": "कुमाऊँ</w>",
    "3029": "कोशि",
    "3030": "धी</w>",
    "3031": "क्रम",
    "3032": "मृत्य",
    "3033": "पानी</w>",
    "3034": "es</w>",
    "3035": "जिससे</w>",
    "3036": "जहां</w>",
    "3037": "प्रया",
    "3038": "थी,</w>",
    "3039": "गर्",
    "3040": "्रो",
    "3041": "ed</w>",
    "3042": "दों</w>",
    "3043": "In",
    "3044": "ग्राम</w>",
    "3045": "हरा",
    "3046": "हालांकि</w>",
    "3047": "प्रत्येक</w>",
    "3048": "न-",
    "3049": "बनाने</w>",
    "3050": "000</w>",
    "3051": "दूर</w>",
    "3052": "194",
    "3053": "le</w>",
    "3054": "उच्च</w>",
    "3055": "शासन</w>",
    "3056": "समी",
    "3057": "प्रभाव</w>",
    "3058": "चे</w>",
    "3059": "त्ता</w>",
    "3060": "ष्ठ</w>",
    "3061": "द्वि",
    "3062": "गल</w>",
    "3063": "i</w>",
    "3064": "वों</w>",
    "3065": "o</w>",
    "3066": "et",
    "3067": "पृ",
    "3068": "पहला</w>",
    "3069": "३</w>",
    "3070": "चित्र</w>",
    "3071": "पाकि",
    "3072": "स्कू",
    "3073": "आप",
    "3074": "अनेक</w>",
    "3075": "लेख</w>",
    "3076": "ियाई</w>",
    "3077": "महिला</w>",
    "3078": "डा</w>",
    "3079": "नित</w>",
    "3080": "द्धि</w>",
    "3081": "श्रृंखला</w>",
    "3082": "नियम</w>",
    "3083": "शास",
    "3084": "र्थ</w>",
    "3085": "सरी</w>",
    "3086": "कृषि</w>",
    "3087": "द्वीप</w>",
    "3088": "मैच</w>",
    "3089": "बर",
    "3090": "इस्ते",
    "3091": "विश्वविद्यालय</w>",
    "3092": "विभाग</w>",
    "3093": "भर</w>",
    "3094": "चुनाव</w>",
    "3095": "ल-",
    "3096": "आम</w>",
    "3097": "पश्चिम</w>",
    "3098": "ऑफ़</w>",
    "3099": "सदस्य</w>",
    "3100": "सन्</w>",
    "3101": "या।</w>",
    "3102": "दुनिया</w>",
    "3103": "ज्या",
    "3104": "इस्तेमाल</w>",
    "3105": "बड़ा</w>",
    "3106": "ऐसा</w>",
    "3107": "ing</w>",
    "3108": "वॉ",
    "3109": "शी</w>",
    "3110": "राम",
    "3111": "वृत्",
    "3112": "८</w>",
    "3113": "ou",
    "3114": "शुरुआत</w>",
    "3115": "-1",
    "3116": "घोष",
    "3117": "सकती</w>",
    "3118": "श्री</w>",
    "3119": "शं",
    "3120": "दृ",
    "3121": "वो",
    "3122": "तुल",
    "3123": "स्ट्रे",
    "3124": "फ़िल्म</w>",
    "3125": "गर",
    "3126": "चाह",
    "3127": "ज़िले</w>",
    "3128": "दर",
    "3129": "कानू",
    "3130": "मनो",
    "3131": "प्राचीन</w>",
    "3132": "दृष्",
    "3133": "वास्त",
    "3134": "दिल्ली</w>",
    "3135": "कला</w>",
    "3136": "शरीर</w>",
    "3137": "त्रा",
    "3138": "नाओं</w>",
    "3139": "अच्छ",
    "3140": "विस्तृत</w>",
    "3141": "पन्न</w>",
    "3142": "गोल</w>",
    "3143": "राज</w>",
    "3144": "आधारित</w>",
    "3145": "गा।</w>",
    "3146": ").</w>",
    "3147": "२००",
    "3148": "विभा",
    "3149": "ri",
    "3150": "राजनीतिक</w>",
    "3151": "मंड",
    "3152": "ग्रह</w>",
    "3153": "वर्ग</w>",
    "3154": "स्टेशन</w>",
    "3155": "सितं",
    "3156": "पुरु",
    "3157": "लाल</w>",
    "3158": "इस्",
    "3159": "किया,</w>",
    "3160": "गए।</w>",
    "3161": "पृष्ठ</w>",
    "3162": "हित</w>",
    "3163": "महि",
    "3164": "है.</w>",
    "3165": "प्रणाली</w>",
    "3166": "िये</w>",
    "3167": "वरण</w>",
    "3168": "थो",
    "3169": "लू",
    "3170": "हॉ",
    "3171": "ct",
    "3172": "जे</w>",
    "3173": "वर",
    "3174": "ऐसे</w>",
    "3175": "कवि",
    "3176": "विधान</w>",
    "3177": "जों</w>",
    "3178": "कल्",
    "3179": "धिक</w>",
    "3180": "चो",
    "3181": "]</w>",
    "3182": "नई</w>",
    "3183": "यूरो",
    "3184": "सूची</w>",
    "3185": "रचना</w>",
    "3186": "मृत्यु</w>",
    "3187": "७</w>",
    "3188": "उसका</w>",
    "3189": "}}",
    "3190": "नाटक</w>",
    "3191": "आत्",
    "3192": "खिलाफ</w>",
    "3193": "अभिने",
    "3194": "लंब",
    "3195": "तक",
    "3196": "आधु",
    "3197": "ष्ट्",
    "3198": "गां",
    "3199": "अर्थ</w>",
    "3200": "17",
    "3201": "निम्",
    "3202": "टिश</w>",
    "3203": "जिला</w>",
    "3204": "आर्",
    "3205": "ग्रे",
    "3206": "ष्ट्र</w>",
    "3207": "ir",
    "3208": "for",
    "3209": "पृथ",
    "3210": "क्षित</w>",
    "3211": "बनाया</w>",
    "3212": "रिया</w>",
    "3213": "प्रदर्शन</w>",
    "3214": "कल",
    "3215": "पार्टी</w>",
    "3216": "आय",
    "3217": "गढ़वाल</w>",
    "3218": "विकसित</w>",
    "3219": "कालीन</w>",
    "3220": "गई।</w>",
    "3221": "तार</w>",
    "3222": "वैज्ञा",
    "3223": "अथ",
    "3224": "00",
    "3225": "ज़िला</w>",
    "3226": "पूरी</w>",
    "3227": "लेक्",
    "3228": "व्",
    "3229": "जल</w>",
    "3230": "गं",
    "3231": "जुलाई</w>",
    "3232": "शक्ति</w>",
    "3233": "ियोज",
    "3234": "साय",
    "3235": "ारी",
    "3236": "वेबसाइट</w>",
    "3237": "तिम</w>",
    "3238": "चर्",
    "3239": "उदाहरण</w>",
    "3240": "द्यो",
    "3241": "करके</w>",
    "3242": "सितंबर</w>",
    "3243": "गया,</w>",
    "3244": "यदि</w>",
    "3245": "दुर्",
    "3246": "शता",
    "3247": "समान</w>",
    "3248": "फ्रा",
    "3249": "अधिका",
    "3250": "पार</w>",
    "3251": "Th",
    "3252": "संगठ",
    "3253": "से,</w>",
    "3254": "क्षेत्रों</w>",
    "3255": "करे",
    "3256": "पा</w>",
    "3257": "काफी</w>",
    "3258": "मत</w>",
    "3259": "बांग्",
    "3260": "ब्रिटिश</w>",
    "3261": "उपलब्ध</w>",
    "3262": "न)</w>",
    "3263": "नाइ",
    "3264": "आगे</w>",
    "3265": "मि</w>",
    "3266": "व्यवस्था</w>",
    "3267": "कि,</w>",
    "3268": "पक</w>",
    "3269": "पॉ",
    "3270": "लिए,</w>",
    "3271": "रखा</w>",
    "3272": "n</w>",
    "3273": "भग",
    "3274": "स्टा",
    "3275": "लिया।</w>",
    "3276": "शताब्",
    "3277": "डे</w>",
    "3278": "पर्य",
    "3279": "एश",
    "3280": "खेल</w>",
    "3281": "में",
    "3282": "हों</w>",
    "3283": "परिवर्त",
    "3284": "लोक</w>",
    "3285": "लोकप्र",
    "3286": "गति</w>",
    "3287": "फर",
    "3288": "माइ",
    "3289": "लं",
    "3290": "जित</w>",
    "3291": "भव</w>",
    "3292": "परियोज",
    "3293": "इसलिए</w>",
    "3294": "जर</w>",
    "3295": "भौ",
    "3296": "इससे</w>",
    "3297": "नियंत्र",
    "3298": "प्रकाशित</w>",
    "3299": "किलो",
    "3300": "जल",
    "3301": "इला",
    "3302": "हार्",
    "3303": "बल्",
    "3304": "em",
    "3305": "संबंधित</w>",
    "3306": "15",
    "3307": "जर्म",
    "3308": "नाथ</w>",
    "3309": "श्वर</w>",
    "3310": "की,</w>",
    "3311": "अतिरि",
    "3312": "यात</w>",
    "3313": "इंग्",
    "3314": "डिया</w>",
    "3315": "व्य</w>",
    "3316": "केन्",
    "3317": "स्पे",
    "3318": "व्यक्ति",
    "3319": "10</w>",
    "3320": "्यता</w>",
    "3321": "लिंग</w>",
    "3322": "उपा",
    "3323": "पाकिस्तान</w>",
    "3324": "दशक</w>",
    "3325": "स्वरूप</w>",
    "3326": "आधुनिक</w>",
    "3327": "महिला",
    "3328": "ध्यान</w>",
    "3329": "निर्देश",
    "3330": "तान</w>",
    "3331": "उम्",
    "3332": "राम</w>",
    "3333": "क्षेत्र",
    "3334": "र्ष</w>",
    "3335": "धा</w>",
    "3336": "जय</w>",
    "3337": "्राष्ट्र",
    "3338": "सरकारी</w>",
    "3339": "समाज</w>",
    "3340": "सों</w>",
    "3341": "सार्",
    "3342": "समर्थ",
    "3343": "जनवरी</w>",
    "3344": "यार</w>",
    "3345": "पदा",
    "3346": "टेड</w>",
    "3347": "बाहर</w>",
    "3348": "as",
    "3349": "ज़न</w>",
    "3350": "्राष्ट्रीय</w>",
    "3351": "on</w>",
    "3352": "गति",
    "3353": "गू",
    "3354": "अथवा</w>",
    "3355": "हू",
    "3356": "रल</w>",
    "3357": "जय",
    "3358": "बौ",
    "3359": "ंतर",
    "3360": "धारण</w>",
    "3361": "प्रबंध",
    "3362": "जहा",
    "3363": "तन</w>",
    "3364": "ंस",
    "3365": "आज</w>",
    "3366": "भिक</w>",
    "3367": "स्टर</w>",
    "3368": "लेकर</w>",
    "3369": "वाई</w>",
    "3370": "लाइन</w>",
    "3371": "मुख्य",
    "3372": "देते</w>",
    "3373": "विधि</w>",
    "3374": "टेली",
    "3375": "ल्स</w>",
    "3376": "’</w>",
    "3377": "चित्र",
    "3378": "अक्टूबर</w>",
    "3379": "I</w>",
    "3380": "ग्री</w>",
    "3381": "आम",
    "3382": "सांख",
    "3383": "केंद्र",
    "3384": "त्</w>",
    "3385": "ग्रं",
    "3386": "न्तु</w>",
    "3387": "विधान",
    "3388": "शीर्ष",
    "3389": "छोटे</w>",
    "3390": ",000</w>",
    "3391": "जाति</w>",
    "3392": "(</w>",
    "3393": "ज्य</w>",
    "3394": "रै",
    "3395": "ऑस्ट्रे",
    "3396": "इंटरनेट</w>",
    "3397": "भूमि</w>",
    "3398": "प्रतिनि",
    "3399": "अंतिम</w>",
    "3400": "्यि",
    "3401": "जूद</w>",
    "3402": "शताब्दी</w>",
    "3403": "चल</w>",
    "3404": "बार",
    "3405": "अप्रैल</w>",
    "3406": "जाए",
    "3407": "/</w>",
    "3408": "अधिकांश</w>",
    "3409": "पूर्व",
    "3410": "जालपृष्ठ</w>",
    "3411": "ी)</w>",
    "3412": "ओ</w>",
    "3413": "वाह</w>",
    "3414": "ॉन</w>",
    "3415": "अन्",
    "3416": "शिष्ट</w>",
    "3417": "अगस्त</w>",
    "3418": "अंत</w>",
    "3419": "क्रे",
    "3420": "वाद",
    "3421": "ag",
    "3422": "+</w>",
    "3423": "कं",
    "3424": "पद</w>",
    "3425": "तैयार</w>",
    "3426": "डब्ल",
    "3427": "अपरा",
    "3428": "देव</w>",
    "3429": "यात्रा</w>",
    "3430": "ट्रे",
    "3431": "एस</w>",
    "3432": "कुमार</w>",
    "3433": "पश्चिमी</w>",
    "3434": "ंश",
    "3435": "नए</w>",
    "3436": "वत</w>",
    "3437": "e)</w>",
    "3438": "पत्ति</w>",
    "3439": "लड़",
    "3440": "ग़",
    "3441": "टाइ",
    "3442": "ंकन</w>",
    "3443": "जिनमें</w>",
    "3444": "मई</w>",
    "3445": "भाई</w>",
    "3446": "टिंग</w>",
    "3447": "देखा</w>",
    "3448": "प्रारं",
    "3449": "स्वय",
    "3450": "पर्या",
    "3451": "ध्",
    "3452": "रहता</w>",
    "3453": "रूप",
    "3454": "टल</w>",
    "3455": "193",
    "3456": "क्षम",
    "3457": "पूरा</w>",
    "3458": "रंग",
    "3459": "वंश</w>",
    "3460": "अक्सर</w>",
    "3461": "मानव</w>",
    "3462": "निश्",
    "3463": "ट,</w>",
    "3464": "इनके</w>",
    "3465": "वार",
    "3466": "सांख्यि",
    "3467": "कीय</w>",
    "3468": "म्स</w>",
    "3469": "िली",
    "3470": "उद्देश",
    "3471": "बढ़ा",
    "3472": "अंतर्राष्ट्रीय</w>",
    "3473": "लब</w>",
    "3474": "सद</w>",
    "3475": "रत</w>",
    "3476": "कहानी</w>",
    "3477": "गयी</w>",
    "3478": "..",
    "3479": "गौ",
    "3480": "देशी</w>",
    "3481": "यि",
    "3482": "रात</w>",
    "3483": "विरो",
    "3484": "हा</w>",
    "3485": "थे",
    "3486": "नि</w>",
    "3487": "उत्पादन</w>",
    "3488": "अत्य",
    "3489": "दूसरी</w>",
    "3490": "अतिरिक्त</w>",
    "3491": "लौ",
    "3492": "पूर्वी</w>",
    "3493": "हिस्सा</w>",
    "3494": "बंद</w>",
    "3495": "भाग",
    "3496": "बांग्ला",
    "3497": "प्रामाण",
    "3498": "13",
    "3499": "फ्रे",
    "3500": "अधिकार</w>",
    "3501": "आई</w>",
    "3502": "C</w>",
    "3503": "pla",
    "3504": "इस्ला",
    "3505": "बा</w>",
    "3506": "संचा",
    "3507": "देवी</w>",
    "3508": "स्कूल</w>",
    "3509": "फु",
    "3510": "ent",
    "3511": "अंड",
    "3512": "वो</w>",
    "3513": "उत्पन्न</w>",
    "3514": "विधानसभा</w>",
    "3515": "पहचा",
    "3516": "णि",
    "3517": "दर्श</w>",
    "3518": "(अंग्रेज़ी)</w>",
    "3519": "yst",
    "3520": "एंड</w>",
    "3521": "उसी</w>",
    "3522": "परियोजना</w>",
    "3523": "प्रयास</w>",
    "3524": "ली,</w>",
    "3525": "दल</w>",
    "3526": "रो</w>",
    "3527": "उत्तरी</w>",
    "3528": "लिखित</w>",
    "3529": "शल</w>",
    "3530": "ता।</w>",
    "3531": "गय",
    "3532": "नियों</w>",
    "3533": "संबंध</w>",
    "3534": "आर्थ",
    "3535": "प्ले",
    "3536": "बू",
    "3537": "रहते</w>",
    "3538": "उद्यो",
    "3539": "शीर्षक</w>",
    "3540": "पृथ्",
    "3541": "हिंदी</w>",
    "3542": "वर्षों</w>",
    "3543": "म्म",
    "3544": "गांव</w>",
    "3545": "एल",
    "3546": "फ्री",
    "3547": "लते</w>",
    "3548": "वैज्ञानिक</w>",
    "3549": "आदि",
    "3550": "2)</w>",
    "3551": "टों</w>",
    "3552": "जिस</w>",
    "3553": "टै",
    "3554": "प्रामाणिक</w>",
    "3555": "कॉले",
    "3556": "रु</w>",
    "3557": "आदर्श</w>",
    "3558": "मानित</w>",
    "3559": "सीमा</w>",
    "3560": "गणना</w>",
    "3561": "जहाँ</w>",
    "3562": "होकर</w>",
    "3563": "म्बर</w>",
    "3564": "प्रक्रिया</w>",
    "3565": "ul",
    "3566": "जानकार",
    "3567": "शास्त्र</w>",
    "3568": "स्ति",
    "3569": "बह",
    "3570": "तत्",
    "3571": "फाइ",
    "3572": "न्स</w>",
    "3573": "मदद</w>",
    "3574": "क्रिया",
    "3575": "लोकप्रिय</w>",
    "3576": "मिला",
    "3577": "बिना</w>",
    "3578": "मति</w>",
    "3579": "ँचा",
    "3580": "बेस</w>",
    "3581": "साम्रा",
    "3582": "योजना</w>",
    "3583": "भूगोल</w>",
    "3584": "सत</w>",
    "3585": "हम</w>",
    "3586": "हुई।</w>",
    "3587": "निर्दे",
    "3588": "16",
    "3589": "un",
    "3590": "टेस्ट</w>",
    "3591": "पद",
    "3592": "ज्ञान</w>",
    "3593": "सेवा",
    "3594": "मुक्त</w>",
    "3595": "विचार</w>",
    "3596": "(200",
    "3597": "मर</w>",
    "3598": "कौ",
    "3599": "झा",
    "3600": "संघ</w>",
    "3601": "दिसं",
    "3602": "संस्करण</w>",
    "3603": "ऊपर</w>",
    "3604": "जीत</w>",
    "3605": "अलावा</w>",
    "3606": "श्रेष्ठ</w>",
    "3607": "न्य</w>",
    "3608": "तरी",
    "3609": "रेलवे</w>",
    "3610": "त-",
    "3611": "बहा",
    "3612": "नेट",
    "3613": "एच",
    "3614": "ऐसी</w>",
    "3615": "पट",
    "3616": "केंद्र</w>",
    "3617": "उपन्या",
    "3618": "कथा",
    "3619": "धर्म",
    "3620": "रहने</w>",
    "3621": "चू",
    "3622": "समस्",
    "3623": "ज़ी</w>",
    "3624": "किलोमीटर</w>",
    "3625": "रहे।</w>",
    "3626": "घु",
    "3627": "९</w>",
    "3628": "dis",
    "3629": "वेश",
    "3630": "जिन्हें</w>",
    "3631": "प्रस्तु",
    "3632": "ताल</w>",
    "3633": "लेने</w>",
    "3634": "ंबर</w>",
    "3635": "ंतु</w>",
    "3636": "ष्ण",
    "3637": "रण",
    "3638": "श्य</w>",
    "3639": "त्रता</w>",
    "3640": "थि",
    "3641": "डै",
    "3642": "पूरे</w>",
    "3643": "बादी</w>",
    "3644": "बंगा",
    "3645": "वु",
    "3646": "ist",
    "3647": "कांग",
    "3648": "मूर्",
    "3649": "न्याया",
    "3650": "वाप",
    "3651": "वाह",
    "3652": "सफल</w>",
    "3653": "सार्वज",
    "3654": "किये</w>",
    "3655": "संदर्भ</w>",
    "3656": "शादी</w>",
    "3657": "धित</w>",
    "3658": "कार्ड</w>",
    "3659": "स्थानीय</w>",
    "3660": "टर",
    "3661": "कोड</w>",
    "3662": "पि</w>",
    "3663": "us",
    "3664": "(उत्तराखण्ड</w>",
    "3665": "ट्रो",
    "3666": "पक्ष",
    "3667": "15</w>",
    "3668": "जिसने</w>",
    "3669": "विषय</w>",
    "3670": "आवश्यक</w>",
    "3671": "(S",
    "3672": "ई.</w>",
    "3673": "आने</w>",
    "3674": "शर्",
    "3675": "अर्थ",
    "3676": "जनसांख्यि",
    "3677": "ीक</w>",
    "3678": "थीं।</w>",
    "3679": "उर्",
    "3680": "रता</w>",
    "3681": "दूसरा</w>",
    "3682": "अका",
    "3683": "तिहासिक</w>",
    "3684": "जनसंख्या</w>",
    "3685": "चिकित्सा</w>",
    "3686": "जार</w>",
    "3687": "कॉर्ड</w>",
    "3688": "ट्रा",
    "3689": "नृ",
    "3690": "१८",
    "3691": "पढ़",
    "3692": "क्रो",
    "3693": "तियो",
    "3694": "ढा",
    "3695": "समि",
    "3696": "परे",
    "3697": "बनी</w>",
    "3698": "ग्रह",
    "3699": "गेम</w>",
    "3700": "तहत</w>",
    "3701": "आवश्यकता</w>",
    "3702": "बांग्लादेश</w>",
    "3703": "ph",
    "3704": "नेश",
    "3705": "लक</w>",
    "3706": "सहायता</w>",
    "3707": "इन्होंने</w>",
    "3708": "निर्वाचन</w>",
    "3709": "प्रभावित</w>",
    "3710": "मात्रा</w>",
    "3711": "योजित</w>",
    "3712": "सार्वजनिक</w>",
    "3713": "सान</w>",
    "3714": "कंप्यू",
    "3715": "विशिष्ट</w>",
    "3716": "प्रदर्श",
    "3717": "लोच",
    "3718": "डेटा",
    "3719": "त्या</w>",
    "3720": "k</w>",
    "3721": "द्वितीय</w>",
    "3722": "ic</w>",
    "3723": "मूवी</w>",
    "3724": "रंग</w>",
    "3725": "धानी</w>",
    "3726": "क्षमता</w>",
    "3727": "अस",
    "3728": "पीछ",
    "3729": "घोषणा</w>",
    "3730": "प्ला",
    "3731": "वाय",
    "3732": "त:</w>",
    "3733": "दमी</w>",
    "3734": "हाइ",
    "3735": "मैन</w>",
    "3736": "मीर</w>",
    "3737": "सिल</w>",
    "3738": "को,</w>",
    "3739": "सके",
    "3740": "आप</w>",
    "3741": "2008</w>",
    "3742": "बल",
    "3743": "तुलना</w>",
    "3744": "ई-",
    "3745": "रिक</w>",
    "3746": "लियों</w>",
    "3747": "खिलाड़ी</w>",
    "3748": "ंचा",
    "3749": "पुत्र</w>",
    "3750": "ंपर",
    "3751": "ठा</w>",
    "3752": "नीचे</w>",
    "3753": "गुज",
    "3754": "ध्र",
    "3755": "घटना</w>",
    "3756": "निवा",
    "3757": "ac",
    "3758": "जानकारी</w>",
    "3759": "—</w>",
    "3760": "at</w>",
    "3761": "सहित</w>",
    "3762": "चरण</w>",
    "3763": "इंग्लैंड</w>",
    "3764": "डर</w>",
    "3765": "चरि",
    "3766": "पाठ",
    "3767": "राजस्थान</w>",
    "3768": "उद्देश्य</w>",
    "3769": "दिखाई</w>",
    "3770": "अभी</w>",
    "3771": "कट</w>",
    "3772": "तना</w>",
    "3773": "गुण",
    "3774": "जगह</w>",
    "3775": "आबादी</w>",
    "3776": "त्ती",
    "3777": "तकनी",
    "3778": "गिर",
    "3779": "चर</w>",
    "3780": "परीक्षण</w>",
    "3781": "कलाकार</w>",
    "3782": "स्रो",
    "3783": "भाव</w>",
    "3784": "टीवी</w>",
    "3785": "A</w>",
    "3786": "बद्ध</w>",
    "3787": "याता",
    "3788": "एं",
    "3789": "रानी</w>",
    "3790": "_{",
    "3791": "रिय",
    "3792": "न्न",
    "3793": "दाय</w>",
    "3794": "माने</w>",
    "3795": "सांस्",
    "3796": "वें</w>",
    "3797": "ख्या",
    "3798": "क्या</w>",
    "3799": "है:</w>",
    "3800": "ज्ञ</w>",
    "3801": "सामने</w>",
    "3802": "ज,</w>",
    "3803": "दिसंबर</w>",
    "3804": "ऐतिहासिक</w>",
    "3805": "12",
    "3806": "पित</w>",
    "3807": "भगवान</w>",
    "3808": "हार",
    "3809": "प्रशि",
    "3810": "कृष्ण</w>",
    "3811": "रोग</w>",
    "3812": "आर्थिक</w>",
    "3813": "सीसी</w>",
    "3814": "डेटाबेस</w>",
    "3815": "ड्स</w>",
    "3816": "संस्कृति</w>",
    "3817": "लाह</w>",
    "3818": "होना</w>",
    "3819": "कथा</w>",
    "3820": "नियु",
    "3821": "राइ",
    "3822": "यातायात</w>",
    "3823": "प्रेर",
    "3824": "ig",
    "3825": "ब्रह्",
    "3826": "प्रबंधन</w>",
    "3827": "कर्ता</w>",
    "3828": "महिलाओं</w>",
    "3829": "परिणाम</w>",
    "3830": "००</w>",
    "3831": "ँच</w>",
    "3832": "14",
    "3833": "जिन्होंने</w>",
    "3834": "30</w>",
    "3835": "निर्मित</w>",
    "3836": "शो</w>",
    "3837": "जनसांख्यिकी</w>",
    "3838": "निश्चित</w>",
    "3839": "स्टी",
    "3840": "सम्बन्",
    "3841": "एड",
    "3842": "ad",
    "3843": "कन</w>",
    "3844": "व्यापार</w>",
    "3845": "सर्वश्रेष्ठ</w>",
    "3846": "शैली</w>",
    "3847": "yle</w>",
    "3848": "समर्थन</w>",
    "3849": "आस",
    "3850": "(B",
    "3851": "ation</w>",
    "3852": "स्टो",
    "3853": "संर",
    "3854": "राष्ट्रपति</w>",
    "3855": "साम्राज्य</w>",
    "3856": "आमतौर</w>",
    "3857": "अफ्री",
    "3858": "अनुसं",
    "3859": "जानकारी)</w>",
    "3860": "उत्तरा</w>",
    "3861": "displa",
    "3862": "त)</w>",
    "3863": "आन्",
    "3864": "स्वयं</w>",
    "3865": "-0",
    "3866": "मात्र</w>",
    "3867": "कां",
    "3868": "प्रती",
    "3869": "ला,</w>",
    "3870": "समाप्त</w>",
    "3871": "displayst",
    "3872": "displaystyle</w>",
    "3873": "por",
    "3874": "वर्णन</w>",
    "3875": "id",
    "3876": "तियाँ</w>",
    "3877": "भावना</w>",
    "3878": "विचार",
    "3879": "ज्यादा</w>",
    "3880": "ut",
    "3881": "प्रभा।</w>",
    "3882": "क्र</w>",
    "3883": "अंग्रेजी</w>",
    "3884": "पत्र</w>",
    "3885": "इनमें</w>",
    "3886": "The</w>",
    "3887": "कानून</w>",
    "3888": "र्मिक</w>",
    "3889": "पूर्ति</w>",
    "3890": "र्क</w>",
    "3891": "(C",
    "3892": "शिप</w>",
    "3893": "th</w>",
    "3894": "वृद्धि</w>",
    "3895": "पाया</w>",
    "3896": "एफ",
    "3897": "}</w>",
    "3898": "छत्ती",
    "3899": "सांस्कृतिक</w>",
    "3900": "(P",
    "3901": "प्रसार",
    "3902": "ताप",
    "3903": "धार्मिक</w>",
    "3904": "श्रेणी</w>",
    "3905": "रखने</w>",
    "3906": "रं",
    "3907": "x</w>",
    "3908": "ed",
    "3909": "स्पष्ट</w>",
    "3910": "पहा",
    "3911": "क्तियों</w>",
    "3912": "छत्तीस",
    "3913": "टिक</w>",
    "3914": "टर्",
    "3915": "कप</w>",
    "3916": "दूरी</w>",
    "3917": "गूगल</w>",
    "3918": "सम्मानित</w>",
    "3919": "11</w>",
    "3920": "हैं:</w>",
    "3921": "{\\displaystyle</w>",
    "3922": "दास</w>",
    "3923": "योजन</w>",
    "3924": "व,</w>",
    "3925": "आलोच",
    "3926": "प्रकाश</w>",
    "3927": "पान</w>",
    "3928": "आकार</w>",
    "3929": "12</w>",
    "3930": "राजधानी</w>",
    "3931": "1.",
    "3932": "नो</w>",
    "3933": "ट्टी</w>",
    "3934": "ंकि,</w>",
    "3935": "50</w>",
    "3936": "वरी",
    "3937": "संस्कृत</w>",
    "3938": "कार्यक्रम</w>",
    "3939": "विशा",
    "3940": "कांग्रे",
    "3941": "हम्म",
    "3942": "प्रारंभिक</w>",
    "3943": "सहायक</w>",
    "3944": "देती</w>",
    "3945": "फू",
    "3946": "हेतु</w>",
    "3947": "सुरक्षा</w>",
    "3948": "ट्रॉ",
    "3949": "त्त</w>",
    "3950": "s)</w>",
    "3951": "रहती</w>",
    "3952": "वीडियो</w>",
    "3953": "शास्त्र",
    "3954": "क्स",
    "3955": "र्ना",
    "3956": "2019</w>",
    "3957": "ot",
    "3958": "वस्तु",
    "3959": "शाली</w>",
    "3960": "im",
    "3961": "(A",
    "3962": "अनुसार",
    "3963": "पृथ्वी</w>",
    "3964": "मिलियन</w>",
    "3965": "प्री",
    "3966": "गू</w>",
    "3967": "अगर</w>",
    "3968": "प्रतियो",
    "3969": "प्राय",
    "3970": "बनाए</w>",
    "3971": "2007</w>",
    "3972": "मॉड",
    "3973": "खान</w>",
    "3974": "कॉलेज</w>",
    "3975": "गल",
    "3976": "3)</w>",
    "3977": "शरा",
    "3978": "फ़ा",
    "3979": "बेह",
    "3980": "टेलीवि",
    "3981": "नी,</w>",
    "3982": "सागर</w>",
    "3983": "चार्य</w>",
    "3984": "गिक</w>",
    "3985": "अवधि</w>",
    "3986": "लिखा</w>",
    "3987": "नाग",
    "3988": "रिली",
    "3989": "हालांकि,</w>",
    "3990": "h</w>",
    "3991": "ap",
    "3992": "ति,</w>",
    "3993": "॰ऍ",
    "3994": "नय</w>",
    "3995": "अर्था",
    "3996": "मर",
    "3997": "आता</w>",
    "3998": "मही",
    "3999": "निष्"
  },
  "merges": {
    "े </w>": 1733,
    "ा </w>": 1734,
    "ी </w>": 1735,
    "र </w>": 1736,
    "ं </w>": 1737,
    "क े</w>": 1738,
    "् र": 1739,
    "। </w>": 1740,
    "म े": 1741,
    "ह ै": 1742,
    "न </w>": 1743,
    "र ्": 1744,
    "क </w>": 1745,
    ", </w>": 1746,
    "मे ं</w>": 1747,
    "त </w>": 1748,
    "स ्": 1749,
    "ि य": 1750,
    "् य": 1751,
    "= =": 1752,
    "ो </w>": 1753,
    "क ी</w>": 1754,
    "न े</w>": 1755,
    "ा र": 1756,
    "प ्र": 1757,
    "स े</w>": 1758,
    "ो ं</w>": 1759,
    "ल </w>": 1760,
    "क ा</w>": 1761,
    "औ र</w>": 1762,
    "क ्": 1763,
    "व ि": 1764,
    "स </w>": 1765,
    "त ा</w>": 1766,
    "== </w>": 1767,
    "र ा": 1768,
    "म ा": 1769,
    "ि </w>": 1770,
    "न ्": 1771,
    "क ा": 1772,
    "है ।</w>": 1773,
    "त ्": 1774,
    "म </w>": 1775,
    "व ा": 1776,
    "क ो</w>": 1777,
    "स ा": 1778,
    "य </w>": 1779,
    "ल ि": 1780,
    "ह </w>": 1781,
    "ज ा": 1782,
    "ए क</w>": 1783,
    "स ं": 1784,
    "न ा": 1785,
    "क र": 1786,
    ") </w>": 1787,
    "न ि": 1788,
    "ए </w>": 1789,
    "िय ा</w>": 1790,
    "ण </w>": 1791,
    "ब ा": 1792,
    "ल ा": 1793,
    "ि त</w>": 1794,
    "ग </w>": 1795,
    "ह ा": 1796,
    "द ्": 1797,
    "ट </w>": 1798,
    "ह ो": 1799,
    "द े": 1800,
    "न ा</w>": 1801,
    "द </w>": 1802,
    "ड ़": 1803,
    "क् ष": 1804,
    "ि क</w>": 1805,
    "्य </w>": 1806,
    "व </w>": 1807,
    "प र</w>": 1808,
    "य ा</w>": 1809,
    "थ ा": 1810,
    "ि ल": 1811,
    "ई </w>": 1812,
    "प ा": 1813,
    "प </w>": 1814,
    "है </w>": 1815,
    "भ ी</w>": 1816,
    "है ं": 1817,
    "ड </w>": 1818,
    "त ा": 1819,
    "िय ा": 1820,
    "त े</w>": 1821,
    "र ू": 1822,
    "लि ए</w>": 1823,
    "स म": 1824,
    "भ ा": 1825,
    "र ि": 1826,
    "ह ु": 1827,
    "क ि": 1828,
    "त ी</w>": 1829,
    "ल े": 1830,
    "क ि</w>": 1831,
    "त ि": 1832,
    "य ा": 1833,
    "त ि</w>": 1834,
    "श </w>": 1835,
    "न ी</w>": 1836,
    "ज ि": 1837,
    "ष ्": 1838,
    "क र</w>": 1839,
    "हैं ।</w>": 1840,
    "ी य</w>": 1841,
    "रा ज": 1842,
    "त ्र": 1843,
    "र ी</w>": 1844,
    "प ु": 1845,
    "स ि": 1846,
    "2 0": 1847,
    "अ न": 1848,
    "्य ा": 1849,
    ". </w>": 1850,
    "ज ़": 1851,
    "श ा": 1852,
    "ं ग": 1853,
    "अ प": 1854,
    "थ </w>": 1855,
    "म ु": 1856,
    "य ह</w>": 1857,
    "क ार": 1858,
    "ल ी</w>": 1859,
    "क िया</w>": 1860,
    "म ि": 1861,
    "= </w>": 1862,
    "का र</w>": 1863,
    "द ा": 1864,
    "ल ्": 1865,
    "रू प</w>": 1866,
    "च ा": 1867,
    "े ं</w>": 1868,
    "भ ार": 1869,
    "व र्": 1870,
    "इ स": 1871,
    "ल े</w>": 1872,
    "थ ा</w>": 1873,
    "क ो": 1874,
    "उ त्": 1875,
    "1 9": 1876,
    "प ू": 1877,
    "क ्र": 1878,
    "श ्": 1879,
    "क ु": 1880,
    "ँ </w>": 1881,
    "ह ि": 1882,
    "== =</w>": 1883,
    "ग ा": 1884,
    "क े": 1885,
    "ब </w>": 1886,
    "त् र</w>": 1887,
    "इ स</w>": 1888,
    "द ि": 1889,
    "ह ी": 1890,
    "ह ी</w>": 1891,
    "म ्": 1892,
    "ट ्र": 1893,
    "है ,</w>": 1894,
    "ज </w>": 1895,
    "अ ध": 1896,
    "ल ा</w>": 1897,
    "द् व": 1898,
    "ार ा</w>": 1899,
    "च </w>": 1900,
    "य ो": 1901,
    "न े": 1902,
    "ज ो</w>": 1903,
    "व े": 1904,
    "स े": 1905,
    "ल ो": 1906,
    "ध </w>": 1907,
    "ध ा": 1908,
    "स ी": 1909,
    "ग ्र": 1910,
    "स ी</w>": 1911,
    "द ी</w>": 1912,
    "द र्": 1913,
    "िय ों</w>": 1914,
    "- </w>": 1915,
    "प ्": 1916,
    "कर ने</w>": 1917,
    "जा ता</w>": 1918,
    "र ो": 1919,
    ": </w>": 1920,
    "ण ्": 1921,
    "उ प": 1922,
    "ग या</w>": 1923,
    "ु </w>": 1924,
    "था ।</w>": 1925,
    "स् त": 1926,
    "स र": 1927,
    "श ि": 1928,
    "उत् त": 1929,
    "स् थ": 1930,
    "उ न्": 1931,
    "स् ट": 1932,
    "उ न": 1933,
    "द्व ारा</w>": 1934,
    "ओ ं</w>": 1935,
    "0 </w>": 1936,
    "ज ी": 1937,
    "प्र ा": 1938,
    "स ु": 1939,
    "स् था": 1940,
    "प र": 1941,
    "सा थ</w>": 1942,
    "अन ु": 1943,
    "ही ं</w>": 1944,
    "ब ्": 1945,
    "नि र्": 1946,
    "ं ड": 1947,
    "क ृ": 1948,
    "र ह": 1949,
    "फ ़": 1950,
    "ी ।</w>": 1951,
    "पू र्": 1952,
    "िल ्": 1953,
    "र े": 1954,
    "त र": 1955,
    "ं ग</w>": 1956,
    "मा न": 1957,
    "भार त</w>": 1958,
    "च ि": 1959,
    "प ह": 1960,
    "ह ो</w>": 1961,
    "ं ,</w>": 1962,
    "न ी": 1963,
    "ह ें</w>": 1964,
    "न हीं</w>": 1965,
    "e </w>": 1966,
    "प रि": 1967,
    "द ू": 1968,
    "जि स": 1969,
    "े ।</w>": 1970,
    "ब ी": 1971,
    "ज ्": 1972,
    "बा द</w>": 1973,
    "ष </w>": 1974,
    "म ी": 1975,
    "न ों</w>": 1976,
    "दे श</w>": 1977,
    "भ </w>": 1978,
    "त क</w>": 1979,
    "अ ं": 1980,
    "य ु": 1981,
    "अप ने</w>": 1982,
    "है ं</w>": 1983,
    "उ स": 1984,
    "श ्र": 1985,
    "स क": 1986,
    "व ्य": 1987,
    "मु ख": 1988,
    "का र्": 1989,
    "ी न</w>": 1990,
    "ढ ़": 1991,
    "व ह</w>": 1992,
    "क्ष े": 1993,
    "ब ि": 1994,
    "ख ा": 1995,
    "ट े": 1996,
    "श न</w>": 1997,
    "िया ।</w>": 1998,
    "त था</w>": 1999,
    "\" </w>": 2000,
    "त ीय</w>": 2001,
    "म ै": 2002,
    "हो ं": 2003,
    "राज ्य</w>": 2004,
    "ब े": 2005,
    "व ी": 2006,
    "ज् ञ": 2007,
    "स न्": 2008,
    "a n": 2009,
    "हों ने</w>": 2010,
    "र ी": 2011,
    "ग ु": 2012,
    "स ू": 2013,
    "ट ि": 2014,
    "ब ं": 2015,
    "ज ा</w>": 2016,
    "दे ख": 2017,
    "च ्": 2018,
    "ज न": 2019,
    "1 </w>": 2020,
    "म ो": 2021,
    "्य ू": 2022,
    "म ू": 2023,
    "ण् ड</w>": 2024,
    "ग ो": 2025,
    "क ड़": 2026,
    "श ु": 2027,
    "िया ँ</w>": 2028,
    "भ ि": 2029,
    "ं ड</w>": 2030,
    "व ा</w>": 2031,
    "्र ा": 2032,
    "व े</w>": 2033,
    "ट ्": 2034,
    "क् त</w>": 2035,
    "ल ी": 2036,
    "ट ी": 2037,
    "20 0": 2038,
    "ज ै": 2039,
    "र ु": 2040,
    "हो ता</w>": 2041,
    "e r": 2042,
    "ट ी</w>": 2043,
    "म ी</w>": 2044,
    "i n": 2045,
    "o n": 2046,
    "म ह": 2047,
    "बा ह": 2048,
    "ं द": 2049,
    "2 </w>": 2050,
    "क ह": 2051,
    "भ ू": 2052,
    "मा न</w>": 2053,
    "स ा</w>": 2054,
    "आ ध": 2055,
    "प ी": 2056,
    "व ी</w>": 2057,
    "ल ग": 2058,
    "श े": 2059,
    "हु आ": 2060,
    "प ि": 2061,
    "म ं": 2062,
    "र ा</w>": 2063,
    "ट र</w>": 2064,
    "क ों</w>": 2065,
    "यो ग</w>": 2066,
    "छ </w>": 2067,
    "ब र</w>": 2068,
    "ग या": 2069,
    "त ्य": 2070,
    "उत्त रा": 2071,
    "प ो": 2072,
    "प े": 2073,
    "s </w>": 2074,
    "ज्ञ ा": 2075,
    "इ न्": 2076,
    "द् ध</w>": 2077,
    "ड े": 2078,
    "5 </w>": 2079,
    "ज ी</w>": 2080,
    "फ </w>": 2081,
    "दर् भ</w>": 2082,
    "ब ना": 2083,
    "ख ण्ड</w>": 2084,
    "उन् होंने</w>": 2085,
    "मे ं,</w>": 2086,
    "ए व": 2087,
    "त ी": 2088,
    "कु छ</w>": 2089,
    "नि क</w>": 2090,
    "्र े": 2091,
    "स् व": 2092,
    "ड ि": 2093,
    "प्र ति": 2094,
    "न िय": 2095,
    "20 1": 2096,
    "ट ा": 2097,
    "थ े।</w>": 2098,
    "एव ं</w>": 2099,
    "िल े</w>": 2100,
    "अध ि": 2101,
    "ू </w>": 2102,
    "ना म</w>": 2103,
    "उत्तरा खण्ड</w>": 2104,
    "न ,</w>": 2105,
    "क ॉ": 2106,
    "भार तीय</w>": 2107,
    "वि श्": 2108,
    "म ा</w>": 2109,
    "दे श": 2110,
    "ष् ट्र": 2111,
    "o r": 2112,
    "द िया</w>": 2113,
    "a t": 2114,
    "सम ्": 2115,
    "भा ष": 2116,
    "स ब": 2117,
    "स्थ ित</w>": 2118,
    "ार ी</w>": 2119,
    "ल ै": 2120,
    "बाह री</w>": 2121,
    "कर ते</w>": 2122,
    "हैं ,</w>": 2123,
    "द ु": 2124,
    "म िल": 2125,
    "द ो": 2126,
    "सन् दर्भ</w>": 2127,
    "मि ल</w>": 2128,
    "3 </w>": 2129,
    "क्षे त्र</w>": 2130,
    "प् त</w>": 2131,
    "च ु": 2132,
    "इ न</w>": 2133,
    "वा ले</w>": 2134,
    "a r": 2135,
    "8 </w>": 2136,
    "फ िल्": 2137,
    "4 </w>": 2138,
    "कर ता</w>": 2139,
    "ब ो": 2140,
    "ज ु": 2141,
    "अन ्य</w>": 2142,
    "मा र्": 2143,
    "ी ,</w>": 2144,
    "सर कार</w>": 2145,
    "हो ने</w>": 2146,
    "इस के</w>": 2147,
    "a l": 2148,
    "क ै": 2149,
    "क र्": 2150,
    "य े</w>": 2151,
    "क िया।</w>": 2152,
    "त ो</w>": 2153,
    "क ई</w>": 2154,
    "सम य</w>": 2155,
    ") ,</w>": 2156,
    "उन के</w>": 2157,
    "7 </w>": 2158,
    "त ु": 2159,
    "6 </w>": 2160,
    "ब हु": 2161,
    "्य ो": 2162,
    "कड़ ियाँ</w>": 2163,
    "य ू": 2164,
    "ग र</w>": 2165,
    "प्र देश</w>": 2166,
    "स ो": 2167,
    "अध िक</w>": 2168,
    "गया ।</w>": 2169,
    "d </w>": 2170,
    "ज े": 2171,
    "प र्": 2172,
    "क्ष ा</w>": 2173,
    "इ न": 2174,
    "ग ी": 2175,
    "ज न</w>": 2176,
    "ल य</w>": 2177,
    "अप नी</w>": 2178,
    "्य ा</w>": 2179,
    "ं ट": 2180,
    "ण ा": 2181,
    "थ ी।</w>": 2182,
    "अ व": 2183,
    "ध ि</w>": 2184,
    "ब ्र": 2185,
    "ड़ ी</w>": 2186,
    "ार े</w>": 2187,
    "सब से</w>": 2188,
    "फ ि": 2189,
    "ण् ड": 2190,
    "ज ो": 2191,
    "रा ष्ट्र": 2192,
    "र ण</w>": 2193,
    "व न</w>": 2194,
    "द ा</w>": 2195,
    "ं प": 2196,
    "स् ता": 2197,
    "स र्": 2198,
    "पह ले</w>": 2199,
    "हो ती</w>": 2200,
    "ठ </w>": 2201,
    "स मा": 2202,
    "उन् हें</w>": 2203,
    "s t": 2204,
    "ग ि": 2205,
    "इन् हें</w>": 2206,
    "न ो": 2207,
    "र् थ": 2208,
    "ग त</w>": 2209,
    "द ्र": 2210,
    "हुआ </w>": 2211,
    "द ो</w>": 2212,
    "कि सी</w>": 2213,
    "ड ा": 2214,
    "त ं": 2215,
    "e n": 2216,
    "चा र</w>": 2217,
    "t h": 2218,
    "हु ए</w>": 2219,
    "ख ि": 2220,
    "ग ों</w>": 2221,
    "कार ण</w>": 2222,
    "ज ब</w>": 2223,
    "ब ै": 2224,
    "' </w>": 2225,
    "ः </w>": 2226,
    "व ै": 2227,
    "ड़ </w>": 2228,
    "र ख": 2229,
    "न् न</w>": 2230,
    "सक ता</w>": 2231,
    "ज़ </w>": 2232,
    "िल ा</w>": 2233,
    "शा मिल</w>": 2234,
    "म क</w>": 2235,
    "ज िले</w>": 2236,
    "भा ग</w>": 2237,
    "ग्र ा": 2238,
    "बं ध": 2239,
    "देख ें</w>": 2240,
    "; </w>": 2241,
    "क् ति</w>": 2242,
    "कि न</w>": 2243,
    "अ ंग": 2244,
    "ल ों</w>": 2245,
    "श ी": 2246,
    "व ्या": 2247,
    "स् ट</w>": 2248,
    "त िक</w>": 2249,
    "ार ा": 2250,
    "गा ँ": 2251,
    "ड़ ा</w>": 2252,
    "ह र</w>": 2253,
    "प्र भा": 2254,
    "प ै": 2255,
    "स्था प": 2256,
    "र ,</w>": 2257,
    "ले किन</w>": 2258,
    "ह े": 2259,
    "द ौ": 2260,
    "ज ू": 2261,
    "म हा": 2262,
    "स न</w>": 2263,
    "त े": 2264,
    "a </w>": 2265,
    "त् व</w>": 2266,
    "सा इ": 2267,
    "१ ९": 2268,
    "ले ख": 2269,
    "हा ँ</w>": 2270,
    "फिल् म</w>": 2271,
    "द ि</w>": 2272,
    "र े</w>": 2273,
    "क म</w>": 2274,
    "== ।</w>": 2275,
    "9 </w>": 2276,
    "बहु त</w>": 2277,
    "न् त": 2278,
    "छ ो": 2279,
    "ं ट</w>": 2280,
    "कर ण</w>": 2281,
    "ख े": 2282,
    "स्था न</w>": 2283,
    "जा ती</w>": 2284,
    "अ मे": 2285,
    "कार ी</w>": 2286,
    "फ ा": 2287,
    "i c": 2288,
    "क ी": 2289,
    "सि ं": 2290,
    "ल िय": 2291,
    "वि द": 2292,
    "जै से</w>": 2293,
    "ं कि</w>": 2294,
    "हो ते</w>": 2295,
    "२ ०": 2296,
    "दा न</w>": 2297,
    "र् म": 2298,
    "क्ष ि": 2299,
    "सं स्": 2300,
    "निर् मा": 2301,
    "वि शे": 2302,
    "कह ा</w>": 2303,
    "प्र कार</w>": 2304,
    "अमे रि": 2305,
    "य ों</w>": 2306,
    "ज न्": 2307,
    "स भी</w>": 2308,
    "गाँ व</w>": 2309,
    "ए ।</w>": 2310,
    "वि धा": 2311,
    "ि कार": 2312,
    "द् र</w>": 2313,
    "ग ्": 2314,
    "जा ने</w>": 2315,
    "ब ु": 2316,
    "अ भि": 2317,
    "त र</w>": 2318,
    "क्र ि": 2319,
    "ति हा": 2320,
    "ं ख": 2321,
    "उन की</w>": 2322,
    "अ र्": 2323,
    "पूर् ण</w>": 2324,
    "व र</w>": 2325,
    "सा र</w>": 2326,
    "उ स</w>": 2327,
    "स ह": 2328,
    "हा ं</w>": 2329,
    "इ से</w>": 2330,
    "स द": 2331,
    "था ,</w>": 2332,
    "स र</w>": 2333,
    "िय ो": 2334,
    "0 0</w>": 2335,
    "ड़ े</w>": 2336,
    "ल न</w>": 2337,
    "पु र</w>": 2338,
    "ड ी": 2339,
    "उस के</w>": 2340,
    "प्र े": 2341,
    "पूर् व</w>": 2342,
    "वर् ष</w>": 2343,
    "आध िकार": 2344,
    "आधिकार िक</w>": 2345,
    "y </w>": 2346,
    "र ों</w>": 2347,
    "स्थ ि": 2348,
    "ौ र</w>": 2349,
    "अंग ्रे": 2350,
    "हा र</w>": 2351,
    "भाष ा</w>": 2352,
    "द ी": 2353,
    "जिस में</w>": 2354,
    "19 9": 2355,
    "ग े": 2356,
    "उ से</w>": 2357,
    "t </w>": 2358,
    "वा र</w>": 2359,
    "म ण्ड": 2360,
    "ं च": 2361,
    "स ै": 2362,
    "न ु": 2363,
    "व ृ": 2364,
    "म ौ": 2365,
    "प्रा प्त</w>": 2366,
    "मुख </w>": 2367,
    "प श्": 2368,
    "रू </w>": 2369,
    "क ,</w>": 2370,
    "उप योग</w>": 2371,
    "सा म": 2372,
    "वर् त": 2373,
    "सं ख": 2374,
    "े क</w>": 2375,
    "भ ा</w>": 2376,
    "त्र ी</w>": 2377,
    "न ्या": 2378,
    "अ ल": 2379,
    "म ध": 2380,
    "द क्षि": 2381,
    "मण्ड ल</w>": 2382,
    "उत्त र</w>": 2383,
    "पु र": 2384,
    "तर ह</w>": 2385,
    "य न</w>": 2386,
    "ष् ट</w>": 2387,
    "र् ट": 2388,
    "ं ध": 2389,
    "राष्ट्र ीय</w>": 2390,
    "बी च</w>": 2391,
    "व ल</w>": 2392,
    "इस का</w>": 2393,
    "का म</w>": 2394,
    "लि ख": 2395,
    "मुख ्य</w>": 2396,
    "i on": 2397,
    "ग ए</w>": 2398,
    "च ार": 2399,
    "ग ढ़": 2400,
    "ध ार": 2401,
    "० </w>": 2402,
    "ण ी</w>": 2403,
    "यु क्त</w>": 2404,
    "ृ ष्": 2405,
    "र् ड</w>": 2406,
    "बा र</w>": 2407,
    "को ई</w>": 2408,
    "क्ष ण</w>": 2409,
    "यो ग": 2410,
    "पा द": 2411,
    "जा न": 2412,
    "त् व": 2413,
    "ं स</w>": 2414,
    "क्ष </w>": 2415,
    "क् स</w>": 2416,
    "आ ई": 2417,
    "वा ली</w>": 2418,
    "य ी</w>": 2419,
    "त ्य</w>": 2420,
    "ल िया</w>": 2421,
    "ट ू": 2422,
    "f </w>": 2423,
    "लो गों</w>": 2424,
    "वि ज्ञा": 2425,
    "जी वन</w>": 2426,
    "ट ा</w>": 2427,
    "िया ,</w>": 2428,
    "क ंप": 2429,
    "प त्": 2430,
    "ड ी</w>": 2431,
    "य र</w>": 2432,
    "प्र मुख</w>": 2433,
    "ं ।</w>": 2434,
    "ग ई</w>": 2435,
    "ं त</w>": 2436,
    "न गर</w>": 2437,
    "त ियों</w>": 2438,
    "स्ट े": 2439,
    "थ ी</w>": 2440,
    "लै ंड</w>": 2441,
    "ंग ्": 2442,
    "ट ो": 2443,
    "निर्मा ण</w>": 2444,
    "व्य व": 2445,
    "भि न्न</w>": 2446,
    "स् ट्र": 2447,
    "दू सर": 2448,
    "पा स</w>": 2449,
    "प्र का": 2450,
    "र च": 2451,
    "सू च": 2452,
    "कर ना</w>": 2453,
    "शु रू</w>": 2454,
    "1 8": 2455,
    "म न</w>": 2456,
    "ं ब": 2457,
    "ए ँ</w>": 2458,
    "रा न</w>": 2459,
    "त ह": 2460,
    "त्र ों</w>": 2461,
    "स ,</w>": 2462,
    "ह म": 2463,
    "ब ढ़": 2464,
    "हि न्": 2465,
    "अ क्": 2466,
    "कार् य": 2467,
    "वा द</w>": 2468,
    "ल ,</w>": 2469,
    "थ े</w>": 2470,
    "घ ट": 2471,
    "त ों</w>": 2472,
    "ल गा": 2473,
    "के ट</w>": 2474,
    "क ू": 2475,
    "श ो": 2476,
    "च् छ": 2477,
    "फ ्": 2478,
    "जन् म</w>": 2479,
    "च े": 2480,
    "स भा</w>": 2481,
    "म ों</w>": 2482,
    "जि से</w>": 2483,
    "वि का": 2484,
    "ज ब": 2485,
    "i t": 2486,
    "प्र ो": 2487,
    "जा ते</w>": 2488,
    "द् ध": 2489,
    "लग भ": 2490,
    "भ ी": 2491,
    "म ित</w>": 2492,
    "र ॉ": 2493,
    "हा ला": 2494,
    "प ं": 2495,
    "लगभ ग</w>": 2496,
    "े ,</w>": 2497,
    "ं श</w>": 2498,
    "ड ्": 2499,
    "ग ण": 2500,
    "ख ु": 2501,
    "दो नों</w>": 2502,
    "i s": 2503,
    "ब ारे</w>": 2504,
    "विद ्या": 2505,
    "ता ओं</w>": 2506,
    "गी त</w>": 2507,
    "द ,</w>": 2508,
    "दि र</w>": 2509,
    "o f</w>": 2510,
    "कृ त</w>": 2511,
    "खि ला": 2512,
    "रह ा</w>": 2513,
    "ण ा</w>": 2514,
    "स् वा": 2515,
    "िय न</w>": 2516,
    "ट न</w>": 2517,
    "इ ं": 2518,
    "हु ई</w>": 2519,
    "इ तिहा": 2520,
    "श ्य": 2521,
    "न िया</w>": 2522,
    "च् च": 2523,
    "का ल</w>": 2524,
    "स् त</w>": 2525,
    "क ी।</w>": 2526,
    "कर ती</w>": 2527,
    "म ृ": 2528,
    "ई ।</w>": 2529,
    "ए ,</w>": 2530,
    "कु मा": 2531,
    "अध ्य": 2532,
    "ख ़": 2533,
    "संख ्या</w>": 2534,
    "वि ष": 2535,
    "पश् चि": 2536,
    "ल ॉ": 2537,
    "पुर स्": 2538,
    "स् प": 2539,
    "कार् य</w>": 2540,
    "लो क": 2541,
    "पा र्": 2542,
    "त ु</w>": 2543,
    "r o": 2544,
    "फ ो": 2545,
    "फ े": 2546,
    "क ता</w>": 2547,
    "e s": 2548,
    "त ौर</w>": 2549,
    "जि न": 2550,
    "ड ॉ": 2551,
    "आ व": 2552,
    "य क</w>": 2553,
    "न ्यू": 2554,
    "ब ी</w>": 2555,
    "त ः</w>": 2556,
    "श ब्": 2557,
    "सा हि": 2558,
    "के वल</w>": 2559,
    "ओ र</w>": 2560,
    "फि र</w>": 2561,
    "ब र्": 2562,
    "ए स": 2563,
    "ण ों</w>": 2564,
    "सिं ह</w>": 2565,
    "विश् व": 2566,
    "विका स</w>": 2567,
    "र् म</w>": 2568,
    "त ,</w>": 2569,
    "त्र ि": 2570,
    "19 8": 2571,
    "उ द": 2572,
    "व री</w>": 2573,
    "आ र": 2574,
    "अनु सार</w>": 2575,
    "ल ु": 2576,
    "ड़ ा": 2577,
    "ल ता</w>": 2578,
    "धा र</w>": 2579,
    "श हर</w>": 2580,
    "त ीन</w>": 2581,
    "प्र योग</w>": 2582,
    "जा ना</w>": 2583,
    "– </w>": 2584,
    "यो ज": 2585,
    "सद स्": 2586,
    "क ल</w>": 2587,
    "् र</w>": 2588,
    "ब्र ि": 2589,
    "रह े</w>": 2590,
    "दौ रान</w>": 2591,
    "ना ट": 2592,
    "u r": 2593,
    "श्र े": 2594,
    "क ्यो": 2595,
    "घ ा": 2596,
    "आ दि</w>": 2597,
    "य हाँ</w>": 2598,
    "विशे ष</w>": 2599,
    "वि भिन्न</w>": 2600,
    "ग ै": 2601,
    "न ू": 2602,
    "al </w>": 2603,
    "ए ं</w>": 2604,
    "र -": 2605,
    "शि क्षा</w>": 2606,
    "ध ि": 2607,
    "l a": 2608,
    "विश् व</w>": 2609,
    "ख </w>": 2610,
    "इस की</w>": 2611,
    "लो ग</w>": 2612,
    "फ़ </w>": 2613,
    "त् मक</w>": 2614,
    "श ा</w>": 2615,
    "व्य क्ति</w>": 2616,
    "20 </w>": 2617,
    "प ार": 2618,
    "सम ू": 2619,
    "क ़": 2620,
    "स ार": 2621,
    "c h": 2622,
    "र् गत</w>": 2623,
    "ॉ र्": 2624,
    "दक्षि ण</w>": 2625,
    "ध न</w>": 2626,
    "प हु": 2627,
    "ब न</w>": 2628,
    "इस में</w>": 2629,
    "ख ो": 2630,
    "ट े</w>": 2631,
    "सक ते</w>": 2632,
    "ब द": 2633,
    "त्र ा</w>": 2634,
    "ज़ ी": 2635,
    "in g": 2636,
    "म ार": 2637,
    "द् धा": 2638,
    "राज नी": 2639,
    "सम ु": 2640,
    "क्यो ंकि</w>": 2641,
    "सर् व": 2642,
    "न व": 2643,
    "च ौ": 2644,
    "पुरस् कार</w>": 2645,
    "हि स्": 2646,
    "फ ी</w>": 2647,
    "दर् शन</w>": 2648,
    "आव श्य": 2649,
    "वी ं</w>": 2650,
    "ं क": 2651,
    "क हा": 2652,
    "इतिहा स</w>": 2653,
    "पु रा": 2654,
    "मा ध": 2655,
    "अ ग": 2656,
    "िय </w>": 2657,
    "च ै": 2658,
    "न ल</w>": 2659,
    "ड िय": 2660,
    "वा ला</w>": 2661,
    "च ी": 2662,
    "स् था</w>": 2663,
    "ह न</w>": 2664,
    "अ ब</w>": 2665,
    "थ ी": 2666,
    "वि ध": 2667,
    "फ़ िल्": 2668,
    "अं त": 2669,
    "ंद ्र": 2670,
    "ृ ंख": 2671,
    "ह ्": 2672,
    "भू मि": 2673,
    "अल ग</w>": 2674,
    "पर ी": 2675,
    "ंग ा": 2676,
    "ग ठ": 2677,
    "दि न</w>": 2678,
    "मी टर</w>": 2679,
    "r a": 2680,
    "द र</w>": 2681,
    "सा मान": 2682,
    "शा स्": 2683,
    "स्त ु": 2684,
    "मा ना</w>": 2685,
    "उन का</w>": 2686,
    "th e</w>": 2687,
    "द िया।</w>": 2688,
    "क्रि केट</w>": 2689,
    "लि त</w>": 2690,
    "लिय े</w>": 2691,
    "दा र</w>": 2692,
    "अप ना</w>": 2693,
    "कि ए</w>": 2694,
    "l e": 2695,
    "म े</w>": 2696,
    "र् य</w>": 2697,
    "स्थि ति</w>": 2698,
    "अ न्त": 2699,
    "का ल": 2700,
    "ंट र": 2701,
    "मू ल</w>": 2702,
    "% </w>": 2703,
    "घ ो": 2704,
    "न ीय</w>": 2705,
    "वि त</w>": 2706,
    "धा न</w>": 2707,
    "सि द्ध</w>": 2708,
    "उ ल्": 2709,
    "च ीन</w>": 2710,
    "िया ं</w>": 2711,
    "च ित</w>": 2712,
    "मं दिर</w>": 2713,
    "20 2": 2714,
    "क ला": 2715,
    "आ ंध": 2716,
    "ं क</w>": 2717,
    "दर् श": 2718,
    "सं बंध": 2719,
    "प्र त्य": 2720,
    "कृ ति</w>": 2721,
    "लि स</w>": 2722,
    "पह ली</w>": 2723,
    "फ ै": 2724,
    "उ न</w>": 2725,
    "प्र दान</w>": 2726,
    "ऑ फ</w>": 2727,
    "यु द्ध</w>": 2728,
    "भ े": 2729,
    "ब ॉ": 2730,
    "विज्ञा न</w>": 2731,
    "क्र म</w>": 2732,
    "ल र</w>": 2733,
    "ड ो": 2734,
    "आंध ्र</w>": 2735,
    "मा ल</w>": 2736,
    "जि न्": 2737,
    "व न": 2738,
    "ए म": 2739,
    "अं तर": 2740,
    "हि ं": 2741,
    "क् ति": 2742,
    "वर् ष": 2743,
    "अ प्र": 2744,
    "स्ता न</w>": 2745,
    "ट् स</w>": 2746,
    "र् ष": 2747,
    "ं च</w>": 2748,
    "वे ब": 2749,
    "विद्या लय</w>": 2750,
    "भ ो": 2751,
    "19 7": 2752,
    "स फ": 2753,
    "दि खा": 2754,
    "उस की</w>": 2755,
    "्य म</w>": 2756,
    "क्र िया</w>": 2757,
    "सं युक्त</w>": 2758,
    "सं घ": 2759,
    "an d</w>": 2760,
    "स हा": 2761,
    "परि वार</w>": 2762,
    "सं गीत</w>": 2763,
    "वा न</w>": 2764,
    "न ौ": 2765,
    "सा ल</w>": 2766,
    "क्ष ा": 2767,
    "न ै": 2768,
    "आ ग": 2769,
    "ए क": 2770,
    "ठ ा": 2771,
    "नि क": 2772,
    "चा हि": 2773,
    "श ै": 2774,
    "ब न": 2775,
    "ृंख ला</w>": 2776,
    "at ion": 2777,
    "न् त</w>": 2778,
    "च् च</w>": 2779,
    "19 6": 2780,
    "अ ति": 2781,
    "टी म</w>": 2782,
    "m </w>": 2783,
    "कु ल</w>": 2784,
    "जब कि</w>": 2785,
    "वि क": 2786,
    "त्व पूर्ण</w>": 2787,
    "त ो": 2788,
    "छ ा": 2789,
    "त ब</w>": 2790,
    "सा मा": 2791,
    "ज िक</w>": 2792,
    "हुआ ।</w>": 2793,
    "ष ण</w>": 2794,
    "य र": 2795,
    "लि क</w>": 2796,
    "वा स</w>": 2797,
    "न दी</w>": 2798,
    "ब ्रा": 2799,
    "जिस का</w>": 2800,
    "स्थाप ित</w>": 2801,
    "दूसर े</w>": 2802,
    "वा ल</w>": 2803,
    "प्र थ": 2804,
    "बा द,</w>": 2805,
    "स िक</w>": 2806,
    "इस ी</w>": 2807,
    "प ति</w>": 2808,
    "चु ना": 2809,
    "r e": 2810,
    "स ित</w>": 2811,
    "प ड़": 2812,
    "कह ते</w>": 2813,
    "जिस के</w>": 2814,
    "पो र्ट": 2815,
    "अमेरि का</w>": 2816,
    "द्व ी": 2817,
    "र् स</w>": 2818,
    ") ।</w>": 2819,
    "प्र णा": 2820,
    "o l": 2821,
    "इ ंटर": 2822,
    "er </w>": 2823,
    "अ र": 2824,
    "सि द्धा": 2825,
    "तह सी": 2826,
    "प न</w>": 2827,
    "राज ा</w>": 2828,
    "उत् पाद": 2829,
    "जु ला": 2830,
    "कृ ष्": 2831,
    "१ </w>": 2832,
    "इ ंड": 2833,
    "ए क्": 2834,
    "त ्या": 2835,
    "वेब साइ": 2836,
    "( अंग्रे": 2837,
    "स्थाप ना</w>": 2838,
    "i l": 2839,
    "1 0": 2840,
    "फ ्र": 2841,
    "{ \\": 2842,
    "ए न": 2843,
    "॰ </w>": 2844,
    "म ,</w>": 2845,
    "सम झ": 2846,
    "व ज": 2847,
    "ब ड़े</w>": 2848,
    "स्थ ल</w>": 2849,
    "रु आ": 2850,
    "म् प": 2851,
    "मध ्य</w>": 2852,
    "प ृष्": 2853,
    "२० १": 2854,
    "पि ता</w>": 2855,
    "बं ध</w>": 2856,
    "ध र्म</w>": 2857,
    "आ </w>": 2858,
    "्य ों</w>": 2859,
    "उ द्": 2860,
    "ब ता": 2861,
    "प्रथ म</w>": 2862,
    "ह र": 2863,
    "वर्त मान</w>": 2864,
    "भा व": 2865,
    "त ै": 2866,
    "e l": 2867,
    "प ी</w>": 2868,
    "स ौ": 2869,
    "सा ं": 2870,
    "वि क</w>": 2871,
    "क भी</w>": 2872,
    "ब ल</w>": 2873,
    "ब च्च": 2874,
    "मा ण": 2875,
    "तहसी ल</w>": 2876,
    "प्र ार": 2877,
    "ला इ": 2878,
    "ल क्ष": 2879,
    "ब ना</w>": 2880,
    "४ </w>": 2881,
    "्य ु": 2882,
    "अक् टू": 2883,
    "प्र सिद्ध</w>": 2884,
    "शु रुआ": 2885,
    "र् ट</w>": 2886,
    "ब् ल": 2887,
    "ल ब्": 2888,
    "म द": 2889,
    "अप्र ै": 2890,
    "ष ि</w>": 2891,
    "दे ता</w>": 2892,
    "अन्त र्गत</w>": 2893,
    "अ ला": 2894,
    "वर् ण": 2895,
    "ल ने</w>": 2896,
    "थ े,</w>": 2897,
    "य हां</w>": 2898,
    "क रा": 2899,
    "प्र ति</w>": 2900,
    "ार ों</w>": 2901,
    "उ दा": 2902,
    "म िक</w>": 2903,
    "पु न": 2904,
    "ज ग": 2905,
    "परि णा": 2906,
    "द िल्": 2907,
    "ने ट</w>": 2908,
    "य ,</w>": 2909,
    "से वा</w>": 2910,
    "ं द्र</w>": 2911,
    "ता ,</w>": 2912,
    "से ना</w>": 2913,
    "२ </w>": 2914,
    "त ृ": 2915,
    "िय र</w>": 2916,
    "वा दी</w>": 2917,
    "ं त्र": 2918,
    "मह त्वपूर्ण</w>": 2919,
    "कार ों</w>": 2920,
    "अ भ": 2921,
    "दू </w>": 2922,
    "जा ल": 2923,
    "शब् द</w>": 2924,
    "घ र</w>": 2925,
    "य ता</w>": 2926,
    "ट ि</w>": 2927,
    "देश ों</w>": 2928,
    "ध ्या": 2929,
    "19 </w>": 2930,
    "स् वी": 2931,
    "५ </w>": 2932,
    "सामान ्य</w>": 2933,
    "अमेरि की</w>": 2934,
    "ल् ड</w>": 2935,
    "ई ,</w>": 2936,
    "कि त्": 2937,
    "मू ल": 2938,
    "हिन् दी</w>": 2939,
    "स्त र</w>": 2940,
    "पु लिस</w>": 2941,
    "उप लब्": 2942,
    "रे ल": 2943,
    "पोर्ट ल</w>": 2944,
    "कंप नी</w>": 2945,
    "o m": 2946,
    "मे ंट</w>": 2947,
    "चि कित्": 2948,
    "ना ,</w>": 2949,
    "समू ह</w>": 2950,
    "ग ा</w>": 2951,
    "गढ़ </w>": 2952,
    "सामा जिक</w>": 2953,
    "मार् ग</w>": 2954,
    "प ता</w>": 2955,
    "ज ारी</w>": 2956,
    "श्र ी": 2957,
    "द श": 2958,
    "आध ार": 2959,
    "वि स्त": 2960,
    "फ ी": 2961,
    "ध ी": 2962,
    "श री": 2963,
    "प्रका श": 2964,
    "ब न्": 2965,
    "उस ने</w>": 2966,
    "a m": 2967,
    "भ ु": 2968,
    "इ स्त": 2969,
    "ज़ ा": 2970,
    "कृ तिक</w>": 2971,
    "मं त्री</w>": 2972,
    "(अंग्रे ज़ी": 2973,
    "d i": 2974,
    "पा ल</w>": 2975,
    "दे ने</w>": 2976,
    "म न्": 2977,
    "मार् च</w>": 2978,
    "पु स्त": 2979,
    "सु र": 2980,
    "६ </w>": 2981,
    "ृ त</w>": 2982,
    "द े</w>": 2983,
    "प ौ": 2984,
    "सा थ": 2985,
    "र ही</w>": 2986,
    "कुमा ऊ": 2987,
    "an </w>": 2988,
    "ं द</w>": 2989,
    "म् ब": 2990,
    "अध्य यन</w>": 2991,
    "अ ल्": 2992,
    "च ा</w>": 2993,
    "ख ा</w>": 2994,
    "साहि त्य</w>": 2995,
    "भाष ा": 2996,
    "भूमि का</w>": 2997,
    "विशे ष": 2998,
    "ना मक</w>": 2999,
    "ब ड़ी</w>": 3000,
    "क्र ा": 3001,
    "म ॉ": 3002,
    "दे व": 3003,
    "ह रण</w>": 3004,
    "त म</w>": 3005,
    "i v": 3006,
    "जू न</w>": 3007,
    "डिय ो</w>": 3008,
    "न र</w>": 3009,
    "मा म": 3010,
    "माध ्यम</w>": 3011,
    "ण ,</w>": 3012,
    "च न</w>": 3013,
    "in </w>": 3014,
    "बि हार</w>": 3015,
    "बा त</w>": 3016,
    "आ धार</w>": 3017,
    "वे श</w>": 3018,
    "स्व तं": 3019,
    "== ==</w>": 3020,
    "क िल": 3021,
    "निर् वा": 3022,
    "| </w>": 3023,
    "क म": 3024,
    "19 5": 3025,
    "मह ारा": 3026,
    "ग ी</w>": 3027,
    "कुमाऊ ँ</w>": 3028,
    "को शि": 3029,
    "ध ी</w>": 3030,
    "क्र म": 3031,
    "मृ त्य": 3032,
    "पा नी</w>": 3033,
    "e s</w>": 3034,
    "जिस से</w>": 3035,
    "ज हां</w>": 3036,
    "प्र या": 3037,
    "थ ी,</w>": 3038,
    "ग र्": 3039,
    "्र ो": 3040,
    "e d</w>": 3041,
    "द ों</w>": 3042,
    "I n": 3043,
    "ग्रा म</w>": 3044,
    "ह रा": 3045,
    "हाला ंकि</w>": 3046,
    "प्रत्य ेक</w>": 3047,
    "न -": 3048,
    "बना ने</w>": 3049,
    "0 00</w>": 3050,
    "दू र</w>": 3051,
    "19 4": 3052,
    "l e</w>": 3053,
    "उ च्च</w>": 3054,
    "शा सन</w>": 3055,
    "सम ी": 3056,
    "प्रभा व</w>": 3057,
    "च े</w>": 3058,
    "त् ता</w>": 3059,
    "ष् ठ</w>": 3060,
    "द् वि": 3061,
    "ग ल</w>": 3062,
    "i </w>": 3063,
    "व ों</w>": 3064,
    "o </w>": 3065,
    "e t": 3066,
    "प ृ": 3067,
    "पह ला</w>": 3068,
    "३ </w>": 3069,
    "चि त्र</w>": 3070,
    "पा कि": 3071,
    "स् कू": 3072,
    "आ प": 3073,
    "अन ेक</w>": 3074,
    "लेख </w>": 3075,
    "िया ई</w>": 3076,
    "मह िला</w>": 3077,
    "ड ा</w>": 3078,
    "नि त</w>": 3079,
    "द् धि</w>": 3080,
    "श्र ृंखला</w>": 3081,
    "निय म</w>": 3082,
    "शा स": 3083,
    "र् थ</w>": 3084,
    "स री</w>": 3085,
    "कृ षि</w>": 3086,
    "द्वी प</w>": 3087,
    "मै च</w>": 3088,
    "ब र": 3089,
    "इस्त े": 3090,
    "विश्व विद्यालय</w>": 3091,
    "वि भाग</w>": 3092,
    "भ र</w>": 3093,
    "चुना व</w>": 3094,
    "ल -": 3095,
    "आ म</w>": 3096,
    "पश्चि म</w>": 3097,
    "ऑ फ़</w>": 3098,
    "सदस् य</w>": 3099,
    "सन् </w>": 3100,
    "या ।</w>": 3101,
    "दु निया</w>": 3102,
    "ज ्या": 3103,
    "इस्ते माल</w>": 3104,
    "ब ड़ा</w>": 3105,
    "ऐ सा</w>": 3106,
    "ing </w>": 3107,
    "व ॉ": 3108,
    "श ी</w>": 3109,
    "रा म": 3110,
    "वृ त्": 3111,
    "८ </w>": 3112,
    "o u": 3113,
    "शुरुआ त</w>": 3114,
    "- 1": 3115,
    "घो ष": 3116,
    "सक ती</w>": 3117,
    "श्र ी</w>": 3118,
    "श ं": 3119,
    "द ृ": 3120,
    "व ो": 3121,
    "तु ल": 3122,
    "स्ट्र े": 3123,
    "फ़िल् म</w>": 3124,
    "ग र": 3125,
    "चा ह": 3126,
    "ज़ िले</w>": 3127,
    "द र": 3128,
    "का नू": 3129,
    "म नो": 3130,
    "प्रा चीन</w>": 3131,
    "द ृष्": 3132,
    "वा स्त": 3133,
    "दिल् ली</w>": 3134,
    "क ला</w>": 3135,
    "शरी र</w>": 3136,
    "त्र ा": 3137,
    "ना ओं</w>": 3138,
    "अ च्छ": 3139,
    "विस्त ृत</w>": 3140,
    "प न्न</w>": 3141,
    "गो ल</w>": 3142,
    "राज </w>": 3143,
    "आधार ित</w>": 3144,
    "गा ।</w>": 3145,
    ") .</w>": 3146,
    "२० ०": 3147,
    "वि भा": 3148,
    "r i": 3149,
    "राजनी तिक</w>": 3150,
    "म ंड": 3151,
    "ग्र ह</w>": 3152,
    "वर् ग</w>": 3153,
    "स्टे शन</w>": 3154,
    "सि तं": 3155,
    "पु रु": 3156,
    "ला ल</w>": 3157,
    "इ स्": 3158,
    "क िया,</w>": 3159,
    "ग ए।</w>": 3160,
    "पृष् ठ</w>": 3161,
    "ह ित</w>": 3162,
    "म हि": 3163,
    "है .</w>": 3164,
    "प्रणा ली</w>": 3165,
    "िय े</w>": 3166,
    "व रण</w>": 3167,
    "थ ो": 3168,
    "ल ू": 3169,
    "ह ॉ": 3170,
    "c t": 3171,
    "ज े</w>": 3172,
    "व र": 3173,
    "ऐ से</w>": 3174,
    "क वि": 3175,
    "विधा न</w>": 3176,
    "ज ों</w>": 3177,
    "क ल्": 3178,
    "ध िक</w>": 3179,
    "च ो": 3180,
    "] </w>": 3181,
    "न ई</w>": 3182,
    "यू रो": 3183,
    "सूच ी</w>": 3184,
    "रच ना</w>": 3185,
    "मृत्य ु</w>": 3186,
    "७ </w>": 3187,
    "उस का</w>": 3188,
    "} }": 3189,
    "नाट क</w>": 3190,
    "आ त्": 3191,
    "खिला फ</w>": 3192,
    "अभि ने": 3193,
    "ल ंब": 3194,
    "त क": 3195,
    "आध ु": 3196,
    "ष् ट्": 3197,
    "गा ं": 3198,
    "अर् थ</w>": 3199,
    "1 7": 3200,
    "नि म्": 3201,
    "टि श</w>": 3202,
    "ज िला</w>": 3203,
    "आ र्": 3204,
    "ग्र े": 3205,
    "ष्ट् र</w>": 3206,
    "i r": 3207,
    "f or": 3208,
    "पृ थ": 3209,
    "क्ष ित</w>": 3210,
    "बना या</w>": 3211,
    "र िया</w>": 3212,
    "प्र दर्शन</w>": 3213,
    "क ल": 3214,
    "पार् टी</w>": 3215,
    "आ य": 3216,
    "गढ़ वाल</w>": 3217,
    "विक सित</w>": 3218,
    "काल ीन</w>": 3219,
    "ग ई।</w>": 3220,
    "ता र</w>": 3221,
    "वै ज्ञा": 3222,
    "अ थ": 3223,
    "0 0": 3224,
    "ज़ िला</w>": 3225,
    "पू री</w>": 3226,
    "ले क्": 3227,
    "व ्": 3228,
    "ज ल</w>": 3229,
    "ग ं": 3230,
    "जुला ई</w>": 3231,
    "श क्ति</w>": 3232,
    "ियो ज": 3233,
    "सा य": 3234,
    "ार ी": 3235,
    "वेबसाइ ट</w>": 3236,
    "ति म</w>": 3237,
    "च र्": 3238,
    "उदा हरण</w>": 3239,
    "द ्यो": 3240,
    "कर के</w>": 3241,
    "सितं बर</w>": 3242,
    "गया ,</w>": 3243,
    "य दि</w>": 3244,
    "दु र्": 3245,
    "श ता": 3246,
    "स मान</w>": 3247,
    "फ ्रा": 3248,
    "अधि का": 3249,
    "पा र</w>": 3250,
    "T h": 3251,
    "सं गठ": 3252,
    "से ,</w>": 3253,
    "क्षे त्रों</w>": 3254,
    "कर े": 3255,
    "प ा</w>": 3256,
    "का फी</w>": 3257,
    "म त</w>": 3258,
    "बा ंग्": 3259,
    "ब्रि टिश</w>": 3260,
    "उपलब् ध</w>": 3261,
    "न )</w>": 3262,
    "ना इ": 3263,
    "आग े</w>": 3264,
    "म ि</w>": 3265,
    "व्यव स्था</w>": 3266,
    "कि ,</w>": 3267,
    "प क</w>": 3268,
    "प ॉ": 3269,
    "लि ए,</w>": 3270,
    "रख ा</w>": 3271,
    "n </w>": 3272,
    "भ ग": 3273,
    "स्ट ा": 3274,
    "ल िया।</w>": 3275,
    "शता ब्": 3276,
    "ड े</w>": 3277,
    "पर् य": 3278,
    "ए श": 3279,
    "खे ल</w>": 3280,
    "मे ं": 3281,
    "ह ों</w>": 3282,
    "परि वर्त": 3283,
    "लो क</w>": 3284,
    "लोक प्र": 3285,
    "ग ति</w>": 3286,
    "फ र": 3287,
    "मा इ": 3288,
    "ल ं": 3289,
    "ज ित</w>": 3290,
    "भ व</w>": 3291,
    "पर ियोज": 3292,
    "इस लिए</w>": 3293,
    "ज र</w>": 3294,
    "भ ौ": 3295,
    "इस से</w>": 3296,
    "निय ंत्र": 3297,
    "प्रकाश ित</w>": 3298,
    "किल ो": 3299,
    "ज ल": 3300,
    "इ ला": 3301,
    "हा र्": 3302,
    "ब ल्": 3303,
    "e m": 3304,
    "संबंध ित</w>": 3305,
    "1 5": 3306,
    "ज र्म": 3307,
    "ना थ</w>": 3308,
    "श् वर</w>": 3309,
    "क ी,</w>": 3310,
    "अति रि": 3311,
    "या त</w>": 3312,
    "इ ंग्": 3313,
    "ड िया</w>": 3314,
    "व ्य</w>": 3315,
    "के न्": 3316,
    "स् पे": 3317,
    "व्य क्ति": 3318,
    "1 0</w>": 3319,
    "्य ता</w>": 3320,
    "लि ंग</w>": 3321,
    "उ पा": 3322,
    "पाकि स्तान</w>": 3323,
    "दश क</w>": 3324,
    "स्व रूप</w>": 3325,
    "आधु निक</w>": 3326,
    "महि ला": 3327,
    "ध्या न</w>": 3328,
    "निर् देश": 3329,
    "ता न</w>": 3330,
    "उ म्": 3331,
    "रा म</w>": 3332,
    "क्षे त्र": 3333,
    "र् ष</w>": 3334,
    "ध ा</w>": 3335,
    "ज य</w>": 3336,
    "्रा ष्ट्र": 3337,
    "सर कारी</w>": 3338,
    "समा ज</w>": 3339,
    "स ों</w>": 3340,
    "सा र्": 3341,
    "सम र्थ": 3342,
    "जन वरी</w>": 3343,
    "या र</w>": 3344,
    "प दा": 3345,
    "टे ड</w>": 3346,
    "बाह र</w>": 3347,
    "a s": 3348,
    "ज़ न</w>": 3349,
    "्राष्ट्र ीय</w>": 3350,
    "on </w>": 3351,
    "ग ति": 3352,
    "ग ू": 3353,
    "अथ वा</w>": 3354,
    "ह ू": 3355,
    "र ल</w>": 3356,
    "ज य": 3357,
    "ब ौ": 3358,
    "ं तर": 3359,
    "धार ण</w>": 3360,
    "प्र बंध": 3361,
    "ज हा": 3362,
    "त न</w>": 3363,
    "ं स": 3364,
    "आ ज</w>": 3365,
    "भ िक</w>": 3366,
    "स्ट र</w>": 3367,
    "ले कर</w>": 3368,
    "वा ई</w>": 3369,
    "ला इन</w>": 3370,
    "मुख ्य": 3371,
    "दे ते</w>": 3372,
    "वि धि</w>": 3373,
    "टे ली": 3374,
    "ल् स</w>": 3375,
    "’ </w>": 3376,
    "चि त्र": 3377,
    "अक्टू बर</w>": 3378,
    "I </w>": 3379,
    "ग्र ी</w>": 3380,
    "आ म": 3381,
    "सा ंख": 3382,
    "के ंद्र": 3383,
    "त् </w>": 3384,
    "ग्र ं": 3385,
    "न्त ु</w>": 3386,
    "विधा न": 3387,
    "शी र्ष": 3388,
    "छो टे</w>": 3389,
    ", 000</w>": 3390,
    "जा ति</w>": 3391,
    "( </w>": 3392,
    "ज ्य</w>": 3393,
    "र ै": 3394,
    "ऑ स्ट्रे": 3395,
    "इंटर नेट</w>": 3396,
    "भू मि</w>": 3397,
    "प्रति नि": 3398,
    "अं तिम</w>": 3399,
    "्य ि": 3400,
    "जू द</w>": 3401,
    "शताब् दी</w>": 3402,
    "च ल</w>": 3403,
    "ब ार": 3404,
    "अप्रै ल</w>": 3405,
    "जा ए": 3406,
    "/ </w>": 3407,
    "अधिका ंश</w>": 3408,
    "पूर् व": 3409,
    "जाल पृष्ठ</w>": 3410,
    "ी )</w>": 3411,
    "ओ </w>": 3412,
    "वा ह</w>": 3413,
    "ॉ न</w>": 3414,
    "अ न्": 3415,
    "शि ष्ट</w>": 3416,
    "अग स्त</w>": 3417,
    "अं त</w>": 3418,
    "क्र े": 3419,
    "वा द": 3420,
    "a g": 3421,
    "+ </w>": 3422,
    "क ं": 3423,
    "प द</w>": 3424,
    "तै यार</w>": 3425,
    "ड ब्ल": 3426,
    "अप रा": 3427,
    "दे व</w>": 3428,
    "या त्रा</w>": 3429,
    "ट्र े": 3430,
    "ए स</w>": 3431,
    "कुमा र</w>": 3432,
    "पश्चि मी</w>": 3433,
    "ं श": 3434,
    "न ए</w>": 3435,
    "व त</w>": 3436,
    "e )</w>": 3437,
    "पत् ति</w>": 3438,
    "ल ड़": 3439,
    "ग ़": 3440,
    "टा इ": 3441,
    "ंक न</w>": 3442,
    "जिन में</w>": 3443,
    "म ई</w>": 3444,
    "भा ई</w>": 3445,
    "टि ंग</w>": 3446,
    "देख ा</w>": 3447,
    "प्रार ं": 3448,
    "स्व य": 3449,
    "पर् या": 3450,
    "ध ्": 3451,
    "रह ता</w>": 3452,
    "रू प": 3453,
    "ट ल</w>": 3454,
    "19 3": 3455,
    "क्ष म": 3456,
    "पू रा</w>": 3457,
    "र ंग": 3458,
    "व ंश</w>": 3459,
    "अक् सर</w>": 3460,
    "मान व</w>": 3461,
    "नि श्": 3462,
    "ट ,</w>": 3463,
    "इन के</w>": 3464,
    "व ार": 3465,
    "सांख ्यि": 3466,
    "क ीय</w>": 3467,
    "म् स</w>": 3468,
    "िल ी": 3469,
    "उद् देश": 3470,
    "बढ़ ा": 3471,
    "अंतर ्राष्ट्रीय</w>": 3472,
    "ल ब</w>": 3473,
    "स द</w>": 3474,
    "र त</w>": 3475,
    "कहा नी</w>": 3476,
    "ग यी</w>": 3477,
    ". .": 3478,
    "ग ौ": 3479,
    "देश ी</w>": 3480,
    "य ि": 3481,
    "रा त</w>": 3482,
    "वि रो": 3483,
    "ह ा</w>": 3484,
    "थ े": 3485,
    "न ि</w>": 3486,
    "उत्पाद न</w>": 3487,
    "अ त्य": 3488,
    "दू सरी</w>": 3489,
    "अतिरि क्त</w>": 3490,
    "ल ौ": 3491,
    "पूर् वी</w>": 3492,
    "हिस् सा</w>": 3493,
    "बं द</w>": 3494,
    "भा ग": 3495,
    "बांग् ला": 3496,
    "प्रा माण": 3497,
    "1 3": 3498,
    "फ ्रे": 3499,
    "अधि कार</w>": 3500,
    "आ ई</w>": 3501,
    "C </w>": 3502,
    "p la": 3503,
    "इस् ला": 3504,
    "ब ा</w>": 3505,
    "सं चा": 3506,
    "दे वी</w>": 3507,
    "स्कू ल</w>": 3508,
    "फ ु": 3509,
    "en t": 3510,
    "अ ंड": 3511,
    "व ो</w>": 3512,
    "उत् पन्न</w>": 3513,
    "विधान सभा</w>": 3514,
    "पह चा": 3515,
    "ण ि": 3516,
    "दर् श</w>": 3517,
    "(अंग्रेज़ी )</w>": 3518,
    "y st": 3519,
    "ए ंड</w>": 3520,
    "उ सी</w>": 3521,
    "परियोज ना</w>": 3522,
    "प्रया स</w>": 3523,
    "ली ,</w>": 3524,
    "द ल</w>": 3525,
    "र ो</w>": 3526,
    "उत्त री</w>": 3527,
    "लिख ित</w>": 3528,
    "श ल</w>": 3529,
    "ता ।</w>": 3530,
    "ग य": 3531,
    "न ियों</w>": 3532,
    "सं बंध</w>": 3533,
    "आ र्थ": 3534,
    "प् ले": 3535,
    "ब ू": 3536,
    "रह ते</w>": 3537,
    "उद ्यो": 3538,
    "शीर्ष क</w>": 3539,
    "पृथ ्": 3540,
    "हिं दी</w>": 3541,
    "वर्ष ों</w>": 3542,
    "म् म": 3543,
    "गां व</w>": 3544,
    "ए ल": 3545,
    "फ्र ी": 3546,
    "ल ते</w>": 3547,
    "वैज्ञा निक</w>": 3548,
    "आ दि": 3549,
    "2 )</w>": 3550,
    "ट ों</w>": 3551,
    "जि स</w>": 3552,
    "ट ै": 3553,
    "प्रामाण िक</w>": 3554,
    "कॉ ले": 3555,
    "र ु</w>": 3556,
    "आ दर्श</w>": 3557,
    "मा नित</w>": 3558,
    "सी मा</w>": 3559,
    "गण ना</w>": 3560,
    "ज हाँ</w>": 3561,
    "हो कर</w>": 3562,
    "म् बर</w>": 3563,
    "प्र क्रिया</w>": 3564,
    "u l": 3565,
    "जान कार": 3566,
    "शास् त्र</w>": 3567,
    "स् ति": 3568,
    "ब ह": 3569,
    "त त्": 3570,
    "फा इ": 3571,
    "न् स</w>": 3572,
    "मद द</w>": 3573,
    "क्र िया": 3574,
    "लोकप्र िय</w>": 3575,
    "मि ला": 3576,
    "बि ना</w>": 3577,
    "म ति</w>": 3578,
    "ँ चा": 3579,
    "बे स</w>": 3580,
    "साम ्रा": 3581,
    "योज ना</w>": 3582,
    "भू गोल</w>": 3583,
    "स त</w>": 3584,
    "ह म</w>": 3585,
    "हु ई।</w>": 3586,
    "निर् दे": 3587,
    "1 6": 3588,
    "u n": 3589,
    "टे स्ट</w>": 3590,
    "प द": 3591,
    "ज्ञा न</w>": 3592,
    "से वा": 3593,
    "मु क्त</w>": 3594,
    "वि चार</w>": 3595,
    "( 200": 3596,
    "म र</w>": 3597,
    "क ौ": 3598,
    "झ ा": 3599,
    "संघ </w>": 3600,
    "दि सं": 3601,
    "संस् करण</w>": 3602,
    "ऊ पर</w>": 3603,
    "जी त</w>": 3604,
    "अला वा</w>": 3605,
    "श्रे ष्ठ</w>": 3606,
    "न ्य</w>": 3607,
    "तर ी": 3608,
    "रेल वे</w>": 3609,
    "त -": 3610,
    "ब हा": 3611,
    "ने ट": 3612,
    "ए च": 3613,
    "ऐ सी</w>": 3614,
    "प ट": 3615,
    "के ंद्र</w>": 3616,
    "उप न्या": 3617,
    "क था": 3618,
    "ध र्म": 3619,
    "रह ने</w>": 3620,
    "च ू": 3621,
    "सम स्": 3622,
    "ज़ ी</w>": 3623,
    "किलो मीटर</w>": 3624,
    "रह े।</w>": 3625,
    "घ ु": 3626,
    "९ </w>": 3627,
    "d is": 3628,
    "वे श": 3629,
    "जिन् हें</w>": 3630,
    "प्र स्तु": 3631,
    "ता ल</w>": 3632,
    "ले ने</w>": 3633,
    "ं बर</w>": 3634,
    "ं तु</w>": 3635,
    "ष् ण": 3636,
    "र ण": 3637,
    "श ्य</w>": 3638,
    "त्र ता</w>": 3639,
    "थ ि": 3640,
    "ड ै": 3641,
    "पू रे</w>": 3642,
    "बा दी</w>": 3643,
    "ब ंगा": 3644,
    "व ु": 3645,
    "i st": 3646,
    "का ंग": 3647,
    "मू र्": 3648,
    "न्या या": 3649,
    "वा प": 3650,
    "वा ह": 3651,
    "सफ ल</w>": 3652,
    "सार् वज": 3653,
    "क िये</w>": 3654,
    "सं दर्भ</w>": 3655,
    "शा दी</w>": 3656,
    "ध ित</w>": 3657,
    "कार् ड</w>": 3658,
    "स्था नीय</w>": 3659,
    "ट र": 3660,
    "को ड</w>": 3661,
    "प ि</w>": 3662,
    "u s": 3663,
    "( उत्तराखण्ड</w>": 3664,
    "ट्र ो": 3665,
    "प क्ष": 3666,
    "1 5</w>": 3667,
    "जिस ने</w>": 3668,
    "विष य</w>": 3669,
    "आवश्य क</w>": 3670,
    "( S": 3671,
    "ई .</w>": 3672,
    "आ ने</w>": 3673,
    "श र्": 3674,
    "अ र्थ": 3675,
    "जन सांख्यि": 3676,
    "ी क</w>": 3677,
    "थी ं।</w>": 3678,
    "उ र्": 3679,
    "र ता</w>": 3680,
    "दूसर ा</w>": 3681,
    "अ का": 3682,
    "तिहा सिक</w>": 3683,
    "जन संख्या</w>": 3684,
    "चिकित् सा</w>": 3685,
    "जा र</w>": 3686,
    "कॉ र्ड</w>": 3687,
    "ट्र ा": 3688,
    "न ृ": 3689,
    "१ ८": 3690,
    "प ढ़": 3691,
    "क्र ो": 3692,
    "त ियो": 3693,
    "ढ ा": 3694,
    "सम ि": 3695,
    "पर े": 3696,
    "ब नी</w>": 3697,
    "ग्र ह": 3698,
    "गे म</w>": 3699,
    "तह त</w>": 3700,
    "आवश्य कता</w>": 3701,
    "बांग्ला देश</w>": 3702,
    "p h": 3703,
    "ने श": 3704,
    "ल क</w>": 3705,
    "सहा यता</w>": 3706,
    "इन् होंने</w>": 3707,
    "निर्वा चन</w>": 3708,
    "प्रभा वित</w>": 3709,
    "मा त्रा</w>": 3710,
    "योज ित</w>": 3711,
    "सार्वज निक</w>": 3712,
    "सा न</w>": 3713,
    "कंप ्यू": 3714,
    "वि शिष्ट</w>": 3715,
    "प्र दर्श": 3716,
    "लो च": 3717,
    "डे टा": 3718,
    "त्य ा</w>": 3719,
    "k </w>": 3720,
    "द्वि तीय</w>": 3721,
    "ic </w>": 3722,
    "मू वी</w>": 3723,
    "र ंग</w>": 3724,
    "धा नी</w>": 3725,
    "क्षम ता</w>": 3726,
    "अ स": 3727,
    "पी छ": 3728,
    "घोष णा</w>": 3729,
    "प् ला": 3730,
    "वा य": 3731,
    "त :</w>": 3732,
    "द मी</w>": 3733,
    "हा इ": 3734,
    "मै न</w>": 3735,
    "मी र</w>": 3736,
    "सि ल</w>": 3737,
    "को ,</w>": 3738,
    "स के": 3739,
    "आ प</w>": 3740,
    "200 8</w>": 3741,
    "ब ल": 3742,
    "तुल ना</w>": 3743,
    "ई -": 3744,
    "र िक</w>": 3745,
    "ल ियों</w>": 3746,
    "खिला ड़ी</w>": 3747,
    "ं चा": 3748,
    "पु त्र</w>": 3749,
    "ं पर": 3750,
    "ठ ा</w>": 3751,
    "नी चे</w>": 3752,
    "गु ज": 3753,
    "ध ्र": 3754,
    "घट ना</w>": 3755,
    "नि वा": 3756,
    "a c": 3757,
    "जान कारी</w>": 3758,
    "— </w>": 3759,
    "at </w>": 3760,
    "सह ित</w>": 3761,
    "च रण</w>": 3762,
    "इंग् लैंड</w>": 3763,
    "ड र</w>": 3764,
    "च रि": 3765,
    "पा ठ": 3766,
    "राज स्थान</w>": 3767,
    "उद्देश ्य</w>": 3768,
    "दिखा ई</w>": 3769,
    "अ भी</w>": 3770,
    "क ट</w>": 3771,
    "त ना</w>": 3772,
    "गु ण": 3773,
    "जग ह</w>": 3774,
    "आ बादी</w>": 3775,
    "त् ती": 3776,
    "तक नी": 3777,
    "गि र": 3778,
    "च र</w>": 3779,
    "परी क्षण</w>": 3780,
    "कला कार</w>": 3781,
    "स ्रो": 3782,
    "भा व</w>": 3783,
    "टी वी</w>": 3784,
    "A </w>": 3785,
    "ब द्ध</w>": 3786,
    "या ता": 3787,
    "ए ं": 3788,
    "रा नी</w>": 3789,
    "_ {": 3790,
    "र िय": 3791,
    "न् न": 3792,
    "दा य</w>": 3793,
    "मा ने</w>": 3794,
    "सां स्": 3795,
    "व ें</w>": 3796,
    "ख ्या": 3797,
    "क ्या</w>": 3798,
    "है :</w>": 3799,
    "ज्ञ </w>": 3800,
    "साम ने</w>": 3801,
    "ज ,</w>": 3802,
    "दिसं बर</w>": 3803,
    "ऐ तिहासिक</w>": 3804,
    "1 2": 3805,
    "प ित</w>": 3806,
    "भग वान</w>": 3807,
    "ह ार": 3808,
    "प्र शि": 3809,
    "कृष् ण</w>": 3810,
    "रो ग</w>": 3811,
    "आर्थ िक</w>": 3812,
    "सी सी</w>": 3813,
    "डेटा बेस</w>": 3814,
    "ड् स</w>": 3815,
    "संस् कृति</w>": 3816,
    "ला ह</w>": 3817,
    "हो ना</w>": 3818,
    "क था</w>": 3819,
    "निय ु": 3820,
    "रा इ": 3821,
    "याता यात</w>": 3822,
    "प्रे र": 3823,
    "i g": 3824,
    "ब्र ह्": 3825,
    "प्रबंध न</w>": 3826,
    "कर् ता</w>": 3827,
    "महिला ओं</w>": 3828,
    "परिणा म</w>": 3829,
    "० ०</w>": 3830,
    "ँ च</w>": 3831,
    "1 4": 3832,
    "जिन् होंने</w>": 3833,
    "3 0</w>": 3834,
    "निर् मित</w>": 3835,
    "श ो</w>": 3836,
    "जनसांख्यि की</w>": 3837,
    "निश् चित</w>": 3838,
    "स्ट ी": 3839,
    "सम् बन्": 3840,
    "ए ड": 3841,
    "a d": 3842,
    "क न</w>": 3843,
    "व्या पार</w>": 3844,
    "सर्व श्रेष्ठ</w>": 3845,
    "शै ली</w>": 3846,
    "y le</w>": 3847,
    "समर्थ न</w>": 3848,
    "आ स": 3849,
    "( B": 3850,
    "ation </w>": 3851,
    "स्ट ो": 3852,
    "सं र": 3853,
    "राष्ट्र पति</w>": 3854,
    "साम्रा ज्य</w>": 3855,
    "आम तौर</w>": 3856,
    "अ फ्री": 3857,
    "अनु सं": 3858,
    "जानकार ी)</w>": 3859,
    "उत्त रा</w>": 3860,
    "dis pla": 3861,
    "त )</w>": 3862,
    "आ न्": 3863,
    "स्वय ं</w>": 3864,
    "- 0": 3865,
    "मा त्र</w>": 3866,
    "का ं": 3867,
    "प्र ती": 3868,
    "ला ,</w>": 3869,
    "समा प्त</w>": 3870,
    "displa yst": 3871,
    "displayst yle</w>": 3872,
    "p or": 3873,
    "वर्ण न</w>": 3874,
    "i d": 3875,
    "त ियाँ</w>": 3876,
    "भाव ना</w>": 3877,
    "वि चार": 3878,
    "ज्या दा</w>": 3879,
    "u t": 3880,
    "प्रभा ।</w>": 3881,
    "क् र</w>": 3882,
    "अंग्रे जी</w>": 3883,
    "प त्र</w>": 3884,
    "इन में</w>": 3885,
    "Th e</w>": 3886,
    "कानू न</w>": 3887,
    "र्म िक</w>": 3888,
    "पूर् ति</w>": 3889,
    "र् क</w>": 3890,
    "( C": 3891,
    "शि प</w>": 3892,
    "th </w>": 3893,
    "वृ द्धि</w>": 3894,
    "पा या</w>": 3895,
    "ए फ": 3896,
    "} </w>": 3897,
    "छ त्ती": 3898,
    "सांस् कृतिक</w>": 3899,
    "( P": 3900,
    "प्र सार": 3901,
    "ता प": 3902,
    "धा र्मिक</w>": 3903,
    "श्रे णी</w>": 3904,
    "रख ने</w>": 3905,
    "र ं": 3906,
    "x </w>": 3907,
    "e d": 3908,
    "स्प ष्ट</w>": 3909,
    "प हा": 3910,
    "क् तियों</w>": 3911,
    "छत्ती स": 3912,
    "ट िक</w>": 3913,
    "ट र्": 3914,
    "क प</w>": 3915,
    "दू री</w>": 3916,
    "गू गल</w>": 3917,
    "सम् मानित</w>": 3918,
    "1 1</w>": 3919,
    "हैं :</w>": 3920,
    "{\\ displaystyle</w>": 3921,
    "दा स</w>": 3922,
    "यो जन</w>": 3923,
    "व ,</w>": 3924,
    "आ लोच": 3925,
    "प्रका श</w>": 3926,
    "पा न</w>": 3927,
    "आ कार</w>": 3928,
    "1 2</w>": 3929,
    "राज धानी</w>": 3930,
    "1 .": 3931,
    "न ो</w>": 3932,
    "ट् टी</w>": 3933,
    "ं कि,</w>": 3934,
    "5 0</w>": 3935,
    "व री": 3936,
    "संस् कृत</w>": 3937,
    "कार्य क्रम</w>": 3938,
    "वि शा": 3939,
    "कांग ्रे": 3940,
    "ह म्म": 3941,
    "प्रारं भिक</w>": 3942,
    "सहा यक</w>": 3943,
    "दे ती</w>": 3944,
    "फ ू": 3945,
    "हे तु</w>": 3946,
    "सुर क्षा</w>": 3947,
    "ट्र ॉ": 3948,
    "त् त</w>": 3949,
    "s )</w>": 3950,
    "रह ती</w>": 3951,
    "वी डियो</w>": 3952,
    "शास् त्र": 3953,
    "क् स": 3954,
    "र् ना": 3955,
    "20 19</w>": 3956,
    "o t": 3957,
    "व स्तु": 3958,
    "शा ली</w>": 3959,
    "i m": 3960,
    "( A": 3961,
    "अनु सार": 3962,
    "पृथ् वी</w>": 3963,
    "मिल ियन</w>": 3964,
    "प्र ी": 3965,
    "ग ू</w>": 3966,
    "अ गर</w>": 3967,
    "प्र तियो": 3968,
    "प्रा य": 3969,
    "बना ए</w>": 3970,
    "200 7</w>": 3971,
    "मॉ ड": 3972,
    "खा न</w>": 3973,
    "कॉले ज</w>": 3974,
    "ग ल": 3975,
    "3 )</w>": 3976,
    "श रा": 3977,
    "फ़ ा": 3978,
    "बे ह": 3979,
    "टेली वि": 3980,
    "नी ,</w>": 3981,
    "सा गर</w>": 3982,
    "चा र्य</w>": 3983,
    "ग िक</w>": 3984,
    "अव धि</w>": 3985,
    "लिख ा</w>": 3986,
    "ना ग": 3987,
    "र िली": 3988,
    "हाला ंकि,</w>": 3989,
    "h </w>": 3990,
    "a p": 3991,
    "ति ,</w>": 3992,
    "॰ ऍ": 3993,
    "न य</w>": 3994,
    "अर् था": 3995,
    "म र": 3996,
    "आ ता</w>": 3997,
    "म ही": 3998,
    "नि ष्": 3999
  }
}