{
  "token_to_id": {
    "<PAD>": 0,
    "<UNK>": 1,
    "<BOS>": 2,
    "<EOS>": 3,
    "</w>": 4,
    "ा": 5,
    "र": 6,
    "क": 7,
    "्": 8,
    "े": 9,
    "ि": 10,
    "न": 11,
    "स": 12,
    "त": 13,
    "ं": 14,
    "ी": 15,
    "म": 16,
    "ह": 17,
    "य": 18,
    "ल": 19,
    "प": 20,
    "ो": 21,
    "व": 22,
    "द": 23,
    "ज": 24,
    "ग": 25,
    "ब": 26,
    "ै": 27,
    "ु": 28,
    "=": 29,
    "ट": 30,
    "।": 31,
    "श": 32,
    ",": 33,
    "अ": 34,
    "ए": 35,
    "ड": 36,
    "भ": 37,
    "थ": 38,
    "ू": 39,
    "च": 40,
    "ध": 41,
    "उ": 42,
    "इ": 43,
    "ष": 44,
    "ण": 45,
    "ख": 46,
    "़": 47,
    "औ": 48,
    "आ": 49,
    "फ": 50,
    "1": 51,
    "0": 52,
    ")": 53,
    "(": 54,
    "-": 55,
    "ई": 56,
    "a": 57,
    "e": 58,
    "2": 59,
    "i": 60,
    "n": 61,
    "r": 62,
    "o": 63,
    "t": 64,
    ".": 65,
    "ृ": 66,
    "ॉ": 67,
    "9": 68,
    "ँ": 69,
    "s": 70,
    "ौ": 71,
    "l": 72,
    "छ": 73,
    "ओ": 74,
    "\"": 75,
    "घ": 76,
    "8": 77,
    "5": 78,
    "ठ": 79,
    "d": 80,
    ":": 81,
    "3": 82,
    "c": 83,
    "h": 84,
    "4": 85,
    "7": 86,
    "6": 87,
    "u": 88,
    "१": 89,
    "m": 90,
    "ढ": 91,
    "०": 92,
    "p": 93,
    "'": 94,
    "y": 95,
    "g": 96,
    "ञ": 97,
    "S": 98,
    "ऑ": 99,
    "२": 100,
    "f": 101,
    "A": 102,
    "I": 103,
    "C": 104,
    "झ": 105,
    "९": 106,
    "ऐ": 107,
    "ऊ": 108,
    "b": 109,
    "P": 110,
    "ः": 111,
    "M": 112,
    "v": 113,
    "T": 114,
    ";": 115,
    "k": 116,
    "}": 117,
    "{": 118,
    "B": 119,
    "w": 120,
    "N": 121,
    "D": 122,
    "३": 123,
    "८": 124,
    "E": 125,
    "५": 126,
    "॰": 127,
    "\\": 128,
    "४": 129,
    "/": 130,
    "R": 131,
    "६": 132,
    "–": 133,
    "W": 134,
    "‍": 135,
    "७": 136,
    "F": 137,
    "L": 138,
    "H": 139,
    "O": 140,
    "G": 141,
    "x": 142,
    "%": 143,
    "V": 144,
    "|": 145,
    "]": 146,
    "U": 147,
    "K": 148,
    "[": 149,
    "+": 150,
    "’": 151,
    "‘": 152,
    "J": 153,
    "Y": 154,
    "z": 155,
    "_": 156,
    "—": 157,
    "ॅ": 158,
    "ऍ": 159,
    "ऋ": 160,
    "j": 161,
    "ङ": 162,
    "?": 163,
    "‌": 164,
    "X": 165,
    "ا": 166,
    "q": 167,
    "!": 168,
    "^": 169,
    "Q": 170,
    "$": 171,
    "॥": 172,
    "Z": 173,
    "°": 174,
    "−": 175,
    "​": 176,
    "•": 177,
    "ل": 178,
    "&": 179,
    "ن": 180,
    "ā": 181,
    "م": 182,
    "ر": 183,
    "*": 184,
    "ی": 185,
    "و": 186,
    "ॆ": 187,
    "”": 188,
    "“": 189,
    "₹": 190,
    "é": 191,
    "ळ": 192,
    "‎": 193,
    "د": 194,
    "ب": 195,
    "া": 196,
    "س": 197,
    "ہ": 198,
    "ː": 199,
    "⁡": 200,
    "ˈ": 201,
    "а": 202,
    "φ": 203,
    "े</w>": 204,
    "ा</w>": 205,
    "ी</w>": 206,
    "र</w>": 207,
    "ं</w>": 208,
    "के</w>": 209,
    "्र": 210,
    "।</w>": 211,
    "मे": 212,
    "है": 213,
    "न</w>": 214,
    "र्": 215,
    "क</w>": 216,
    ",</w>": 217,
    "में</w>": 218,
    "त</w>": 219,
    "स्": 220,
    "िय": 221,
    "्य": 222,
    "==": 223,
    "ो</w>": 224,
    "की</w>": 225,
    "ने</w>": 226,
    "ार": 227,
    "प्र": 228,
    "से</w>": 229,
    "ों</w>": 230,
    "ल</w>": 231,
    "का</w>": 232,
    "और</w>": 233,
    "क्": 234,
    "वि": 235,
    "स</w>": 236,
    "ता</w>": 237,
    "==</w>": 238,
    "रा": 239,
    "मा": 240,
    "ि</w>": 241,
    "न्": 242,
    "का": 243,
    "है।</w>": 244,
    "त्": 245,
    "म</w>": 246,
    "वा": 247,
    "को</w>": 248,
    "सा": 249,
    "य</w>": 250,
    "लि": 251,
    "ह</w>": 252,
    "जा": 253,
    "एक</w>": 254,
    "सं": 255,
    "ना": 256,
    "कर": 257,
    ")</w>": 258,
    "नि": 259,
    "ए</w>": 260,
    "िया</w>": 261,
    "ण</w>": 262,
    "बा": 263,
    "ला": 264,
    "ित</w>": 265,
    "ग</w>": 266,
    "हा": 267,
    "द्": 268,
    "ट</w>": 269,
    "हो": 270,
    "दे": 271,
    "ना</w>": 272,
    "द</w>": 273,
    "ड़": 274,
    "क्ष": 275,
    "िक</w>": 276,
    "्य</w>": 277,
    "व</w>": 278,
    "पर</w>": 279,
    "या</w>": 280,
    "था": 281,
    "िल": 282,
    "ई</w>": 283,
    "पा": 284,
    "प</w>": 285,
    "है</w>": 286,
    "भी</w>": 287,
    "हैं": 288,
    "ड</w>": 289,
    "ता": 290,
    "िया": 291,
    "ते</w>": 292,
    "रू": 293,
    "लिए</w>": 294,
    "सम": 295,
    "भा": 296,
    "रि": 297,
    "हु": 298,
    "कि": 299,
    "ती</w>": 300,
    "ले": 301,
    "कि</w>": 302,
    "ति": 303,
    "या": 304,
    "ति</w>": 305,
    "श</w>": 306,
    "नी</w>": 307,
    "जि": 308,
    "ष्": 309,
    "कर</w>": 310,
    "हैं।</w>": 311,
    "ीय</w>": 312,
    "राज": 313,
    "त्र": 314,
    "री</w>": 315,
    "पु": 316,
    "सि": 317,
    "20": 318,
    "अन": 319,
    "्या": 320,
    ".</w>": 321,
    "ज़": 322,
    "शा": 323,
    "ंग": 324,
    "अप": 325,
    "थ</w>": 326,
    "मु": 327,
    "यह</w>": 328,
    "कार": 329,
    "ली</w>": 330,
    "किया</w>": 331,
    "मि": 332,
    "=</w>": 333,
    "कार</w>": 334,
    "दा": 335,
    "ल्": 336,
    "रूप</w>": 337,
    "चा": 338,
    "ें</w>": 339,
    "भार": 340,
    "वर्": 341,
    "इस": 342,
    "ले</w>": 343,
    "था</w>": 344,
    "को": 345,
    "उत्": 346,
    "19": 347,
    "पू": 348,
    "क्र": 349,
    "श्": 350,
    "कु": 351,
    "ँ</w>": 352,
    "हि": 353,
    "===</w>": 354,
    "गा": 355,
    "के": 356,
    "ब</w>": 357,
    "त्र</w>": 358,
    "इस</w>": 359,
    "दि": 360,
    "ही": 361,
    "ही</w>": 362,
    "म्": 363,
    "ट्र": 364,
    "है,</w>": 365,
    "ज</w>": 366,
    "अध": 367,
    "ला</w>": 368,
    "द्व": 369,
    "ारा</w>": 370,
    "च</w>": 371,
    "यो": 372,
    "ने": 373,
    "जो</w>": 374,
    "वे": 375,
    "से": 376,
    "लो": 377,
    "ध</w>": 378,
    "धा": 379,
    "सी": 380,
    "ग्र": 381,
    "सी</w>": 382,
    "दी</w>": 383,
    "दर्": 384,
    "ियों</w>": 385,
    "-</w>": 386,
    "प्": 387,
    "करने</w>": 388,
    "जाता</w>": 389,
    "रो": 390,
    ":</w>": 391,
    "ण्": 392,
    "उप": 393,
    "गया</w>": 394,
    "ु</w>": 395,
    "था।</w>": 396,
    "स्त": 397,
    "सर": 398,
    "शि": 399,
    "उत्त": 400,
    "स्थ": 401,
    "उन्": 402,
    "स्ट": 403,
    "उन": 404,
    "द्वारा</w>": 405,
    "ओं</w>": 406,
    "0</w>": 407,
    "जी": 408,
    "प्रा": 409,
    "सु": 410,
    "स्था": 411,
    "पर": 412,
    "साथ</w>": 413,
    "अनु": 414,
    "हीं</w>": 415,
    "ब्": 416,
    "निर्": 417,
    "ंड": 418,
    "कृ": 419,
    "रह": 420,
    "फ़": 421,
    "ी।</w>": 422,
    "पूर्": 423,
    "िल्": 424,
    "रे": 425,
    "तर": 426,
    "ंग</w>": 427,
    "मान": 428,
    "भारत</w>": 429,
    "चि": 430,
    "पह": 431,
    "हो</w>": 432,
    "ं,</w>": 433,
    "नी": 434,
    "हें</w>": 435,
    "नहीं</w>": 436,
    "e</w>": 437,
    "परि": 438,
    "दू": 439,
    "जिस": 440,
    "े।</w>": 441,
    "बी": 442,
    "ज्": 443,
    "बाद</w>": 444,
    "ष</w>": 445,
    "मी": 446,
    "नों</w>": 447,
    "देश</w>": 448,
    "भ</w>": 449,
    "तक</w>": 450,
    "अं": 451,
    "यु": 452,
    "अपने</w>": 453,
    "हैं</w>": 454,
    "उस": 455,
    "श्र": 456,
    "सक": 457,
    "व्य": 458,
    "मुख": 459,
    "कार्": 460,
    "ीन</w>": 461,
    "ढ़": 462,
    "वह</w>": 463,
    "क्षे": 464,
    "बि": 465,
    "खा": 466,
    "टे": 467,
    "शन</w>": 468,
    "िया।</w>": 469,
    "तथा</w>": 470,
    "\"</w>": 471,
    "तीय</w>": 472,
    "मै": 473,
    "हों": 474,
    "राज्य</w>": 475,
    "बे": 476,
    "वी": 477,
    "ज्ञ": 478,
    "सन्": 479,
    "an": 480,
    "होंने</w>": 481,
    "री": 482,
    "गु": 483,
    "सू": 484,
    "टि": 485,
    "बं": 486,
    "जा</w>": 487,
    "देख": 488,
    "च्": 489,
    "जन": 490,
    "1</w>": 491,
    "मो": 492,
    "्यू": 493,
    "मू": 494,
    "ण्ड</w>": 495,
    "गो": 496,
    "कड़": 497,
    "शु": 498,
    "ियाँ</w>": 499,
    "भि": 500,
    "ंड</w>": 501,
    "वा</w>": 502,
    "्रा": 503,
    "वे</w>": 504,
    "ट्": 505,
    "क्त</w>": 506,
    "ली": 507,
    "टी": 508,
    "200": 509,
    "जै": 510,
    "रु": 511,
    "होता</w>": 512,
    "er": 513,
    "टी</w>": 514,
    "मी</w>": 515,
    "in": 516,
    "on": 517,
    "मह": 518,
    "बाह": 519,
    "ंद": 520,
    "2</w>": 521,
    "कह": 522,
    "भू": 523,
    "मान</w>": 524,
    "सा</w>": 525,
    "आध": 526,
    "पी": 527,
    "वी</w>": 528,
    "लग": 529,
    "शे": 530,
    "हुआ": 531,
    "पि": 532,
    "मं": 533,
    "रा</w>": 534,
    "टर</w>": 535,
    "कों</w>": 536,
    "योग</w>": 537,
    "छ</w>": 538,
    "बर</w>": 539,
    "गया": 540,
    "त्य": 541,
    "उत्तरा": 542,
    "पो": 543,
    "पे": 544,
    "s</w>": 545,
    "ज्ञा": 546,
    "इन्": 547,
    "द्ध</w>": 548,
    "डे": 549,
    "5</w>": 550,
    "जी</w>": 551,
    "फ</w>": 552,
    "दर्भ</w>": 553,
    "बना": 554,
    "खण्ड</w>": 555,
    "उन्होंने</w>": 556,
    "में,</w>": 557,
    "एव": 558,
    "ती": 559,
    "कुछ</w>": 560,
    "निक</w>": 561,
    "्रे": 562,
    "स्व": 563,
    "डि": 564,
    "प्रति": 565,
    "निय": 566,
    "201": 567,
    "टा": 568,
    "थे।</w>": 569,
    "एवं</w>": 570,
    "िले</w>": 571,
    "अधि": 572,
    "ू</w>": 573,
    "नाम</w>": 574,
    "उत्तराखण्ड</w>": 575,
    "न,</w>": 576,
    "कॉ": 577,
    "भारतीय</w>": 578,
    "विश्": 579,
    "मा</w>": 580,
    "देश": 581,
    "ष्ट्र": 582,
    "or": 583,
    "दिया</w>": 584,
    "at": 585,
    "सम्": 586,
    "भाष": 587,
    "सब": 588,
    "स्थित</w>": 589,
    "ारी</w>": 590,
    "लै": 591,
    "बाहरी</w>": 592,
    "करते</w>": 593,
    "हैं,</w>": 594,
    "दु": 595,
    "मिल": 596,
    "दो": 597,
    "सन्दर्भ</w>": 598,
    "मिल</w>": 599,
    "3</w>": 600,
    "क्षेत्र</w>": 601,
    "प्त</w>": 602,
    "चु": 603,
    "इन</w>": 604,
    "वाले</w>": 605,
    "ar": 606,
    "8</w>": 607,
    "फिल्": 608,
    "4</w>": 609,
    "करता</w>": 610,
    "बो": 611,
    "जु": 612,
    "अन्य</w>": 613,
    "मार्": 614,
    "ी,</w>": 615,
    "सरकार</w>": 616,
    "होने</w>": 617,
    "इसके</w>": 618,
    "al": 619,
    "कै": 620,
    "कर्": 621,
    "ये</w>": 622,
    "किया।</w>": 623,
    "तो</w>": 624,
    "कई</w>": 625,
    "समय</w>": 626,
    "),</w>": 627,
    "उनके</w>": 628,
    "7</w>": 629,
    "तु": 630,
    "6</w>": 631,
    "बहु": 632,
    "्यो": 633,
    "कड़ियाँ</w>": 634,
    "यू": 635,
    "गर</w>": 636,
    "प्रदेश</w>": 637,
    "सो": 638,
    "अधिक</w>": 639,
    "गया।</w>": 640,
    "d</w>": 641,
    "जे": 642,
    "पर्": 643,
    "क्षा</w>": 644,
    "इन": 645,
    "गी": 646,
    "जन</w>": 647,
    "लय</w>": 648,
    "अपनी</w>": 649,
    "्या</w>": 650,
    "ंट": 651,
    "णा": 652,
    "थी।</w>": 653,
    "अव": 654,
    "धि</w>": 655,
    "ब्र": 656,
    "ड़ी</w>": 657,
    "ारे</w>": 658,
    "सबसे</w>": 659,
    "फि": 660,
    "ण्ड": 661,
    "जो": 662,
    "राष्ट्र": 663,
    "रण</w>": 664,
    "वन</w>": 665,
    "दा</w>": 666,
    "ंप": 667,
    "स्ता": 668,
    "सर्": 669,
    "पहले</w>": 670,
    "होती</w>": 671,
    "ठ</w>": 672,
    "समा": 673,
    "उन्हें</w>": 674,
    "st": 675,
    "गि": 676,
    "इन्हें</w>": 677,
    "नो": 678,
    "र्थ": 679,
    "गत</w>": 680,
    "द्र": 681,
    "हुआ</w>": 682,
    "दो</w>": 683,
    "किसी</w>": 684,
    "डा": 685,
    "तं": 686,
    "en": 687,
    "चार</w>": 688,
    "th": 689,
    "हुए</w>": 690,
    "खि": 691,
    "गों</w>": 692,
    "कारण</w>": 693,
    "जब</w>": 694,
    "बै": 695,
    "'</w>": 696,
    "ः</w>": 697,
    "वै": 698,
    "ड़</w>": 699,
    "रख": 700,
    "न्न</w>": 701,
    "सकता</w>": 702,
    "ज़</w>": 703,
    "िला</w>": 704,
    "शामिल</w>": 705,
    "मक</w>": 706,
    "जिले</w>": 707,
    "भाग</w>": 708,
    "ग्रा": 709,
    "बंध": 710,
    "देखें</w>": 711,
    ";</w>": 712,
    "क्ति</w>": 713,
    "किन</w>": 714,
    "अंग": 715,
    "लों</w>": 716,
    "शी": 717,
    "व्या": 718,
    "स्ट</w>": 719,
    "तिक</w>": 720,
    "ारा": 721,
    "गाँ": 722,
    "ड़ा</w>": 723,
    "हर</w>": 724,
    "प्रभा": 725,
    "पै": 726,
    "स्थाप": 727,
    "र,</w>": 728,
    "लेकिन</w>": 729,
    "हे": 730,
    "दौ": 731,
    "जू": 732,
    "महा": 733,
    "सन</w>": 734,
    "ते": 735,
    "a</w>": 736,
    "त्व</w>": 737,
    "साइ": 738,
    "१९": 739,
    "लेख": 740,
    "हाँ</w>": 741,
    "फिल्म</w>": 742,
    "दि</w>": 743,
    "रे</w>": 744,
    "कम</w>": 745,
    "==।</w>": 746,
    "9</w>": 747,
    "बहुत</w>": 748,
    "न्त": 749,
    "छो": 750,
    "ंट</w>": 751,
    "करण</w>": 752,
    "खे": 753,
    "स्थान</w>": 754,
    "जाती</w>": 755,
    "अमे": 756,
    "कारी</w>": 757,
    "फा": 758,
    "ic": 759,
    "की": 760,
    "सिं": 761,
    "लिय": 762,
    "विद": 763,
    "जैसे</w>": 764,
    "ंकि</w>": 765,
    "होते</w>": 766,
    "२०": 767,
    "दान</w>": 768,
    "र्म": 769,
    "क्षि": 770,
    "संस्": 771,
    "निर्मा": 772,
    "विशे": 773,
    "कहा</w>": 774,
    "प्रकार</w>": 775,
    "अमेरि": 776,
    "यों</w>": 777,
    "जन्": 778,
    "सभी</w>": 779,
    "गाँव</w>": 780,
    "ए।</w>": 781,
    "विधा": 782,
    "िकार": 783,
    "द्र</w>": 784,
    "ग्": 785,
    "जाने</w>": 786,
    "बु": 787,
    "अभि": 788,
    "तर</w>": 789,
    "क्रि": 790,
    "तिहा": 791,
    "ंख": 792,
    "उनकी</w>": 793,
    "अर्": 794,
    "पूर्ण</w>": 795,
    "वर</w>": 796,
    "सार</w>": 797,
    "उस</w>": 798,
    "सह": 799,
    "हां</w>": 800,
    "इसे</w>": 801,
    "सद": 802,
    "था,</w>": 803,
    "सर</w>": 804,
    "ियो": 805,
    "00</w>": 806,
    "ड़े</w>": 807,
    "लन</w>": 808,
    "पुर</w>": 809,
    "डी": 810,
    "उसके</w>": 811,
    "प्रे": 812,
    "पूर्व</w>": 813,
    "वर्ष</w>": 814,
    "आधिकार": 815,
    "आधिकारिक</w>": 816,
    "y</w>": 817,
    "रों</w>": 818,
    "स्थि": 819,
    "ौर</w>": 820,
    "अंग्रे": 821,
    "हार</w>": 822,
    "भाषा</w>": 823,
    "दी": 824,
    "जिसमें</w>": 825,
    "199": 826,
    "गे": 827,
    "उसे</w>": 828,
    "t</w>": 829,
    "वार</w>": 830,
    "मण्ड": 831,
    "ंच": 832,
    "सै": 833,
    "नु": 834,
    "वृ": 835,
    "मौ": 836,
    "प्राप्त</w>": 837,
    "मुख</w>": 838,
    "पश्": 839,
    "रू</w>": 840,
    "क,</w>": 841,
    "उपयोग</w>": 842,
    "साम": 843,
    "वर्त": 844,
    "संख": 845,
    "ेक</w>": 846,
    "भा</w>": 847,
    "त्री</w>": 848,
    "न्या": 849,
    "अल": 850,
    "मध": 851,
    "दक्षि": 852,
    "मण्डल</w>": 853,
    "उत्तर</w>": 854,
    "पुर": 855,
    "तरह</w>": 856,
    "यन</w>": 857,
    "ष्ट</w>": 858,
    "र्ट": 859,
    "ंध": 860,
    "राष्ट्रीय</w>": 861,
    "बीच</w>": 862,
    "वल</w>": 863,
    "इसका</w>": 864,
    "काम</w>": 865,
    "लिख": 866,
    "मुख्य</w>": 867,
    "ion": 868,
    "गए</w>": 869,
    "चार": 870,
    "गढ़": 871,
    "धार": 872,
    "०</w>": 873,
    "णी</w>": 874,
    "युक्त</w>": 875,
    "ृष्": 876,
    "र्ड</w>": 877,
    "बार</w>": 878,
    "कोई</w>": 879,
    "क्षण</w>": 880,
    "योग": 881,
    "पाद": 882,
    "जान": 883,
    "त्व": 884,
    "ंस</w>": 885,
    "क्ष</w>": 886,
    "क्स</w>": 887,
    "आई": 888,
    "वाली</w>": 889,
    "यी</w>": 890,
    "त्य</w>": 891,
    "लिया</w>": 892,
    "टू": 893,
    "f</w>": 894,
    "लोगों</w>": 895,
    "विज्ञा": 896,
    "जीवन</w>": 897,
    "टा</w>": 898,
    "िया,</w>": 899,
    "कंप": 900,
    "पत्": 901,
    "डी</w>": 902,
    "यर</w>": 903,
    "प्रमुख</w>": 904,
    "ं।</w>": 905,
    "गई</w>": 906,
    "ंत</w>": 907,
    "नगर</w>": 908,
    "तियों</w>": 909,
    "स्टे": 910,
    "थी</w>": 911,
    "लैंड</w>": 912,
    "ंग्": 913,
    "टो": 914,
    "निर्माण</w>": 915,
    "व्यव": 916,
    "भिन्न</w>": 917,
    "स्ट्र": 918,
    "दूसर": 919,
    "पास</w>": 920,
    "प्रका": 921,
    "रच": 922,
    "सूच": 923,
    "करना</w>": 924,
    "शुरू</w>": 925,
    "18": 926,
    "मन</w>": 927,
    "ंब": 928,
    "एँ</w>": 929,
    "रान</w>": 930,
    "तह": 931,
    "त्रों</w>": 932,
    "स,</w>": 933,
    "हम": 934,
    "बढ़": 935,
    "हिन्": 936,
    "अक्": 937,
    "कार्य": 938,
    "वाद</w>": 939,
    "ल,</w>": 940,
    "थे</w>": 941,
    "घट": 942,
    "तों</w>": 943,
    "लगा": 944,
    "केट</w>": 945,
    "कू": 946,
    "शो": 947,
    "च्छ": 948,
    "फ्": 949,
    "जन्म</w>": 950,
    "चे": 951,
    "सभा</w>": 952,
    "मों</w>": 953,
    "जिसे</w>": 954,
    "विका": 955,
    "जब": 956,
    "it": 957,
    "प्रो": 958,
    "जाते</w>": 959,
    "द्ध": 960,
    "लगभ": 961,
    "भी": 962,
    "मित</w>": 963,
    "रॉ": 964,
    "हाला": 965,
    "पं": 966,
    "लगभग</w>": 967,
    "े,</w>": 968,
    "ंश</w>": 969,
    "ड्": 970,
    "गण": 971,
    "खु": 972,
    "दोनों</w>": 973,
    "is": 974,
    "बारे</w>": 975,
    "विद्या": 976,
    "ताओं</w>": 977,
    "गीत</w>": 978,
    "द,</w>": 979,
    "दिर</w>": 980,
    "of</w>": 981,
    "कृत</w>": 982,
    "खिला": 983,
    "रहा</w>": 984,
    "णा</w>": 985,
    "स्वा": 986,
    "ियन</w>": 987,
    "टन</w>": 988,
    "इं": 989,
    "हुई</w>": 990,
    "इतिहा": 991,
    "श्य": 992,
    "निया</w>": 993,
    "च्च": 994,
    "काल</w>": 995,
    "स्त</w>": 996,
    "की।</w>": 997,
    "करती</w>": 998,
    "मृ": 999,
    "ई।</w>": 1000,
    "ए,</w>": 1001,
    "कुमा": 1002,
    "अध्य": 1003,
    "ख़": 1004,
    "संख्या</w>": 1005,
    "विष": 1006,
    "पश्चि": 1007,
    "लॉ": 1008,
    "पुरस्": 1009,
    "स्प": 1010,
    "कार्य</w>": 1011,
    "लोक": 1012,
    "पार्": 1013,
    "तु</w>": 1014,
    "ro": 1015,
    "फो": 1016,
    "फे": 1017,
    "कता</w>": 1018,
    "es": 1019,
    "तौर</w>": 1020,
    "जिन": 1021,
    "डॉ": 1022,
    "आव": 1023,
    "यक</w>": 1024,
    "न्यू": 1025,
    "बी</w>": 1026,
    "तः</w>": 1027,
    "शब्": 1028,
    "साहि": 1029,
    "केवल</w>": 1030,
    "ओर</w>": 1031,
    "फिर</w>": 1032,
    "बर्": 1033,
    "एस": 1034,
    "णों</w>": 1035,
    "सिंह</w>": 1036,
    "विश्व": 1037,
    "विकास</w>": 1038,
    "र्म</w>": 1039,
    "त,</w>": 1040,
    "त्रि": 1041,
    "198": 1042,
    "उद": 1043,
    "वरी</w>": 1044,
    "आर": 1045,
    "अनुसार</w>": 1046,
    "लु": 1047,
    "ड़ा": 1048,
    "लता</w>": 1049,
    "धार</w>": 1050,
    "शहर</w>": 1051,
    "तीन</w>": 1052,
    "प्रयोग</w>": 1053,
    "जाना</w>": 1054,
    "–</w>": 1055,
    "योज": 1056,
    "सदस्": 1057,
    "कल</w>": 1058,
    "्र</w>": 1059,
    "ब्रि": 1060,
    "रहे</w>": 1061,
    "दौरान</w>": 1062,
    "नाट": 1063,
    "ur": 1064,
    "श्रे": 1065,
    "क्यो": 1066,
    "घा": 1067,
    "आदि</w>": 1068,
    "यहाँ</w>": 1069,
    "विशेष</w>": 1070,
    "विभिन्न</w>": 1071,
    "गै": 1072,
    "नू": 1073,
    "al</w>": 1074,
    "एं</w>": 1075,
    "र-": 1076,
    "शिक्षा</w>": 1077,
    "धि": 1078,
    "la": 1079,
    "विश्व</w>": 1080,
    "ख</w>": 1081,
    "इसकी</w>": 1082,
    "लोग</w>": 1083,
    "फ़</w>": 1084,
    "त्मक</w>": 1085,
    "शा</w>": 1086,
    "व्यक्ति</w>": 1087,
    "20</w>": 1088,
    "पार": 1089,
    "समू": 1090,
    "क़": 1091,
    "सार": 1092,
    "ch": 1093,
    "र्गत</w>": 1094,
    "ॉर्": 1095,
    "दक्षिण</w>": 1096,
    "धन</w>": 1097,
    "पहु": 1098,
    "बन</w>": 1099,
    "इसमें</w>": 1100,
    "खो": 1101,
    "टे</w>": 1102,
    "सकते</w>": 1103,
    "बद": 1104,
    "त्रा</w>": 1105,
    "ज़ी": 1106,
    "ing": 1107,
    "मार": 1108,
    "द्धा": 1109,
    "राजनी": 1110,
    "समु": 1111,
    "क्योंकि</w>": 1112,
    "सर्व": 1113,
    "नव": 1114,
    "चौ": 1115,
    "पुरस्कार</w>": 1116,
    "हिस्": 1117,
    "फी</w>": 1118,
    "दर्शन</w>": 1119,
    "आवश्य": 1120,
    "वीं</w>": 1121,
    "ंक": 1122,
    "कहा": 1123,
    "इतिहास</w>": 1124,
    "पुरा": 1125,
    "माध": 1126,
    "अग": 1127,
    "िय</w>": 1128,
    "चै": 1129,
    "नल</w>": 1130,
    "डिय": 1131,
    "वाला</w>": 1132,
    "ची": 1133,
    "स्था</w>": 1134,
    "हन</w>": 1135,
    "अब</w>": 1136,
    "थी": 1137,
    "विध": 1138,
    "फ़िल्": 1139,
    "अंत": 1140,
    "ंद्र": 1141,
    "ृंख": 1142,
    "ह्": 1143,
    "भूमि": 1144,
    "अलग</w>": 1145,
    "परी": 1146,
    "ंगा": 1147,
    "गठ": 1148,
    "दिन</w>": 1149,
    "मीटर</w>": 1150,
    "ra": 1151,
    "दर</w>": 1152,
    "सामान": 1153,
    "शास्": 1154,
    "स्तु": 1155,
    "माना</w>": 1156,
    "उनका</w>": 1157,
    "the</w>": 1158,
    "दिया।</w>": 1159,
    "क्रिकेट</w>": 1160,
    "लित</w>": 1161,
    "लिये</w>": 1162,
    "दार</w>": 1163,
    "अपना</w>": 1164,
    "किए</w>": 1165,
    "le": 1166,
    "मे</w>": 1167,
    "र्य</w>": 1168,
    "स्थिति</w>": 1169,
    "अन्त": 1170,
    "काल": 1171,
    "ंटर": 1172,
    "मूल</w>": 1173,
    "%</w>": 1174,
    "घो": 1175,
    "नीय</w>": 1176,
    "वित</w>": 1177,
    "धान</w>": 1178,
    "सिद्ध</w>": 1179,
    "उल्": 1180,
    "चीन</w>": 1181,
    "ियां</w>": 1182,
    "चित</w>": 1183,
    "मंदिर</w>": 1184,
    "202": 1185,
    "कला": 1186,
    "आंध": 1187,
    "ंक</w>": 1188,
    "दर्श": 1189,
    "संबंध": 1190,
    "प्रत्य": 1191,
    "कृति</w>": 1192,
    "लिस</w>": 1193,
    "पहली</w>": 1194,
    "फै": 1195,
    "उन</w>": 1196,
    "प्रदान</w>": 1197,
    "ऑफ</w>": 1198,
    "युद्ध</w>": 1199,
    "भे": 1200,
    "बॉ": 1201,
    "विज्ञान</w>": 1202,
    "क्रम</w>": 1203,
    "लर</w>": 1204,
    "डो": 1205,
    "आंध्र</w>": 1206,
    "माल</w>": 1207,
    "जिन्": 1208,
    "वन": 1209,
    "एम": 1210,
    "अंतर": 1211,
    "हिं": 1212,
    "क्ति": 1213,
    "वर्ष": 1214,
    "अप्र": 1215,
    "स्तान</w>": 1216,
    "ट्स</w>": 1217,
    "र्ष": 1218,
    "ंच</w>": 1219,
    "वेब": 1220,
    "विद्यालय</w>": 1221,
    "भो": 1222,
    "197": 1223,
    "सफ": 1224,
    "दिखा": 1225,
    "उसकी</w>": 1226,
    "्यम</w>": 1227,
    "क्रिया</w>": 1228,
    "संयुक्त</w>": 1229,
    "संघ": 1230,
    "and</w>": 1231,
    "सहा": 1232,
    "परिवार</w>": 1233,
    "संगीत</w>": 1234,
    "वान</w>": 1235,
    "नौ": 1236,
    "साल</w>": 1237,
    "क्षा": 1238,
    "नै": 1239,
    "आग": 1240,
    "एक": 1241,
    "ठा": 1242,
    "निक": 1243,
    "चाहि": 1244,
    "शै": 1245,
    "बन": 1246,
    "ृंखला</w>": 1247,
    "ation": 1248,
    "न्त</w>": 1249,
    "च्च</w>": 1250,
    "196": 1251,
    "अति": 1252,
    "टीम</w>": 1253,
    "m</w>": 1254,
    "कुल</w>": 1255,
    "जबकि</w>": 1256,
    "विक": 1257,
    "त्वपूर्ण</w>": 1258,
    "तो": 1259,
    "छा": 1260,
    "तब</w>": 1261,
    "सामा": 1262,
    "जिक</w>": 1263,
    "हुआ।</w>": 1264,
    "षण</w>": 1265,
    "यर": 1266,
    "लिक</w>": 1267,
    "वास</w>": 1268,
    "नदी</w>": 1269,
    "ब्रा": 1270,
    "जिसका</w>": 1271,
    "स्थापित</w>": 1272,
    "दूसरे</w>": 1273,
    "वाल</w>": 1274,
    "प्रथ": 1275,
    "बाद,</w>": 1276,
    "सिक</w>": 1277,
    "इसी</w>": 1278,
    "पति</w>": 1279,
    "चुना": 1280,
    "re": 1281,
    "सित</w>": 1282,
    "पड़": 1283,
    "कहते</w>": 1284,
    "जिसके</w>": 1285,
    "पोर्ट": 1286,
    "अमेरिका</w>": 1287,
    "द्वी": 1288,
    "र्स</w>": 1289,
    ")।</w>": 1290,
    "प्रणा": 1291,
    "ol": 1292,
    "इंटर": 1293,
    "er</w>": 1294,
    "अर": 1295,
    "सिद्धा": 1296,
    "तहसी": 1297,
    "पन</w>": 1298,
    "राजा</w>": 1299,
    "उत्पाद": 1300,
    "जुला": 1301,
    "कृष्": 1302,
    "१</w>": 1303,
    "इंड": 1304,
    "एक्": 1305,
    "त्या": 1306,
    "वेबसाइ": 1307,
    "(अंग्रे": 1308,
    "स्थापना</w>": 1309,
    "il": 1310,
    "10": 1311,
    "फ्र": 1312,
    "{\\": 1313,
    "एन": 1314,
    "॰</w>": 1315,
    "म,</w>": 1316,
    "समझ": 1317,
    "वज": 1318,
    "बड़े</w>": 1319,
    "स्थल</w>": 1320,
    "रुआ": 1321,
    "म्प": 1322,
    "मध्य</w>": 1323,
    "पृष्": 1324,
    "२०१": 1325,
    "पिता</w>": 1326,
    "बंध</w>": 1327,
    "धर्म</w>": 1328,
    "आ</w>": 1329,
    "्यों</w>": 1330,
    "उद्": 1331,
    "बता": 1332,
    "प्रथम</w>": 1333,
    "हर": 1334,
    "वर्तमान</w>": 1335,
    "भाव": 1336,
    "तै": 1337,
    "el": 1338,
    "पी</w>": 1339,
    "सौ": 1340,
    "सां": 1341,
    "विक</w>": 1342,
    "कभी</w>": 1343,
    "बल</w>": 1344,
    "बच्च": 1345,
    "माण": 1346,
    "तहसील</w>": 1347,
    "प्रार": 1348,
    "लाइ": 1349,
    "लक्ष": 1350,
    "बना</w>": 1351,
    "४</w>": 1352,
    "्यु": 1353,
    "अक्टू": 1354,
    "प्रसिद्ध</w>": 1355,
    "शुरुआ": 1356,
    "र्ट</w>": 1357,
    "ब्ल": 1358,
    "लब्": 1359,
    "मद": 1360,
    "अप्रै": 1361,
    "षि</w>": 1362,
    "देता</w>": 1363,
    "अन्तर्गत</w>": 1364,
    "अला": 1365,
    "वर्ण": 1366,
    "लने</w>": 1367,
    "थे,</w>": 1368,
    "यहां</w>": 1369,
    "करा": 1370,
    "प्रति</w>": 1371,
    "ारों</w>": 1372,
    "उदा": 1373,
    "मिक</w>": 1374,
    "पुन": 1375,
    "जग": 1376,
    "परिणा": 1377,
    "दिल्": 1378,
    "नेट</w>": 1379,
    "य,</w>": 1380,
    "सेवा</w>": 1381,
    "ंद्र</w>": 1382,
    "ता,</w>": 1383,
    "सेना</w>": 1384,
    "२</w>": 1385,
    "तृ": 1386,
    "ियर</w>": 1387,
    "वादी</w>": 1388,
    "ंत्र": 1389,
    "महत्वपूर्ण</w>": 1390,
    "कारों</w>": 1391,
    "अभ": 1392,
    "दू</w>": 1393,
    "जाल": 1394,
    "शब्द</w>": 1395,
    "घर</w>": 1396,
    "यता</w>": 1397,
    "टि</w>": 1398,
    "देशों</w>": 1399,
    "ध्या": 1400,
    "19</w>": 1401,
    "स्वी": 1402,
    "५</w>": 1403,
    "सामान्य</w>": 1404,
    "अमेरिकी</w>": 1405,
    "ल्ड</w>": 1406,
    "ई,</w>": 1407,
    "कित्": 1408,
    "मूल": 1409,
    "हिन्दी</w>": 1410,
    "स्तर</w>": 1411,
    "पुलिस</w>": 1412,
    "उपलब्": 1413,
    "रेल": 1414,
    "पोर्टल</w>": 1415,
    "कंपनी</w>": 1416,
    "om": 1417,
    "मेंट</w>": 1418,
    "चिकित्": 1419,
    "ना,</w>": 1420,
    "समूह</w>": 1421,
    "गा</w>": 1422,
    "गढ़</w>": 1423,
    "सामाजिक</w>": 1424,
    "मार्ग</w>": 1425,
    "पता</w>": 1426,
    "जारी</w>": 1427,
    "श्री": 1428,
    "दश": 1429,
    "आधार": 1430,
    "विस्त": 1431,
    "फी": 1432,
    "धी": 1433,
    "शरी": 1434,
    "प्रकाश": 1435,
    "बन्": 1436,
    "उसने</w>": 1437,
    "am": 1438,
    "भु": 1439,
    "इस्त": 1440,
    "ज़ा": 1441,
    "कृतिक</w>": 1442,
    "मंत्री</w>": 1443,
    "(अंग्रेज़ी": 1444,
    "di": 1445,
    "पाल</w>": 1446,
    "देने</w>": 1447,
    "मन्": 1448,
    "मार्च</w>": 1449,
    "पुस्त": 1450,
    "सुर": 1451,
    "६</w>": 1452,
    "ृत</w>": 1453,
    "दे</w>": 1454,
    "पौ": 1455,
    "साथ": 1456,
    "रही</w>": 1457,
    "कुमाऊ": 1458,
    "an</w>": 1459,
    "ंद</w>": 1460,
    "म्ब": 1461,
    "अध्ययन</w>": 1462,
    "अल्": 1463,
    "चा</w>": 1464,
    "खा</w>": 1465,
    "साहित्य</w>": 1466,
    "भाषा": 1467,
    "भूमिका</w>": 1468,
    "विशेष": 1469,
    "नामक</w>": 1470,
    "बड़ी</w>": 1471,
    "क्रा": 1472,
    "मॉ": 1473,
    "देव": 1474,
    "हरण</w>": 1475,
    "तम</w>": 1476,
    "iv": 1477,
    "जून</w>": 1478,
    "डियो</w>": 1479,
    "नर</w>": 1480,
    "माम": 1481,
    "माध्यम</w>": 1482,
    "ण,</w>": 1483,
    "चन</w>": 1484,
    "in</w>": 1485,
    "बिहार</w>": 1486,
    "बात</w>": 1487,
    "आधार</w>": 1488,
    "वेश</w>": 1489,
    "स्वतं": 1490,
    "====</w>": 1491,
    "किल": 1492,
    "निर्वा": 1493,
    "|</w>": 1494,
    "कम": 1495,
    "195": 1496,
    "महारा": 1497,
    "गी</w>": 1498,
    "कुमाऊँ</w>": 1499,
    "कोशि": 1500,
    "धी</w>": 1501,
    "क्रम": 1502,
    "मृत्य": 1503,
    "पानी</w>": 1504,
    "es</w>": 1505,
    "जिससे</w>": 1506,
    "जहां</w>": 1507,
    "प्रया": 1508,
    "थी,</w>": 1509,
    "गर्": 1510,
    "्रो": 1511,
    "ed</w>": 1512,
    "दों</w>": 1513,
    "In": 1514,
    "ग्राम</w>": 1515,
    "हरा": 1516,
    "हालांकि</w>": 1517,
    "प्रत्येक</w>": 1518,
    "न-": 1519,
    "बनाने</w>": 1520,
    "000</w>": 1521,
    "दूर</w>": 1522,
    "194": 1523,
    "le</w>": 1524,
    "उच्च</w>": 1525,
    "शासन</w>": 1526,
    "समी": 1527,
    "प्रभाव</w>": 1528,
    "चे</w>": 1529,
    "त्ता</w>": 1530,
    "ष्ठ</w>": 1531,
    "द्वि": 1532,
    "गल</w>": 1533,
    "i</w>": 1534,
    "वों</w>": 1535,
    "o</w>": 1536,
    "et": 1537,
    "पृ": 1538,
    "पहला</w>": 1539,
    "३</w>": 1540,
    "चित्र</w>": 1541,
    "पाकि": 1542,
    "स्कू": 1543,
    "आप": 1544,
    "अनेक</w>": 1545,
    "लेख</w>": 1546,
    "ियाई</w>": 1547,
    "महिला</w>": 1548,
    "डा</w>": 1549,
    "नित</w>": 1550,
    "द्धि</w>": 1551,
    "श्रृंखला</w>": 1552,
    "नियम</w>": 1553,
    "शास": 1554,
    "र्थ</w>": 1555,
    "सरी</w>": 1556,
    "कृषि</w>": 1557,
    "द्वीप</w>": 1558,
    "मैच</w>": 1559,
    "बर": 1560,
    "इस्ते": 1561,
    "विश्वविद्यालय</w>": 1562,
    "विभाग</w>": 1563,
    "भर</w>": 1564,
    "चुनाव</w>": 1565,
    "ल-": 1566,
    "आम</w>": 1567,
    "पश्चिम</w>": 1568,
    "ऑफ़</w>": 1569,
    "सदस्य</w>": 1570,
    "सन्</w>": 1571,
    "या।</w>": 1572,
    "दुनिया</w>": 1573,
    "ज्या": 1574,
    "इस्तेमाल</w>": 1575,
    "बड़ा</w>": 1576,
    "ऐसा</w>": 1577,
    "ing</w>": 1578,
    "वॉ": 1579,
    "शी</w>": 1580,
    "राम": 1581,
    "वृत्": 1582,
    "८</w>": 1583,
    "ou": 1584,
    "शुरुआत</w>": 1585,
    "-1": 1586,
    "घोष": 1587,
    "सकती</w>": 1588,
    "श्री</w>": 1589,
    "शं": 1590,
    "दृ": 1591,
    "वो": 1592,
    "तुल": 1593,
    "स्ट्रे": 1594,
    "फ़िल्म</w>": 1595,
    "गर": 1596,
    "चाह": 1597,
    "ज़िले</w>": 1598,
    "दर": 1599,
    "कानू": 1600,
    "मनो": 1601,
    "प्राचीन</w>": 1602,
    "दृष्": 1603,
    "वास्त": 1604,
    "दिल्ली</w>": 1605,
    "कला</w>": 1606,
    "शरीर</w>": 1607,
    "त्रा": 1608,
    "नाओं</w>": 1609,
    "अच्छ": 1610,
    "विस्तृत</w>": 1611,
    "पन्न</w>": 1612,
    "गोल</w>": 1613,
    "राज</w>": 1614,
    "आधारित</w>": 1615,
    "गा।</w>": 1616,
    ").</w>": 1617,
    "२००": 1618,
    "विभा": 1619,
    "ri": 1620,
    "राजनीतिक</w>": 1621,
    "मंड": 1622,
    "ग्रह</w>": 1623,
    "वर्ग</w>": 1624,
    "स्टेशन</w>": 1625,
    "सितं": 1626,
    "पुरु": 1627,
    "लाल</w>": 1628,
    "इस्": 1629,
    "किया,</w>": 1630,
    "गए।</w>": 1631,
    "पृष्ठ</w>": 1632,
    "हित</w>": 1633,
    "महि": 1634,
    "है.</w>": 1635,
    "प्रणाली</w>": 1636,
    "िये</w>": 1637,
    "वरण</w>": 1638,
    "थो": 1639,
    "लू": 1640,
    "हॉ": 1641,
    "ct": 1642,
    "जे</w>": 1643,
    "वर": 1644,
    "ऐसे</w>": 1645,
    "कवि": 1646,
    "विधान</w>": 1647,
    "जों</w>": 1648,
    "कल्": 1649,
    "धिक</w>": 1650,
    "चो": 1651,
    "]</w>": 1652,
    "नई</w>": 1653,
    "यूरो": 1654,
    "सूची</w>": 1655,
    "रचना</w>": 1656,
    "मृत्यु</w>": 1657,
    "७</w>": 1658,
    "उसका</w>": 1659,
    "}}": 1660,
    "नाटक</w>": 1661,
    "आत्": 1662,
    "खिलाफ</w>": 1663,
    "अभिने": 1664,
    "लंब": 1665,
    "तक": 1666,
    "आधु": 1667,
    "ष्ट्": 1668,
    "गां": 1669,
    "अर्थ</w>": 1670,
    "17": 1671,
    "निम्": 1672,
    "टिश</w>": 1673,
    "जिला</w>": 1674,
    "आर्": 1675,
    "ग्रे": 1676,
    "ष्ट्र</w>": 1677,
    "ir": 1678,
    "for": 1679,
    "पृथ": 1680,
    "क्षित</w>": 1681,
    "बनाया</w>": 1682,
    "रिया</w>": 1683,
    "प्रदर्शन</w>": 1684,
    "कल": 1685,
    "पार्टी</w>": 1686,
    "आय": 1687,
    "गढ़वाल</w>": 1688,
    "विकसित</w>": 1689,
    "कालीन</w>": 1690,
    "गई।</w>": 1691,
    "तार</w>": 1692,
    "वैज्ञा": 1693,
    "अथ": 1694,
    "00": 1695,
    "ज़िला</w>": 1696,
    "पूरी</w>": 1697,
    "लेक्": 1698,
    "व्": 1699,
    "जल</w>": 1700,
    "गं": 1701,
    "जुलाई</w>": 1702,
    "शक्ति</w>": 1703,
    "ियोज": 1704,
    "साय": 1705,
    "ारी": 1706,
    "वेबसाइट</w>": 1707,
    "तिम</w>": 1708,
    "चर्": 1709,
    "उदाहरण</w>": 1710,
    "द्यो": 1711,
    "करके</w>": 1712,
    "सितंबर</w>": 1713,
    "गया,</w>": 1714,
    "यदि</w>": 1715,
    "दुर्": 1716,
    "शता": 1717,
    "समान</w>": 1718,
    "फ्रा": 1719,
    "अधिका": 1720,
    "पार</w>": 1721,
    "Th": 1722,
    "संगठ": 1723,
    "से,</w>": 1724,
    "क्षेत्रों</w>": 1725,
    "करे": 1726,
    "पा</w>": 1727,
    "काफी</w>": 1728,
    "मत</w>": 1729,
    "बांग्": 1730,
    "ब्रिटिश</w>": 1731,
    "उपलब्ध</w>": 1732,
    "न)</w>": 1733,
    "नाइ": 1734,
    "आगे</w>": 1735,
    "मि</w>": 1736,
    "व्यवस्था</w>": 1737,
    "कि,</w>": 1738,
    "पक</w>": 1739,
    "पॉ": 1740,
    "लिए,</w>": 1741,
    "रखा</w>": 1742,
    "n</w>": 1743,
    "भग": 1744,
    "स्टा": 1745,
    "लिया।</w>": 1746,
    "शताब्": 1747,
    "डे</w>": 1748,
    "पर्य": 1749,
    "एश": 1750,
    "खेल</w>": 1751,
    "में": 1752,
    "हों</w>": 1753,
    "परिवर्त": 1754,
    "लोक</w>": 1755,
    "लोकप्र": 1756,
    "गति</w>": 1757,
    "फर": 1758,
    "माइ": 1759,
    "लं": 1760,
    "जित</w>": 1761,
    "भव</w>": 1762,
    "परियोज": 1763,
    "इसलिए</w>": 1764,
    "जर</w>": 1765,
    "भौ": 1766,
    "इससे</w>": 1767,
    "नियंत्र": 1768,
    "प्रकाशित</w>": 1769,
    "किलो": 1770,
    "जल": 1771,
    "इला": 1772,
    "हार्": 1773,
    "बल्": 1774,
    "em": 1775,
    "संबंधित</w>": 1776,
    "15": 1777,
    "जर्म": 1778,
    "नाथ</w>": 1779,
    "श्वर</w>": 1780,
    "की,</w>": 1781,
    "अतिरि": 1782,
    "यात</w>": 1783,
    "इंग्": 1784,
    "डिया</w>": 1785,
    "व्य</w>": 1786,
    "केन्": 1787,
    "स्पे": 1788,
    "व्यक्ति": 1789,
    "10</w>": 1790,
    "्यता</w>": 1791,
    "लिंग</w>": 1792,
    "उपा": 1793,
    "पाकिस्तान</w>": 1794,
    "दशक</w>": 1795,
    "स्वरूप</w>": 1796,
    "आधुनिक</w>": 1797,
    "महिला": 1798,
    "ध्यान</w>": 1799,
    "निर्देश": 1800,
    "तान</w>": 1801,
    "उम्": 1802,
    "राम</w>": 1803,
    "क्षेत्र": 1804,
    "र्ष</w>": 1805,
    "धा</w>": 1806,
    "जय</w>": 1807,
    "्राष्ट्र": 1808,
    "सरकारी</w>": 1809,
    "समाज</w>": 1810,
    "सों</w>": 1811,
    "सार्": 1812,
    "समर्थ": 1813,
    "जनवरी</w>": 1814,
    "यार</w>": 1815,
    "पदा": 1816,
    "टेड</w>": 1817,
    "बाहर</w>": 1818,
    "as": 1819,
    "ज़न</w>": 1820,
    "्राष्ट्रीय</w>": 1821,
    "on</w>": 1822,
    "गति": 1823,
    "गू": 1824,
    "अथवा</w>": 1825,
    "हू": 1826,
    "रल</w>": 1827,
    "जय": 1828,
    "बौ": 1829,
    "ंतर": 1830,
    "धारण</w>": 1831,
    "प्रबंध": 1832,
    "जहा": 1833,
    "तन</w>": 1834,
    "ंस": 1835,
    "आज</w>": 1836,
    "भिक</w>": 1837,
    "स्टर</w>": 1838,
    "लेकर</w>": 1839,
    "वाई</w>": 1840,
    "लाइन</w>": 1841,
    "मुख्य": 1842,
    "देते</w>": 1843,
    "विधि</w>": 1844,
    "टेली": 1845,
    "ल्स</w>": 1846,
    "’</w>": 1847,
    "चित्र": 1848,
    "अक्टूबर</w>": 1849,
    "I</w>": 1850,
    "ग्री</w>": 1851,
    "आम": 1852,
    "सांख": 1853,
    "केंद्र": 1854,
    "त्</w>": 1855,
    "ग्रं": 1856,
    "न्तु</w>": 1857,
    "विधान": 1858,
    "शीर्ष": 1859,
    "छोटे</w>": 1860,
    ",000</w>": 1861,
    "जाति</w>": 1862,
    "(</w>": 1863,
    "ज्य</w>": 1864,
    "रै": 1865,
    "ऑस्ट्रे": 1866,
    "इंटरनेट</w>": 1867,
    "भूमि</w>": 1868,
    "प्रतिनि": 1869,
    "अंतिम</w>": 1870,
    "्यि": 1871,
    "जूद</w>": 1872,
    "शताब्दी</w>": 1873,
    "चल</w>": 1874,
    "बार": 1875,
    "अप्रैल</w>": 1876,
    "जाए": 1877,
    "/</w>": 1878,
    "अधिकांश</w>": 1879,
    "पूर्व": 1880,
    "जालपृष्ठ</w>": 1881,
    "ी)</w>": 1882,
    "ओ</w>": 1883,
    "वाह</w>": 1884,
    "ॉन</w>": 1885,
    "अन्": 1886,
    "शिष्ट</w>": 1887,
    "अगस्त</w>": 1888,
    "अंत</w>": 1889,
    "क्रे": 1890,
    "वाद": 1891,
    "ag": 1892,
    "+</w>": 1893,
    "कं": 1894,
    "पद</w>": 1895,
    "तैयार</w>": 1896,
    "डब्ल": 1897,
    "अपरा": 1898,
    "देव</w>": 1899,
    "यात्रा</w>": 1900,
    "ट्रे": 1901,
    "एस</w>": 1902,
    "कुमार</w>": 1903,
    "पश्चिमी</w>": 1904,
    "ंश": 1905,
    "नए</w>": 1906,
    "वत</w>": 1907,
    "e)</w>": 1908,
    "पत्ति</w>": 1909,
    "लड़": 1910,
    "ग़": 1911,
    "टाइ": 1912,
    "ंकन</w>": 1913,
    "जिनमें</w>": 1914,
    "मई</w>": 1915,
    "भाई</w>": 1916,
    "टिंग</w>": 1917,
    "देखा</w>": 1918,
    "प्रारं": 1919,
    "स्वय": 1920,
    "पर्या": 1921,
    "ध्": 1922,
    "रहता</w>": 1923,
    "रूप": 1924,
    "टल</w>": 1925,
    "193": 1926,
    "क्षम": 1927,
    "पूरा</w>": 1928,
    "रंग": 1929,
    "वंश</w>": 1930,
    "अक्सर</w>": 1931,
    "मानव</w>": 1932,
    "निश्": 1933,
    "ट,</w>": 1934,
    "इनके</w>": 1935,
    "वार": 1936,
    "सांख्यि": 1937,
    "कीय</w>": 1938,
    "म्स</w>": 1939,
    "िली": 1940,
    "उद्देश": 1941,
    "बढ़ा": 1942,
    "अंतर्राष्ट्रीय</w>": 1943,
    "लब</w>": 1944,
    "सद</w>": 1945,
    "रत</w>": 1946,
    "कहानी</w>": 1947,
    "गयी</w>": 1948,
    "..": 1949,
    "गौ": 1950,
    "देशी</w>": 1951,
    "यि": 1952,
    "रात</w>": 1953,
    "विरो": 1954,
    "हा</w>": 1955,
    "थे": 1956,
    "नि</w>": 1957,
    "उत्पादन</w>": 1958,
    "अत्य": 1959,
    "दूसरी</w>": 1960,
    "अतिरिक्त</w>": 1961,
    "लौ": 1962,
    "पूर्वी</w>": 1963,
    "हिस्सा</w>": 1964,
    "बंद</w>": 1965,
    "भाग": 1966,
    "बांग्ला": 1967,
    "प्रामाण": 1968,
    "13": 1969,
    "फ्रे": 1970,
    "अधिकार</w>": 1971,
    "आई</w>": 1972,
    "C</w>": 1973,
    "pla": 1974,
    "इस्ला": 1975,
    "बा</w>": 1976,
    "संचा": 1977,
    "देवी</w>": 1978,
    "स्कूल</w>": 1979,
    "फु": 1980,
    "ent": 1981,
    "अंड": 1982,
    "वो</w>": 1983,
    "उत्पन्न</w>": 1984,
    "विधानसभा</w>": 1985,
    "पहचा": 1986,
    "णि": 1987,
    "दर्श</w>": 1988,
    "(अंग्रेज़ी)</w>": 1989,
    "yst": 1990,
    "एंड</w>": 1991,
    "उसी</w>": 1992,
    "परियोजना</w>": 1993,
    "प्रयास</w>": 1994,
    "ली,</w>": 1995,
    "दल</w>": 1996,
    "रो</w>": 1997,
    "उत्तरी</w>": 1998,
    "लिखित</w>": 1999,
    "शल</w>": 2000,
    "ता।</w>": 2001,
    "गय": 2002,
    "नियों</w>": 2003,
    "संबंध</w>": 2004,
    "आर्थ": 2005,
    "प्ले": 2006,
    "बू": 2007,
    "रहते</w>": 2008,
    "उद्यो": 2009,
    "शीर्षक</w>": 2010,
    "पृथ्": 2011,
    "हिंदी</w>": 2012,
    "वर्षों</w>": 2013,
    "म्म": 2014,
    "गांव</w>": 2015,
    "एल": 2016,
    "फ्री": 2017,
    "लते</w>": 2018,
    "वैज्ञानिक</w>": 2019,
    "आदि": 2020,
    "2)</w>": 2021,
    "टों</w>": 2022,
    "जिस</w>": 2023,
    "टै": 2024,
    "प्रामाणिक</w>": 2025,
    "कॉले": 2026,
    "रु</w>": 2027,
    "आदर्श</w>": 2028,
    "मानित</w>": 2029,
    "सीमा</w>": 2030,
    "गणना</w>": 2031,
    "जहाँ</w>": 2032,
    "होकर</w>": 2033,
    "म्बर</w>": 2034,
    "प्रक्रिया</w>": 2035,
    "ul": 2036,
    "जानकार": 2037,
    "शास्त्र</w>": 2038,
    "स्ति": 2039,
    "बह": 2040,
    "तत्": 2041,
    "फाइ": 2042,
    "न्स</w>": 2043,
    "मदद</w>": 2044,
    "क्रिया": 2045,
    "लोकप्रिय</w>": 2046,
    "मिला": 2047,
    "बिना</w>": 2048,
    "मति</w>": 2049,
    "ँचा": 2050,
    "बेस</w>": 2051,
    "साम्रा": 2052,
    "योजना</w>": 2053,
    "भूगोल</w>": 2054,
    "सत</w>": 2055,
    "हम</w>": 2056,
    "हुई।</w>": 2057,
    "निर्दे": 2058,
    "16": 2059,
    "un": 2060,
    "टेस्ट</w>": 2061,
    "पद": 2062,
    "ज्ञान</w>": 2063,
    "सेवा": 2064,
    "मुक्त</w>": 2065,
    "विचार</w>": 2066,
    "(200": 2067,
    "मर</w>": 2068,
    "कौ": 2069,
    "झा": 2070,
    "संघ</w>": 2071,
    "दिसं": 2072,
    "संस्करण</w>": 2073,
    "ऊपर</w>": 2074,
    "जीत</w>": 2075,
    "अलावा</w>": 2076,
    "श्रेष्ठ</w>": 2077,
    "न्य</w>": 2078,
    "तरी": 2079,
    "रेलवे</w>": 2080,
    "त-": 2081,
    "बहा": 2082,
    "नेट": 2083,
    "एच": 2084,
    "ऐसी</w>": 2085,
    "पट": 2086,
    "केंद्र</w>": 2087,
    "उपन्या": 2088,
    "कथा": 2089,
    "धर्म": 2090,
    "रहने</w>": 2091,
    "चू": 2092,
    "समस्": 2093,
    "ज़ी</w>": 2094,
    "किलोमीटर</w>": 2095,
    "रहे।</w>": 2096,
    "घु": 2097,
    "९</w>": 2098,
    "dis": 2099,
    "वेश": 2100,
    "जिन्हें</w>": 2101,
    "प्रस्तु": 2102,
    "ताल</w>": 2103,
    "लेने</w>": 2104,
    "ंबर</w>": 2105,
    "ंतु</w>": 2106,
    "ष्ण": 2107,
    "रण": 2108,
    "श्य</w>": 2109,
    "त्रता</w>": 2110,
    "थि": 2111,
    "डै": 2112,
    "पूरे</w>": 2113,
    "बादी</w>": 2114,
    "बंगा": 2115,
    "वु": 2116,
    "ist": 2117,
    "कांग": 2118,
    "मूर्": 2119,
    "न्याया": 2120,
    "वाप": 2121,
    "वाह": 2122,
    "सफल</w>": 2123,
    "सार्वज": 2124,
    "किये</w>": 2125,
    "संदर्भ</w>": 2126,
    "शादी</w>": 2127,
    "धित</w>": 2128,
    "कार्ड</w>": 2129,
    "स्थानीय</w>": 2130,
    "टर": 2131,
    "कोड</w>": 2132,
    "पि</w>": 2133,
    "us": 2134,
    "(उत्तराखण्ड</w>": 2135,
    "ट्रो": 2136,
    "पक्ष": 2137,
    "15</w>": 2138,
    "जिसने</w>": 2139,
    "विषय</w>": 2140,
    "आवश्यक</w>": 2141,
    "(S": 2142,
    "ई.</w>": 2143,
    "आने</w>": 2144,
    "शर्": 2145,
    "अर्थ": 2146,
    "जनसांख्यि": 2147,
    "ीक</w>": 2148,
    "थीं।</w>": 2149,
    "उर्": 2150,
    "रता</w>": 2151,
    "दूसरा</w>": 2152,
    "अका": 2153,
    "तिहासिक</w>": 2154,
    "जनसंख्या</w>": 2155,
    "चिकित्सा</w>": 2156,
    "जार</w>": 2157,
    "कॉर्ड</w>": 2158,
    "ट्रा": 2159,
    "नृ": 2160,
    "१८": 2161,
    "पढ़": 2162,
    "क्रो": 2163,
    "तियो": 2164,
    "ढा": 2165,
    "समि": 2166,
    "परे": 2167,
    "बनी</w>": 2168,
    "ग्रह": 2169,
    "गेम</w>": 2170,
    "तहत</w>": 2171,
    "आवश्यकता</w>": 2172,
    "बांग्लादेश</w>": 2173,
    "ph": 2174,
    "नेश": 2175,
    "लक</w>": 2176,
    "सहायता</w>": 2177,
    "इन्होंने</w>": 2178,
    "निर्वाचन</w>": 2179,
    "प्रभावित</w>": 2180,
    "मात्रा</w>": 2181,
    "योजित</w>": 2182,
    "सार्वजनिक</w>": 2183,
    "सान</w>": 2184,
    "कंप्यू": 2185,
    "विशिष्ट</w>": 2186,
    "प्रदर्श": 2187,
    "लोच": 2188,
    "डेटा": 2189,
    "त्या</w>": 2190,
    "k</w>": 2191,
    "द्वितीय</w>": 2192,
    "ic</w>": 2193,
    "मूवी</w>": 2194,
    "रंग</w>": 2195,
    "धानी</w>": 2196,
    "क्षमता</w>": 2197,
    "अस": 2198,
    "पीछ": 2199,
    "घोषणा</w>": 2200,
    "प्ला": 2201,
    "वाय": 2202,
    "त:</w>": 2203,
    "दमी</w>": 2204,
    "हाइ": 2205,
    "मैन</w>": 2206,
    "मीर</w>": 2207,
    "सिल</w>": 2208,
    "को,</w>": 2209,
    "सके": 2210,
    "आप</w>": 2211,
    "2008</w>": 2212,
    "बल": 2213,
    "तुलना</w>": 2214,
    "ई-": 2215,
    "रिक</w>": 2216,
    "लियों</w>": 2217,
    "खिलाड़ी</w>": 2218,
    "ंचा": 2219,
    "पुत्र</w>": 2220,
    "ंपर": 2221,
    "ठा</w>": 2222,
    "नीचे</w>": 2223,
    "गुज": 2224,
    "ध्र": 2225,
    "घटना</w>": 2226,
    "निवा": 2227,
    "ac": 2228,
    "जानकारी</w>": 2229,
    "—</w>": 2230,
    "at</w>": 2231,
    "सहित</w>": 2232,
    "चरण</w>": 2233,
    "इंग्लैंड</w>": 2234,
    "डर</w>": 2235,
    "चरि": 2236,
    "पाठ": 2237,
    "राजस्थान</w>": 2238,
    "उद्देश्य</w>": 2239,
    "दिखाई</w>": 2240,
    "अभी</w>": 2241,
    "कट</w>": 2242,
    "तना</w>": 2243,
    "गुण": 2244,
    "जगह</w>": 2245,
    "आबादी</w>": 2246,
    "त्ती": 2247,
    "तकनी": 2248,
    "गिर": 2249,
    "चर</w>": 2250,
    "परीक्षण</w>": 2251,
    "कलाकार</w>": 2252,
    "स्रो": 2253,
    "भाव</w>": 2254,
    "टीवी</w>": 2255,
    "A</w>": 2256,
    "बद्ध</w>": 2257,
    "याता": 2258,
    "एं": 2259,
    "रानी</w>": 2260,
    "_{": 2261,
    "रिय": 2262,
    "न्न": 2263,
    "दाय</w>": 2264,
    "माने</w>": 2265,
    "सांस्": 2266,
    "वें</w>": 2267,
    "ख्या": 2268,
    "क्या</w>": 2269,
    "है:</w>": 2270,
    "ज्ञ</w>": 2271,
    "सामने</w>": 2272,
    "ज,</w>": 2273,
    "दिसंबर</w>": 2274,
    "ऐतिहासिक</w>": 2275,
    "12": 2276,
    "पित</w>": 2277,
    "भगवान</w>": 2278,
    "हार": 2279,
    "प्रशि": 2280,
    "कृष्ण</w>": 2281,
    "रोग</w>": 2282,
    "आर्थिक</w>": 2283,
    "सीसी</w>": 2284,
    "डेटाबेस</w>": 2285,
    "ड्स</w>": 2286,
    "संस्कृति</w>": 2287,
    "लाह</w>": 2288,
    "होना</w>": 2289,
    "कथा</w>": 2290,
    "नियु": 2291,
    "राइ": 2292,
    "यातायात</w>": 2293,
    "प्रेर": 2294,
    "ig": 2295,
    "ब्रह्": 2296,
    "प्रबंधन</w>": 2297,
    "कर्ता</w>": 2298,
    "महिलाओं</w>": 2299,
    "परिणाम</w>": 2300,
    "००</w>": 2301,
    "ँच</w>": 2302,
    "14": 2303,
    "जिन्होंने</w>": 2304,
    "30</w>": 2305,
    "निर्मित</w>": 2306,
    "शो</w>": 2307,
    "जनसांख्यिकी</w>": 2308,
    "निश्चित</w>": 2309,
    "स्टी": 2310,
    "सम्बन्": 2311,
    "एड": 2312,
    "ad": 2313,
    "कन</w>": 2314,
    "व्यापार</w>": 2315,
    "सर्वश्रेष्ठ</w>": 2316,
    "शैली</w>": 2317,
    "yle</w>": 2318,
    "समर्थन</w>": 2319,
    "आस": 2320,
    "(B": 2321,
    "ation</w>": 2322,
    "स्टो": 2323,
    "संर": 2324,
    "राष्ट्रपति</w>": 2325,
    "साम्राज्य</w>": 2326,
    "आमतौर</w>": 2327,
    "अफ्री": 2328,
    "अनुसं": 2329,
    "जानकारी)</w>": 2330,
    "उत्तरा</w>": 2331,
    "displa": 2332,
    "त)</w>": 2333,
    "आन्": 2334,
    "स्वयं</w>": 2335,
    "-0": 2336,
    "मात्र</w>": 2337,
    "कां": 2338,
    "प्रती": 2339,
    "ला,</w>": 2340,
    "समाप्त</w>": 2341,
    "displayst": 2342,
    "displaystyle</w>": 2343,
    "por": 2344,
    "वर्णन</w>": 2345,
    "id": 2346,
    "तियाँ</w>": 2347,
    "भावना</w>": 2348,
    "विचार": 2349,
    "ज्यादा</w>": 2350,
    "ut": 2351,
    "प्रभा।</w>": 2352,
    "क्र</w>": 2353,
    "अंग्रेजी</w>": 2354,
    "पत्र</w>": 2355,
    "इनमें</w>": 2356,
    "The</w>": 2357,
    "कानून</w>": 2358,
    "र्मिक</w>": 2359,
    "पूर्ति</w>": 2360,
    "र्क</w>": 2361,
    "(C": 2362,
    "शिप</w>": 2363,
    "th</w>": 2364,
    "वृद्धि</w>": 2365,
    "पाया</w>": 2366,
    "एफ": 2367,
    "}</w>": 2368,
    "छत्ती": 2369,
    "सांस्कृतिक</w>": 2370,
    "(P": 2371,
    "प्रसार": 2372,
    "ताप": 2373,
    "धार्मिक</w>": 2374,
    "श्रेणी</w>": 2375,
    "रखने</w>": 2376,
    "रं": 2377,
    "x</w>": 2378,
    "ed": 2379,
    "स्पष्ट</w>": 2380,
    "पहा": 2381,
    "क्तियों</w>": 2382,
    "छत्तीस": 2383,
    "टिक</w>": 2384,
    "टर्": 2385,
    "कप</w>": 2386,
    "दूरी</w>": 2387,
    "गूगल</w>": 2388,
    "सम्मानित</w>": 2389,
    "11</w>": 2390,
    "हैं:</w>": 2391,
    "{\\displaystyle</w>": 2392,
    "दास</w>": 2393,
    "योजन</w>": 2394,
    "व,</w>": 2395,
    "आलोच": 2396,
    "प्रकाश</w>": 2397,
    "पान</w>": 2398,
    "आकार</w>": 2399,
    "12</w>": 2400,
    "राजधानी</w>": 2401,
    "1.": 2402,
    "नो</w>": 2403,
    "ट्टी</w>": 2404,
    "ंकि,</w>": 2405,
    "50</w>": 2406,
    "वरी": 2407,
    "संस्कृत</w>": 2408,
    "कार्यक्रम</w>": 2409,
    "विशा": 2410,
    "कांग्रे": 2411,
    "हम्म": 2412,
    "प्रारंभिक</w>": 2413,
    "सहायक</w>": 2414,
    "देती</w>": 2415,
    "फू": 2416,
    "हेतु</w>": 2417,
    "सुरक्षा</w>": 2418,
    "ट्रॉ": 2419,
    "त्त</w>": 2420,
    "s)</w>": 2421,
    "रहती</w>": 2422,
    "वीडियो</w>": 2423,
    "शास्त्र": 2424,
    "क्स": 2425,
    "र्ना": 2426,
    "2019</w>": 2427,
    "ot": 2428,
    "वस्तु": 2429,
    "शाली</w>": 2430,
    "im": 2431,
    "(A": 2432,
    "अनुसार": 2433,
    "पृथ्वी</w>": 2434,
    "मिलियन</w>": 2435,
    "प्री": 2436,
    "गू</w>": 2437,
    "अगर</w>": 2438,
    "प्रतियो": 2439,
    "प्राय": 2440,
    "बनाए</w>": 2441,
    "2007</w>": 2442,
    "मॉड": 2443,
    "खान</w>": 2444,
    "कॉलेज</w>": 2445,
    "गल": 2446,
    "3)</w>": 2447,
    "शरा": 2448,
    "फ़ा": 2449,
    "बेह": 2450,
    "टेलीवि": 2451,
    "नी,</w>": 2452,
    "सागर</w>": 2453,
    "चार्य</w>": 2454,
    "गिक</w>": 2455,
    "अवधि</w>": 2456,
    "लिखा</w>": 2457,
    "नाग": 2458,
    "रिली": 2459,
    "हालांकि,</w>": 2460,
    "h</w>": 2461,
    "ap": 2462,
    "ति,</w>": 2463,
    "॰ऍ": 2464,
    "नय</w>": 2465,
    "अर्था": 2466,
    "मर": 2467,
    "आता</w>": 2468,
    "मही": 2469,
    "निष्": 2470,
    "25</w>": 2471,
    "व्यापक</w>": 2472,
    "हम्मद</w>": 2473,
    "मिश्र": 2474,
    "प्रवेश</w>": 2475,
    "कठ": 2476,
    "भ्र": 2477,
    "1)</w>": 2478,
    "पुस्तक</w>": 2479,
    "ड्र": 2480,
    "ठी</w>": 2481,
    "ब्रे": 2482,
    "मिन": 2483,
    "दृश्य</w>": 2484,
    "ंति</w>": 2485,
    "विल</w>": 2486,
    "तीसर": 2487,
    "है;</w>": 2488,
    "अधिक": 2489,
    "संस्था": 2490,
    "मन": 2491,
    "कल्प": 2492,
    "ज़ो": 2493,
    "्यू</w>": 2494,
    "राष्ट्र</w>": 2495,
    "सें": 2496,
    "मध्य": 2497,
    "न्द</w>": 2498,
    "पर,</w>": 2499,
    "मश": 2500,
    "मारी</w>": 2501,
    "वेद": 2502,
    "मंडल</w>": 2503,
    "सत": 2504,
    "उद्योग</w>": 2505,
    "आयोजित</w>": 2506,
    "आते</w>": 2507,
    "मत": 2508,
    "करी": 2509,
    "दृष्टि</w>": 2510,
    "मनु": 2511,
    "सात</w>": 2512,
    "वहाँ</w>": 2513,
    "od": 2514,
    "बैंक</w>": 2515,
    "नेटवर्": 2516,
    "og": 2517,
    "चला": 2518,
    "ew": 2519,
    "पांच</w>": 2520,
    "सॉ": 2521,
    "थि</w>": 2522,
    "दिव": 2523,
    "पिछ": 2524,
    "चाहिए।</w>": 2525,
    "काओं</w>": 2526,
    "साहित्य": 2527,
    "कर्म": 2528,
    "पंजा": 2529,
    "ट्यू": 2530,
    "सल": 2531,
    "पश्चा": 2532,
    "व्यक्तिगत</w>": 2533,
    "ऊर्": 2534,
    "IS": 2535,
    "यल</w>": 2536,
    "सब</w>": 2537,
    "लू</w>": 2538,
    "कांग्रेस</w>": 2539,
    "परिष": 2540,
    "रह</w>": 2541,
    "पोर्ट</w>": 2542,
    "ड,</w>": 2543,
    "खुद</w>": 2544,
    "स्तार</w>": 2545,
    "फरवरी</w>": 2546,
    "ंत": 2547,
    "क्वा": 2548,
    "जनता</w>": 2549,
    "पर्यटन</w>": 2550,
    "पहचान</w>": 2551,
    "क्रमण</w>": 2552,
    "पुनर्": 2553,
    "प्राकृतिक</w>": 2554,
    "धारा</w>": 2555,
    "नाएँ</w>": 2556,
    "हाथ</w>": 2557,
    "विस्तार</w>": 2558,
    "ंदो": 2559,
    "त्त": 2560,
    "युग</w>": 2561,
    "नॉ": 2562,
    "बने</w>": 2563,
    "सदी</w>": 2564,
    "हे</w>": 2565,
    "हासिल</w>": 2566,
    "सड़": 2567,
    "मानचित्र</w>": 2568,
    "पुष्": 2569,
    "बताया</w>": 2570,
    "नेतृ": 2571,
    "क्लब</w>": 2572,
    "इलेक्": 2573,
    "आवा": 2574,
    "अनुसंधान</w>": 2575,
    "क्षक</w>": 2576,
    "ल्ट</w>": 2577,
    "नही": 2578,
    "ल)</w>": 2579,
    "यूनि": 2580,
    "कॉर्": 2581,
    "मौजूद</w>": 2582,
    "मिलता</w>": 2583,
    "ज्ञात</w>": 2584,
    "मरा": 2585,
    "चीनी</w>": 2586,
    "सम्मान</w>": 2587,
    "नात्मक</w>": 2588,
    "नियंत्रण</w>": 2589,
    "राज्य": 2590,
    "बच्चों</w>": 2591,
    "मीडिया</w>": 2592,
    "स्टि": 2593,
    "रन</w>": 2594,
    "वेद</w>": 2595,
    "रहा": 2596,
    "पात</w>": 2597,
    "कारा": 2598,
    "लेखक</w>": 2599,
    "स्वतंत्रता</w>": 2600,
    "सीज़न</w>": 2601,
    "मार</w>": 2602,
    "स्पर्": 2603,
    "बाल</w>": 2604,
    "फल</w>": 2605,
    "हिन्दू</w>": 2606,
    "अरब</w>": 2607,
    "बजा": 2608,
    "खरी": 2609,
    "नेता</w>": 2610,
    "ग्राह": 2611,
    "प्रतिनिधि": 2612,
    "13</w>": 2613,
    "नेतृत्व</w>": 2614,
    "a)</w>": 2615,
    "21</w>": 2616,
    "शह": 2617,
    "खंड</w>": 2618,
    "अनुमति</w>": 2619,
    "म्भ</w>": 2620,
    "विद्यु": 2621,
    "खोज</w>": 2622,
    "कार्या": 2623,
    "पुरुष</w>": 2624,
    "संगठन</w>": 2625,
    "प्रस्तुत</w>": 2626,
    "ंदन</w>": 2627,
    "op": 2628,
    "तू": 2629,
    "बचा": 2630,
    "न्द": 2631,
    "ृह": 2632,
    "पीछे</w>": 2633,
    "ियन": 2634,
    "सप्": 2635,
    "अनुसार,</w>": 2636,
    "पत्नी</w>": 2637,
    "अंतरराष्ट्रीय</w>": 2638,
    "शू": 2639,
    "तंत्र</w>": 2640,
    "2018</w>": 2641,
    "निका": 2642,
    "कश्": 2643,
    "मंग": 2644,
    "कमी</w>": 2645,
    "परिवर्तन</w>": 2646,
    "ने,</w>": 2647,
    "ये": 2648,
    "विद्": 2649,
    "धे</w>": 2650,
    "दारी</w>": 2651,
    "स्वतंत्र</w>": 2652,
    "um": 2653,
    "लगा</w>": 2654,
    "संस्थान</w>": 2655,
    "दिसम्": 2656,
    "वा,</w>": 2657,
    "इनका</w>": 2658,
    "फॉ": 2659,
    "14</w>": 2660,
    "टूर्ना": 2661,
    "उपयोग": 2662,
    "धारा": 2663,
    "नाम": 2664,
    "प्रौ": 2665,
    "ची</w>": 2666,
    "क्टर</w>": 2667,
    "पहुंच": 2668,
    "क-": 2669,
    "17</w>": 2670,
    "18</w>": 2671,
    "गम</w>": 2672,
    "दिशा</w>": 2673,
    "पत्रि": 2674,
    "मुख्या": 2675,
    "उल्लेख</w>": 2676,
    "उपनि": 2677,
    "24</w>": 2678,
    "गये</w>": 2679,
    "छोड़": 2680,
    "सेट</w>": 2681,
    "स्ना": 2682,
    "बाइ": 2683,
    "विय": 2684,
    "ow": 2685,
    "आरो": 2686,
    "आंदो": 2687,
    "कंप्यूटर</w>": 2688,
    "ang": 2689,
    "यॉर्": 2690,
    "स्वीकार</w>": 2691,
    "थों</w>": 2692,
    "रक्षा</w>": 2693,
    "अधिकारी</w>": 2694,
    "संसद</w>": 2695,
    "बाव": 2696,
    "व्यवहार</w>": 2697,
    "लगता</w>": 2698,
    "पार्ट": 2699,
    "(जन्म</w>": 2700,
    "लाभ</w>": 2701,
    "तने</w>": 2702,
    "सिटी</w>": 2703,
    "मुंब": 2704,
    "टूर्नामेंट</w>": 2705,
    "साध": 2706,
    "अधिकार": 2707,
    "लिका</w>": 2708,
    "ओल": 2709,
    "जीव": 2710,
    "पूर</w>": 2711,
    "सीय</w>": 2712,
    "आन": 2713,
    "जैसा</w>": 2714,
    "न्द्र</w>": 2715,
    "छोटी</w>": 2716,
    "सुधार</w>": 2717,
    "सिद्धांत</w>": 2718,
    "S</w>": 2719,
    "सूचना</w>": 2720,
    "निर्धार": 2721,
    "चला</w>": 2722,
    "ऑस्ट्रेलिया</w>": 2723,
    "मन्दिर</w>": 2724,
    "वां</w>": 2725,
    "साथ-": 2726,
    "दिए</w>": 2727,
    "एशिया</w>": 2728,
    "पैदा</w>": 2729,
    "शील</w>": 2730,
    "समुद्र": 2731,
    "उससे</w>": 2732,
    "प्रि": 2733,
    "झी": 2734,
    "प्या": 2735,
    "अभिनय</w>": 2736,
    "ab": 2737,
    "साद</w>": 2738,
    "प्प": 2739,
    "जैसी</w>": 2740,
    "2009</w>": 2741,
    "0-": 2742,
    "अनुवाद</w>": 2743,
    "टु": 2744,
    "आकर्": 2745,
    "द्योगि": 2746,
    "स्तु</w>": 2747,
    "परा": 2748,
    "Ch": 2749,
    "तियां</w>": 2750,
    "छि": 2751,
    "चल": 2752,
    "स्कॉ": 2753,
    "संके": 2754,
    "लीग</w>": 2755,
    "पाद</w>": 2756,
    "मुस्": 2757,
    "टॉ": 2758,
    "उम्र</w>": 2759,
    "पण</w>": 2760,
    "टेक्": 2761,
    "वर्ती</w>": 2762,
    "स्वास्थ": 2763,
    "फ़े": 2764,
    "भर": 2765,
    "ख्": 2766,
    "दरा": 2767,
    "कोण</w>": 2768,
    "16</w>": 2769,
    "मजब": 2770,
    "लागू</w>": 2771,
    "जिसकी</w>": 2772,
    "क्षम</w>": 2773,
    "लम</w>": 2774,
    "मजबू": 2775,
    "किंग</w>": 2776,
    "वजह</w>": 2777,
    "तुर्": 2778,
    "सित": 2779,
    "बल्कि</w>": 2780,
    "दै": 2781,
    "स्थ</w>": 2782,
    "सदस्यों</w>": 2783,
    "भीतर</w>": 2784,
    "St": 2785,
    "अध्यक्ष</w>": 2786,
    "ङ्": 2787,
    "वापस</w>": 2788,
    "चर": 2789,
    "क्षेप</w>": 2790,
    "मर्": 2791,
    "अधिनियम</w>": 2792,
    "ठीक</w>": 2793,
    "घंट": 2794,
    "यूरोप": 2795,
    "2.": 2796,
    "निम्न": 2797,
    "बिल": 2798,
    "पक्ष</w>": 2799,
    "वाइ": 2800,
    "स्वामी</w>": 2801,
    "नग": 2802,
    "प्रस्ता": 2803,
    "ताकि</w>": 2804,
    "नामा": 2805,
    "ंज</w>": 2806,
    "बदल</w>": 2807,
    "नृत्य</w>": 2808,
    "निभा": 2809,
    "दक्षिणी</w>": 2810,
    "एजे": 2811,
    "चय</w>": 2812,
    "ढ़</w>": 2813,
    "हरा</w>": 2814,
    "मामले</w>": 2815,
    "सामग्री</w>": 2816,
    "मामलों</w>": 2817,
    "अली</w>": 2818,
    "करो": 2819,
    "वस्तु</w>": 2820,
    "ग,</w>": 2821,
    "छोड़</w>": 2822,
    "ंडर</w>": 2823,
    "विवाह</w>": 2824,
    "मनुष": 2825,
    "मंत्र": 2826,
    "साथ-साथ</w>": 2827,
    "इका": 2828,
    "तट</w>": 2829,
    "समिति</w>": 2830,
    "ले,</w>": 2831,
    "मैन": 2832,
    "ज़र</w>": 2833,
    "दिसम्बर</w>": 2834,
    "यौ": 2835,
    "उपन्यास</w>": 2836,
    "दिनों</w>": 2837,
    "जनगणना</w>": 2838,
    "en</w>": 2839,
    "का,</w>": 2840,
    "मल्": 2841,
    "अकादमी</w>": 2842,
    "प्रतिनिधित्व</w>": 2843,
    "कर,</w>": 2844,
    "क्रिय</w>": 2845,
    "यत</w>": 2846,
    "टेन</w>": 2847,
    "ऊ</w>": 2848,
    "ग्री": 2849,
    "ci": 2850,
    "अपे": 2851,
    "उड़ा": 2852,
    "च,</w>": 2853,
    "पर।</w>": 2854,
    "ट्रै": 2855,
    "लो</w>": 2856,
    "शाह</w>": 2857,
    "तल</w>": 2858,
    "नेटवर्क</w>": 2859,
    "स्क</w>": 2860,
    "नेशनल</w>": 2861,
    "प्रौद्योगि": 2862,
    "क्शन</w>": 2863,
    "प्रदर्शित</w>": 2864,
    "कोशिश</w>": 2865,
    "est": 2866,
    "हत्या</w>": 2867,
    "छत्तीसगढ़</w>": 2868,
    "प्रतियोगि": 2869,
    "चार्": 2870,
    "भव": 2871,
    "कार,</w>": 2872,
    "जिम्": 2873,
    "वायु</w>": 2874,
    "एक्स": 2875,
    "द्य": 2876,
    "स्य</w>": 2877,
    "निर्धारित</w>": 2878,
    "हवाई</w>": 2879,
    "मूल्य</w>": 2880,
    "रिकॉर्ड</w>": 2881,
    "बरा": 2882,
    "इंडिया</w>": 2883,
    "लिन</w>": 2884,
    "बस</w>": 2885,
    "षित</w>": 2886,
    "2021</w>": 2887,
    "मुख्यालय</w>": 2888,
    "हाल</w>": 2889,
    "गो</w>": 2890,
    "फिल्मों</w>": 2891,
    "मैं</w>": 2892,
    "मुस्लि": 2893,
    "for</w>": 2894,
    "निया": 2895,
    "रखा": 2896,
    "हुए।</w>": 2897,
    "बच्चे</w>": 2898,
    "ियनशिप</w>": 2899,
    "ज़ि": 2900,
    "पाली</w>": 2901,
    "ter": 2902,
    "वास्तव</w>": 2903,
    "ट।</w>": 2904,
    "यॉर्क</w>": 2905,
    "रॉन</w>": 2906,
    "(M": 2907,
    "दिक</w>": 2908,
    "चरित्र</w>": 2909,
    "लड़ा": 2910,
    "स्रोत</w>": 2911,
    "गुरु</w>": 2912,
    "राज्यों</w>": 2913,
    "माता</w>": 2914,
    "100</w>": 2915,
    "अग्र": 2916,
    "मरी": 2917,
    "संभा": 2918,
    "आयु": 2919,
    "योगदान</w>": 2920,
    "दर्शा": 2921,
    "os": 2922,
    "चक्र": 2923,
    "ूम": 2924,
    "वृत्ति</w>": 2925,
    "2017</w>": 2926,
    "समाज": 2927,
    "बैठ": 2928,
    "ख़ा": 2929,
    "जहाज</w>": 2930,
    "समुदाय</w>": 2931,
    "दी।</w>": 2932,
    "अध्या": 2933,
    "(199": 2934,
    "जॉन</w>": 2935,
    "परिव": 2936,
    "ऊर्जा</w>": 2937,
    "कोल": 2938,
    "षों</w>": 2939,
    "मना": 2940,
    "पंचा": 2941,
    "डु</w>": 2942,
    "l</w>": 2943,
    "तथ": 2944,
    "Indi": 2945,
    "१९९": 2946,
    "साधारण</w>": 2947,
    "2006</w>": 2948,
    "औप": 2949,
    "नियुक्त</w>": 2950,
    "विश्वास</w>": 2951,
    "कमा": 2952,
    "बोर्ड</w>": 2953,
    "ग्रहण</w>": 2954,
    "ष्ट": 2955,
    "धान": 2956,
    "डॉलर</w>": 2957,
    "ion</w>": 2958,
    "Ar": 2959,
    "गैर-": 2960,
    "ंगा</w>": 2961,
    "चलता</w>": 2962,
    "महत्": 2963,
    "संपाद": 2964,
    "^{": 2965,
    "जनवरी": 2966,
    "नवंबर</w>": 2967,
    "राय</w>": 2968,
    "वार्": 2969,
    "प्रसाद</w>": 2970,
    "स्‍": 2971,
    "c</w>": 2972,
    "संग्रह</w>": 2973,
    "2020</w>": 2974,
    "विशाल</w>": 2975,
    "ंभ</w>": 2976,
    "ह,</w>": 2977,
    "केन्द्र": 2978,
    "हैदरा": 2979,
    "pro": 2980,
    "कार्यों</w>": 2981,
    "ंपिक</w>": 2982,
    "\",</w>": 2983,
    "फ़ि": 2984,
    "वीर</w>": 2985,
    "यिक</w>": 2986,
    "कड़ी</w>": 2987,
    "उद्ध": 2988,
    "फ़ो": 2989,
    "कद": 2990,
    "ारो": 2991,
    "क्त": 2992,
    "वास्तविक</w>": 2993,
    "यं": 2994,
    "प्ति</w>": 2995,
    "निम्नलिखित</w>": 2996,
    "धों</w>": 2997,
    "पड़ता</w>": 2998,
    "व्याव": 2999,
    "अंतर्गत</w>": 3000,
    "मुंबई</w>": 3001,
    "बंगाल</w>": 3002,
    "आइ": 3003,
    "सफलता</w>": 3004,
    "खू": 3005,
    "उठा": 3006,
    "लाख</w>": 3007,
    "किमी</w>": 3008,
    "उत्पाद</w>": 3009,
    "to</w>": 3010,
    "ताब</w>": 3011,
    "छह</w>": 3012,
    "सुविधा": 3013,
    "डब्ल्यू": 3014,
    "सक्षम</w>": 3015,
    "काउ": 3016,
    "4)</w>": 3017,
    "बच": 3018,
    "ना।</w>": 3019,
    "अभिया": 3020,
    "शेष</w>": 3021,
    "अभिनेता</w>": 3022,
    "डिजा": 3023,
    "and": 3024,
    "राव</w>": 3025,
    "ers": 3026,
    "e,</w>": 3027,
    "जोड़": 3028,
    "स्वास्थ्य</w>": 3029,
    "विधा</w>": 3030,
    "आर</w>": 3031,
    "ग्रन्": 3032,
    "यही</w>": 3033,
    "अल-": 3034,
    "ज़ा</w>": 3035,
    "जुड़": 3036,
    "विश्ले": 3037,
    "माँ</w>": 3038,
    "लैंड": 3039,
    "चले</w>": 3040,
    "ंडा</w>": 3041,
    "दिया,</w>": 3042,
    "उनमें</w>": 3043,
    "2011</w>": 3044,
    "23</w>": 3045,
    "सम्रा": 3046,
    "चों</w>": 3047,
    "li": 3048,
    "av": 3049,
    "शाही</w>": 3050,
    "साई</w>": 3051,
    "रेखा": 3052,
    "चारिक</w>": 3053,
    "गी।</w>": 3054,
    "बाई</w>": 3055,
    "हैं.</w>": 3056,
    "प्रतिश": 3057,
    "आपूर्ति</w>": 3058,
    "M</w>": 3059,
    "पुर्": 3060,
    "शु</w>": 3061,
    "पर्क</w>": 3062,
    "हो।</w>": 3063,
    "सर्वो": 3064,
    "जर्मन</w>": 3065,
    "कहीं</w>": 3066,
    "मान्यता</w>": 3067,
    "निजी</w>": 3068,
    "रक्त</w>": 3069,
    "युवा</w>": 3070,
    "1-": 3071,
    "फाइन": 3072,
    "सीरी": 3073,
    "तक,</w>": 3074,
    "पों</w>": 3075,
    "शिव</w>": 3076,
    "स)</w>": 3077,
    "विकि": 3078,
    "5)</w>": 3079,
    "शीर्ष</w>": 3080,
    "तन्": 3081,
    "विरोध</w>": 3082,
    "प्रशिक्षण</w>": 3083,
    "कम्प": 3084,
    "(E": 3085,
    "22</w>": 3086,
    "निर्ण": 3087,
    "तरफ</w>": 3088,
    "स्थानों</w>": 3089,
    "डन</w>": 3090,
    "विपरी": 3091,
    "सीमित</w>": 3092,
    "संरचना</w>": 3093,
    "१९८": 3094,
    "विधियों</w>": 3095,
    "न्यू</w>": 3096,
    "2012</w>": 3097,
    "ड़ियों</w>": 3098,
    "यूरोप</w>": 3099,
    "उल्लेख": 3100,
    "प्रशं": 3101,
    "शासक</w>": 3102,
    "पालन</w>": 3103,
    "भाषाओं</w>": 3104,
    "एम</w>": 3105,
    "स्को": 3106,
    "मॉडल</w>": 3107,
    "कहला": 3108,
    "विजय</w>": 3109,
    "सैन्य</w>": 3110,
    "6)</w>": 3111,
    "वें": 3112,
    "धु": 3113,
    "तमिल</w>": 3114,
    "पड़ा</w>": 3115,
    "राय": 3116,
    "वर्ण</w>": 3117,
    "अगले</w>": 3118,
    "सूत्र</w>": 3119,
    "कोड": 3120,
    "2016</w>": 3121,
    "गमन</w>": 3122,
    "कना": 3123,
    "पड़ा": 3124,
    "जवा": 3125,
    "अड्": 3126,
    "मुस्लिम</w>": 3127,
    "परिणाम": 3128,
    "तस्": 3129,
    "स्टार</w>": 3130,
    "प्रधान</w>": 3131,
    "आसपास</w>": 3132,
    "क्यू": 3133,
    "आंदोलन</w>": 3134,
    "प्राथ": 3135,
    "7)</w>": 3136,
    "नारा": 3137,
    "प्यार</w>": 3138,
    "अत्यधिक</w>": 3139,
    "रेल</w>": 3140,
    "एल</w>": 3141,
    "चाहिए": 3142,
    "art": 3143,
    "नें</w>": 3144,
    "रिया": 3145,
    "री,</w>": 3146,
    "शक्ति": 3147,
    "ारि": 3148,
    "ंगे।</w>": 3149,
    "लेखन</w>": 3150,
    "किन्तु</w>": 3151,
    "नया</w>": 3152,
    "रिंग</w>": 3153,
    "समर्": 3154,
    "तला": 3155,
    "इस्लाम</w>": 3156,
    "आयु</w>": 3157,
    "ढ</w>": 3158,
    "न।</w>": 3159,
    "जंग": 3160,
    "कश्मीर</w>": 3161,
    "काम": 3162,
    "fra": 3163,
    "कथ": 3164,
    "अलग": 3165,
    "सक्रिय</w>": 3166,
    "निम्न</w>": 3167,
    "पकड़": 3168,
    "अच्छी</w>": 3169,
    "मानक</w>": 3170,
    "न्यूयॉर्क</w>": 3171,
    "अंडर": 3172,
    "प्रजा": 3173,
    "जरू": 3174,
    "क)</w>": 3175,
    "विजे": 3176,
    "धो": 3177,
    "आत्म": 3178,
    "संग्र": 3179,
    "संचालित</w>": 3180,
    "अल</w>": 3181,
    "औसत</w>": 3182,
    "स्पति</w>": 3183,
    "बौद्ध</w>": 3184,
    "निर्देशक</w>": 3185,
    "नीति</w>": 3186,
    "सिर्": 3187,
    "मिला</w>": 3188,
    "यण</w>": 3189,
    "गुरु": 3190,
    "अनुशीर्षक</w>": 3191,
    "इनकी</w>": 3192,
    "जन्म": 3193,
    "कब्": 3194,
    "निकों</w>": 3195,
    "निर्देशि": 3196,
    "सिस</w>": 3197,
    "रस</w>": 3198,
    "लगाया</w>": 3199,
    "?</w>": 3200,
    "हिमा": 3201,
    "तरीके</w>": 3202,
    "यान</w>": 3203,
    "प्रेस</w>": 3204,
    "वहां</w>": 3205,
    "मोहन</w>": 3206,
    "‌</w>": 3207,
    "चक्र</w>": 3208,
    "प्रेम</w>": 3209,
    "प्रतिशत</w>": 3210,
    "दृष्टि": 3211,
    "वितर": 3212,
    "qu": 3213,
    "देखने</w>": 3214,
    "बृह": 3215,
    "दौरा": 3216,
    "खतर": 3217,
    "नक</w>": 3218,
    "१९७": 3219,
    "स्टॉ": 3220,
    "ड़ों</w>": 3221,
    "(201": 3222,
    "जिन</w>": 3223,
    "विभाजित</w>": 3224,
    "सल</w>": 3225,
    "या,</w>": 3226,
    "P</w>": 3227,
    "port</w>": 3228,
    "पाल": 3229,
    "मौत</w>": 3230,
    "ar</w>": 3231,
    "चि</w>": 3232,
    "ev": 3233,
    "दियों</w>": 3234,
    "न्द्र": 3235,
    "स्थायी</w>": 3236,
    "जुड़े</w>": 3237,
    "महान</w>": 3238,
    "संबंधी</w>": 3239,
    "सक</w>": 3240,
    "यूरोपीय</w>": 3241,
    "ub": 3242,
    "अक्टूब": 3243,
    "विदेशी</w>": 3244,
    "राव": 3245,
    "बजे</w>": 3246,
    "जल्": 3247,
    "मिलती</w>": 3248,
    "हिस्से</w>": 3249,
    "समाचार</w>": 3250,
    "संगी": 3251,
    "बाजार</w>": 3252,
    "लंदन</w>": 3253,
    "Air": 3254,
    "योग्य</w>": 3255,
    "किन": 3256,
    "क्ता</w>": 3257,
    "पहुँ": 3258,
    "स्टिक</w>": 3259,
    "(D": 3260,
    "डाय": 3261,
    "वित्": 3262,
    "लकर</w>": 3263,
    "फ्रांस</w>": 3264,
    "साथ,</w>": 3265,
    "झील</w>": 3266,
    "एल्": 3267,
    "लगातार</w>": 3268,
    "सर्वा": 3269,
    "खंड": 3270,
    "अपराध</w>": 3271,
    "2014</w>": 3272,
    "y)</w>": 3273,
    "बाद": 3274,
    "28</w>": 3275,
    "ंदर</w>": 3276,
    "साधन</w>": 3277,
    "कने</w>": 3278,
    "प्रशास": 3279,
    "ड्रा": 3280,
    "ov": 3281,
    "हाउस</w>": 3282,
    "करियर</w>": 3283,
    "महाराष्ट्र</w>": 3284,
    "लक्षण</w>": 3285,
    "(N": 3286,
    "लक्ष्य</w>": 3287,
    "is</w>": 3288,
    "आउ": 3289,
    "प्रौद्योगिकी</w>": 3290,
    "खर</w>": 3291,
    "रुप": 3292,
    "पाए</w>": 3293,
    "अलग-": 3294,
    "परन्तु</w>": 3295,
    "फा</w>": 3296,
    "प्रतिष्": 3297,
    "सिद्धान्त</w>": 3298,
    "190": 3299,
    "आयुर्": 3300,
    "संविधान</w>": 3301,
    "1,": 3302,
    "गांध": 3303,
    "पोर्": 3304,
    "ज्यो": 3305,
    "26</w>": 3306,
    "गन</w>": 3307,
    "लेता</w>": 3308,
    "हृ": 3309,
    "आतं": 3310,
    "F</w>": 3311,
    "ia</w>": 3312,
    "8)</w>": 3313,
    "आती</w>": 3314,
    "हुए,</w>": 3315,
    "जीव</w>": 3316,
    "गुणव": 3317,
    "पूजा</w>": 3318,
    "किर": 3319,
    "होगा।</w>": 3320,
    "40</w>": 3321,
    "र)</w>": 3322,
    "महीने</w>": 3323,
    "अफ्रीका</w>": 3324,
    "कन्": 3325,
    "बनने</w>": 3326,
    "ess": 3327,
    "हमर</w>": 3328,
    "एयर": 3329,
    "टेलीविजन</w>": 3330,
    "खन": 3331,
    "सामना</w>": 3332,
    "स्त्र": 3333,
    "परिषद</w>": 3334,
    "व्यक्तियों</w>": 3335,
    "पदार्थ</w>": 3336,
    "उल्लेखनीय</w>": 3337,
    "2010</w>": 3338,
    "जमी": 3339,
    "लाने</w>": 3340,
    "पुरी</w>": 3341,
    "ष्क</w>": 3342,
    "भवन</w>": 3343,
    "िले": 3344,
    "हैदराबाद</w>": 3345,
    "करणों</w>": 3346,
    "पेश": 3347,
    "or</w>": 3348,
    "साउ": 3349,
    "निधन</w>": 3350,
    "कपूर</w>": 3351,
    "अलग-अलग</w>": 3352,
    "अतः</w>": 3353,
    "!</w>": 3354,
    "ं)</w>": 3355,
    "नियमित</w>": 3356,
    "एफ</w>": 3357,
    "हालाँ": 3358,
    "भारी</w>": 3359,
    "रिलीज़</w>": 3360,
    "गठन</w>": 3361,
    "घटनाओं</w>": 3362,
    "समुद्र</w>": 3363,
    "है)</w>": 3364,
    "कवि</w>": 3365,
    "प्रधान": 3366,
    "द्रा": 3367,
    "फोन</w>": 3368,
    "सम</w>": 3369,
    "प्रच": 3370,
    "नवा": 3371,
    "27</w>": 3372,
    "eb": 3373,
    "आदेश</w>": 3374,
    "भुग": 3375,
    "ऑन": 3376,
    "अलावा,</w>": 3377,
    "विद्याल": 3378,
    "सियों</w>": 3379,
    "संपर्क</w>": 3380,
    "मुद्र": 3381,
    "सेंट</w>": 3382,
    "सही</w>": 3383,
    "मानते</w>": 3384,
    "रेखा</w>": 3385,
    "विवरण</w>": 3386,
    "शिय": 3387,
    "दबा": 3388,
    "प्रकाशन</w>": 3389,
    "नाडु</w>": 3390,
    "दूर": 3391,
    "पसं": 3392,
    "दौरान,</w>": 3393,
    "ओलंपिक</w>": 3394,
    "छोटा</w>": 3395,
    "दावा</w>": 3396,
    "भी-": 3397,
    "लक्ष्": 3398,
    "यूना": 3399,
    "शराब</w>": 3400,
    "गोल": 3401,
    "एंड": 3402,
    "षक</w>": 3403,
    "0)</w>": 3404,
    "संघर्ष</w>": 3405,
    "हो,</w>": 3406,
    "घरेल": 3407,
    "वर्ल्ड</w>": 3408,
    "टिन</w>": 3409,
    "म्</w>": 3410,
    "श्रीलं": 3411,
    "पुर,</w>": 3412,
    "छु": 3413,
    "शारी": 3414,
    "प्रान्त</w>": 3415,
    "फल": 3416,
    "नत</w>": 3417,
    "प्रतियोगिता</w>": 3418,
    "जांच</w>": 3419,
    "नागर": 3420,
    "ak": 3421,
    "इच्छ": 3422,
    "घंटे</w>": 3423,
    "(१": 3424,
    "फाइनल</w>": 3425,
    "\".</w>": 3426,
    "संकेत</w>": 3427,
    "डु": 3428,
    "थु": 3429,
    "फ्रां": 3430,
    "ों,</w>": 3431,
    "आँ": 3432,
    "दय</w>": 3433,
    "चुका</w>": 3434,
    "मंच</w>": 3435,
    "जॉर्": 3436,
    "प्रशासनिक</w>": 3437,
    "वंश": 3438,
    "यद</w>": 3439,
    "वित्तीय</w>": 3440,
    "चंद्र": 3441,
    "मू</w>": 3442,
    "ब्राह्": 3443,
    "भोजन</w>": 3444,
    "हमे": 3445,
    "2000</w>": 3446,
    "ण-": 3447,
    "शि</w>": 3448,
    "समुद्री</w>": 3449,
    "ंदु": 3450,
    "णिक</w>": 3451,
    "संचार</w>": 3452,
    "ical</w>": 3453,
    "निर्भर</w>": 3454,
    "वालों</w>": 3455,
    "25": 3456,
    "प्रकृति</w>": 3457,
    "(198": 3458,
    "NI": 3459,
    "ट)</w>": 3460,
    "राजनीति</w>": 3461,
    "ज्य": 3462,
    "चैम्प": 3463,
    "हार्डी</w>": 3464,
    "सत्ता</w>": 3465,
    "भविष": 3466,
    "कारक</w>": 3467,
    "फ़्र": 3468,
    "इसने</w>": 3469,
    "तिथि</w>": 3470,
    "सचि": 3471,
    "ंग,</w>": 3472,
    "निर्माता</w>": 3473,
    "प्रेरित</w>": 3474,
    "विधायक</w>": 3475,
    "अस्प": 3476,
    "con": 3477,
    "धियों</w>": 3478,
    "कभी-": 3479,
    "N</w>": 3480,
    "निर्देशिका</w>": 3481,
    "चुके</w>": 3482,
    "भीर</w>": 3483,
    "सड़क</w>": 3484,
    "समस्या": 3485,
    "ce</w>": 3486,
    "पुराने</w>": 3487,
    "पदक</w>": 3488,
    "मल": 3489,
    "घटनाएँ</w>": 3490,
    "निर्देशित</w>": 3491,
    "फ़र": 3492,
    "सिने": 3493,
    "लियम</w>": 3494,
    "पुनः</w>": 3495,
    "--</w>": 3496,
    "अनुभव</w>": 3497,
    "गुणवत्ता</w>": 3498,
    "द्रो": 3499,
    "डिग्री</w>": 3500,
    "निर्णय</w>": 3501,
    "लत</w>": 3502,
    "शृंखला</w>": 3503,
    "जापान</w>": 3504,
    "सिस्ट": 3505,
    "बे</w>": 3506,
    "frac</w>": 3507,
    "विष्ण": 3508,
    "काव्य</w>": 3509,
    "राजमार्ग</w>": 3510,
    "व्यवसा": 3511,
    "ट्ट": 3512,
    "सीमा": 3513,
    "नेवाले</w>": 3514,
    "केन्द्र</w>": 3515,
    "पिछले</w>": 3516,
    "एका": 3517,
    "ऑफि": 3518,
    "सुविधा</w>": 3519,
    "189": 3520,
    "टेकर</w>": 3521,
    "हिंदू</w>": 3522,
    "तें</w>": 3523,
    "आठ</w>": 3524,
    "अहम": 3525,
    "इरा": 3526,
    "2005</w>": 3527,
    "केंद्रीय</w>": 3528,
    "मण</w>": 3529,
    "गवर्": 3530,
    "वाता": 3531,
    "घरेलू</w>": 3532,
    "चैंप": 3533,
    "चैनल</w>": 3534,
    "दस</w>": 3535,
    "ता-": 3536,
    "पत": 3537,
    "द्य</w>": 3538,
    "अक्टूबर-": 3539,
    "O</w>": 3540,
    "धर्": 3541,
    "सला</w>": 3542,
    "मशीन</w>": 3543,
    "तनी</w>": 3544,
    "पात्र</w>": 3545,
    "विभाजन</w>": 3546,
    "कर्ताओं</w>": 3547,
    "न्यायालय</w>": 3548,
    "रहा।</w>": 3549,
    "डेहमर</w>": 3550,
    "अप्रैल-": 3551,
    "मां</w>": 3552,
    "टी-": 3553,
    "मिलकर</w>": 3554,
    "विजेता</w>": 3555,
    "ँ,</w>": 3556,
    "पीड़": 3557,
    "अवस्था</w>": 3558,
    "ब्लॉ": 3559,
    "हरे</w>": 3560,
    "लाव</w>": 3561,
    "सिए": 3562,
    "अभिनेत्री</w>": 3563,
    "अर</w>": 3564,
    "डम</w>": 3565,
    "करोड़</w>": 3566,
    "2013</w>": 3567,
    "त्तर</w>": 3568,
    "औद्यो": 3569,
    "डेवि": 3570,
    "दीन</w>": 3571,
    "ex": 3572,
    "एनरॉन</w>": 3573,
    "-मार्च</w>": 3574,
    "जुलाई-": 3575,
    "2004</w>": 3576,
    "शाखा</w>": 3577,
    "हल्": 3578,
    "बजाय</w>": 3579,
    "मक": 3580,
    "Un": 3581,
    "मुद्": 3582,
    "ंडे": 3583,
    "प्रश्": 3584,
    "ent</w>": 3585,
    "संग</w>": 3586,
    "मुहम्मद</w>": 3587,
    "जनवरी-मार्च</w>": 3588,
    "अप्रैल-जून</w>": 3589,
    "नवम्बर</w>": 3590,
    "जीवित</w>": 3591,
    "तत्व</w>": 3592,
    "पर्याप्त</w>": 3593,
    "करीब</w>": 3594,
    "समस्या</w>": 3595,
    "',</w>": 3596,
    "नेपाल</w>": 3597,
    "oo": 3598,
    "में)</w>": 3599,
    "भुगतान</w>": 3600,
    "बैक</w>": 3601,
    "बिट</w>": 3602,
    "जुलाई-सितंबर</w>": 3603,
    "नागरिक</w>": 3604,
    "पत्र": 3605,
    "जॉ": 3606,
    "ख्या</w>": 3607,
    "साँचा": 3608,
    "आयर": 3609,
    "रूस</w>": 3610,
    "संभव</w>": 3611,
    "उद्धरण</w>": 3612,
    "उत्तर": 3613,
    "ंपरिक</w>": 3614,
    "खेलों</w>": 3615,
    "दार": 3616,
    "इंजी": 3617,
    "साँचा:": 3618,
    "वायु": 3619,
    "Airport</w>": 3620,
    "शर्मा</w>": 3621,
    "कैसे</w>": 3622,
    "संरक्षण</w>": 3623,
    "रही": 3624,
    "अवसर</w>": 3625,
    "उड़ान</w>": 3626,
    "ग्रामी": 3627,
    "लिपि</w>": 3628,
    "शब्दों</w>": 3629,
    "अंडरटेकर</w>": 3630,
    "रचित</w>": 3631,
    "पारंपरिक</w>": 3632,
    "पूर्वक</w>": 3633,
    "सप्ता": 3634,
    "डिंग</w>": 3635,
    "बर्ट</w>": 3636,
    "लेते</w>": 3637,
    "उम्मी": 3638,
    "पद्": 3639,
    "2015</w>": 3640,
    "अपना": 3641,
    "सिर्फ</w>": 3642,
    "जं": 3643,
    "माण</w>": 3644,
    "अंतर</w>": 3645,
    "संशो": 3646,
    "वेयर</w>": 3647,
    "अच्छा</w>": 3648,
    "धीरे</w>": 3649,
    "ath": 3650,
    "ग्रंथ</w>": 3651,
    "60</w>": 3652,
    "मानव": 3653,
    "चर्च</w>": 3654,
    "सम्मे": 3655,
    "lin": 3656,
    "तथ्य</w>": 3657,
    "ब्रिटेन</w>": 3658,
    "नाइटेड</w>": 3659,
    "देना</w>": 3660,
    "बढ़</w>": 3661,
    "ध्रप्रदेश</w>": 3662,
    "ऑपरे": 3663,
    "परिचय</w>": 3664,
    "हमेशा</w>": 3665,
    "एपि": 3666,
    "ंसी</w>": 3667,
    "आन्ध्रप्रदेश</w>": 3668,
    "प्रीम": 3669,
    "वर्गी": 3670,
    "चाहिए</w>": 3671,
    "रियर</w>": 3672,
    "साह": 3673,
    "क्ला": 3674,
    "(H": 3675,
    "NIC</w>": 3676,
    "sh": 3677,
    "शारीरिक</w>": 3678,
    "आया</w>": 3679,
    "प्राथमिक</w>": 3680,
    "एन</w>": 3681,
    "वेबसाइट।</w>": 3682,
    "पद्ध": 3683,
    "सामान्य": 3684,
    "मानसिक</w>": 3685,
    "अंतरि": 3686,
    "व्यापार": 3687,
    "शोध</w>": 3688,
    "गुप्त</w>": 3689,
    "हमला</w>": 3690,
    "अंदर</w>": 3691,
    "लाया</w>": 3692,
    "कारात्मक</w>": 3693,
    "नामित</w>": 3694,
    "किंतु</w>": 3695,
    "स्थितियों</w>": 3696,
    "आं": 3697,
    "बंधित</w>": 3698,
    "निंग</w>": 3699,
    "निकट</w>": 3700,
    "शिव": 3701,
    "सम्राट</w>": 3702,
    "जैन</w>": 3703,
    "यम</w>": 3704,
    "मनुष्य</w>": 3705,
    "जनक</w>": 3706,
    "पत्रिका</w>": 3707,
    "प्रयुक्त</w>": 3708,
    "g</w>": 3709,
    "इयों</w>": 3710,
    "ध्व": 3711,
    "क्ट</w>": 3712,
    "ंगे</w>": 3713,
    "ंदा</w>": 3714,
    "अस्ति": 3715,
    "उसमें</w>": 3716,
    "साक्ष": 3717,
    "पंजाब</w>": 3718,
    "An": 3719,
    "लेजर</w>": 3720,
    "अधिकारियों</w>": 3721,
    "बेहतर</w>": 3722,
    "परंपर": 3723,
    "(W": 3724,
    "चाहते</w>": 3725,
    "टने</w>": 3726,
    ".)</w>": 3727,
    "वाणि": 3728,
    "उपचार</w>": 3729,
    "अट": 3730,
    "ध्रु": 3731,
    "{\\frac</w>": 3732,
    "क्ष्": 3733,
    "लिखी</w>": 3734,
    "ईसा</w>": 3735,
    "बॉल</w>": 3736,
    "श्व": 3737,
    "हस्ता": 3738,
    "विषयों</w>": 3739,
    "ep": 3740,
    "हुआ,</w>": 3741,
    "पंच": 3742,
    "उपकरण</w>": 3743,
    "as</w>": 3744,
    "अब्": 3745,
    "200</w>": 3746,
    "एकमात्र</w>": 3747,
    "दातर</w>": 3748,
    "चारों</w>": 3749,
    "पत्थ": 3750,
    "कभी-कभी</w>": 3751,
    "पेश</w>": 3752,
    "सूस</w>": 3753,
    "हथ": 3754,
    "स्ट्री": 3755,
    "परंपरा</w>": 3756,
    "मिली</w>": 3757,
    "१९६": 3758,
    "ट्रि": 3759,
    "सरा": 3760,
    "29</w>": 3761,
    "म्यू": 3762,
    "नायक</w>": 3763,
    "मधु": 3764,
    "ंज": 3765,
    "प,</w>": 3766,
    "कठि": 3767,
    "नम": 3768,
    "du": 3769,
    "औद्योगिक</w>": 3770,
    "बोली</w>": 3771,
    "औपचारिक</w>": 3772,
    "उपभो": 3773,
    "D</w>": 3774,
    "गुण</w>": 3775,
    "हेड": 3776,
    "9)</w>": 3777,
    "ran": 3778,
    "ाई</w>": 3779,
    "सुरक्षित</w>": 3780,
    "नैतिक</w>": 3781,
    "शंकर</w>": 3782,
    "ff": 3783,
    "सायिक</w>": 3784,
    "मुख्यमंत्री</w>": 3785,
    "यूनिवर्": 3786,
    "सेन</w>": 3787,
    "बू</w>": 3788,
    "तुम</w>": 3789,
    "जिनका</w>": 3790,
    "ख्यात</w>": 3791,
    "संस्थाप": 3792,
    "गढ</w>": 3793,
    "सके।</w>": 3794,
    "बाँ": 3795,
    "यू</w>": 3796,
    "करी</w>": 3797,
    "आचार्य</w>": 3798,
    "अभियान</w>": 3799,
    "म)</w>": 3800,
    "इत्या": 3801,
    "एकल</w>": 3802,
    "रखते</w>": 3803,
    "२०</w>": 3804,
    "लड़ाई</w>": 3805,
    "समर्पित</w>": 3806,
    "सुन": 3807,
    "जर्": 3808,
    "परंतु</w>": 3809,
    "पार्क</w>": 3810,
    "न\"</w>": 3811,
    "पशु": 3812,
    "शोक</w>": 3813,
    "ँ।</w>": 3814,
    "कल्पना</w>": 3815,
    "धर</w>": 3816,
    "चैम्पियनशिप</w>": 3817,
    "संख्या": 3818,
    "ईसाई</w>": 3819,
    "न्याय</w>": 3820,
    "कटि": 3821,
    "इमार": 3822,
    "परिणामस्वरूप</w>": 3823,
    "जर्मनी</w>": 3824,
    "सहयोग</w>": 3825,
    "सारे</w>": 3826,
    "खाने</w>": 3827,
    "रोध</w>": 3828,
    "नामांकन</w>": 3829,
    "3-": 3830,
    "विमान</w>": 3831,
    "इंजीनिय": 3832,
    "वेस्ट": 3833,
    "188": 3834,
    "ud": 3835,
    "कोर": 3836,
    "भागों</w>": 3837,
    "जिनके</w>": 3838,
    "a,</w>": 3839,
    "जोर</w>": 3840,
    "मानों</w>": 3841,
    "Arch": 3842,
    "eg": 3843,
    "रहे": 3844,
    "गतिविधियों</w>": 3845,
    "माउ": 3846,
    "वाहिक</w>": 3847,
    "उच्च": 3848,
    "गैस</w>": 3849,
    "वुड</w>": 3850,
    "जुन</w>": 3851,
    "टिव</w>": 3852,
    "णु</w>": 3853,
    "झु": 3854,
    "हरी</w>": 3855,
    "ए.</w>": 3856,
    "गृ": 3857,
    "यंत्र</w>": 3858,
    "गाय": 3859,
    "ऑनलाइन</w>": 3860,
    "बिज": 3861,
    "सूर्य</w>": 3862,
    "सॉफ्": 3863,
    "न्ना</w>": 3864,
    "काउं": 3865,
    "घोषित</w>": 3866,
    "स्थाना": 3867,
    "सर्वाधिक</w>": 3868,
    "जान</w>": 3869,
    "रिस</w>": 3870,
    "E</w>": 3871,
    "omp": 3872,
    "मांग</w>": 3873,
    "ग्रामीण</w>": 3874,
    "ियम</w>": 3875,
    "धिकार</w>": 3876,
    "ए-": 3877,
    "नक्": 3878,
    "डॉ॰</w>": 3879,
    "आईसीसी</w>": 3880,
    "नष्ट</w>": 3881,
    "वरों</w>": 3882,
    "डियम</w>": 3883,
    "प्रीमियर</w>": 3884,
    "चक</w>": 3885,
    "टिल</w>": 3886,
    "co": 3887,
    "ल्ल": 3888,
    "राशि</w>": 3889,
    "अंग्रेज़ी</w>": 3890,
    "ंगे": 3891,
    "सिक्": 3892,
    "समझौ": 3893,
    "१०": 3894,
    "िलों</w>": 3895,
    "बने": 3896,
    "टिप्प": 3897,
    "ेश</w>": 3898,
    "महत्व</w>": 3899,
    "2-": 3900,
    "॰बी": 3901,
    "झा</w>": 3902,
    "एलि": 3903,
    "त।</w>": 3904,
    "वहीं</w>": 3905,
    "गंभीर</w>": 3906,
    "वातावरण</w>": 3907,
    "समूहों</w>": 3908,
    "ढ़ी</w>": 3909,
    "मस्ति": 3910,
    "संक्षेप</w>": 3911,
    "पृष्ठ": 3912,
    "0.": 3913,
    "धारणा</w>": 3914,
    "स्ते</w>": 3915,
    "औष": 3916,
    "चुना</w>": 3917,
    "खी": 3918,
    "विवे": 3919,
    "'s</w>": 3920,
    "आरोप</w>": 3921,
    "मानी</w>": 3922,
    "भौतिक</w>": 3923,
    "क्रिके": 3924,
    "र्घ": 3925,
    "रूपा": 3926,
    "निवास</w>": 3927,
    "भाषित</w>": 3928,
    "इलेक्ट्रॉ": 3929,
    "दृष्टिकोण</w>": 3930,
    "जिम्मे": 3931,
    "क्लो": 3932,
    "म-": 3933,
    "मंत्रा": 3934,
    "डिजाइन</w>": 3935,
    "अंतरिक्ष</w>": 3936,
    "हरि": 3937,
    "ुदा</w>": 3938,
    "अना": 3939,
    "किया": 3940,
    "लगे</w>": 3941,
    "लती</w>": 3942,
    "टी,</w>": 3943,
    "दिवसीय</w>": 3944,
    "अस्तित्व</w>": 3945,
    "सोविय": 3946,
    "प्रतिक्रिया</w>": 3947,
    "ऑफिस</w>": 3948,
    "हमारे</w>": 3949,
    "डेटा</w>": 3950,
    "तत्व": 3951,
    "ंचर</w>": 3952,
    "मेल</w>": 3953,
    "मैदान</w>": 3954,
    "आक्रमण</w>": 3955,
    "लम्": 3956,
    "व्यक्त</w>": 3957,
    "किनारे</w>": 3958,
    "यद्य": 3959,
    "लाह": 3960,
    "str": 3961,
    "निदेश": 3962,
    "ऑस्ट्रेल": 3963,
    "केरल</w>": 3964,
    "[उद्धरण</w>": 3965,
    "रिपोर्ट</w>": 3966,
    "तीसरे</w>": 3967,
    "लगाने</w>": 3968,
    "बम</w>": 3969,
    "पाइ": 3970,
    "शिकार</w>": 3971,
    "त्कार</w>": 3972,
    "व्याख्या</w>": 3973,
    "प्रभाव": 3974,
    "पैरा": 3975,
    "शुल्": 3976,
    "बर्ग</w>": 3977,
    "डो</w>": 3978,
    "निवेश": 3979,
    "माइक्रो": 3980,
    "अफ": 3981,
    "पश्चात</w>": 3982,
    "प्रचार</w>": 3983,
    "न्व": 3984,
    "खों</w>": 3985,
    "आवश्यक": 3986,
    "गणि": 3987,
    "पीटर</w>": 3988,
    "भार</w>": 3989,
    "क़ा": 3990,
    "ग्राहक</w>": 3991,
    "दूध</w>": 3992,
    "तेजी</w>": 3993,
    "आयोजन</w>": 3994,
    "पाई</w>": 3995,
    "लोकसभा</w>": 3996,
    "पर्यावरण</w>": 3997,
    "नर": 3998,
    "बेटे</w>": 3999,
    "सर्वोच्च</w>": 4000,
    "लेखि": 4001,
    "तेल</w>": 4002,
    "ियो</w>": 4003,
    "वासी</w>": 4004,
    "मंदि": 4005,
    "पारी</w>": 4006,
    "गणराज्य</w>": 4007,
    "अनुमान</w>": 4008,
    "शिल्": 4009,
    "sp": 4010,
    "सिर</w>": 4011,
    "संग्रहा": 4012,
    "रखता</w>": 4013,
    "ew</w>": 4014,
    "॰ऍस": 4015,
    "न॰</w>": 4016,
    "पुष्टि</w>": 4017,
    "कोरिया</w>": 4018,
    "सौर</w>": 4019,
    "विश्लेषण</w>": 4020,
    "ज्यादातर</w>": 4021,
    "संस्कृ": 4022,
    "अंततः</w>": 4023,
    "ऊंचा": 4024,
    "विकल्": 4025,
    "सम्बन्ध</w>": 4026,
    "दिखाया</w>": 4027,
    "ity</w>": 4028,
    "॰ऍन॰</w>": 4029,
    "तमिल": 4030,
    "II": 4031,
    "गुजरात</w>": 4032,
    "नता</w>": 4033,
    "गुप्": 4034,
    "इतिहास": 4035,
    "तत्कालीन</w>": 4036,
    "अधीन</w>": 4037,
    "श्या": 4038,
    "विद्युत</w>": 4039,
    "क्षेत्रीय</w>": 4040,
    "संचालन</w>": 4041,
    "गा,</w>": 4042,
    "होगा</w>": 4043,
    "मैक": 4044,
    "ध्वन": 4045,
    "ट्रेन</w>": 4046,
    "आई॰ऍस": 4047,
    "आई॰ऍस॰बी": 4048,
    "आई॰ऍस॰बी॰ऍन॰</w>": 4049,
    "श्रीलंका</w>": 4050,
    "अनुकू": 4051,
    "डिजि": 4052,
    "फ़रवरी</w>": 4053,
    "राजवंश</w>": 4054,
    "प्रसारित</w>": 4055,
    "प्रस्ताव</w>": 4056,
    "आलोचना</w>": 4057,
    "में।</w>": 4058,
    "तल": 4059,
    "दिख": 4060,
    "शिक्षा": 4061,
    "ड्रो": 4062,
    "मील</w>": 4063,
    "जुड़ा</w>": 4064,
    "24": 4065,
    "बनाई</w>": 4066,
    "er)</w>": 4067,
    "फायर</w>": 4068,
    "−</w>": 4069,
    "गार</w>": 4070,
    "विद्वा": 4071,
    "स्क्र": 4072,
    "मुसल": 4073,
    "पे</w>": 4074,
    "गये।</w>": 4075,
    "नुक": 4076,
    "दिल</w>": 4077,
    "य-": 4078,
    "सितम्बर</w>": 4079,
    "विन</w>": 4080,
    "प्रकट</w>": 4081,
    "धारावाहिक</w>": 4082,
    "नियंत्रित</w>": 4083,
    "our": 4084,
    "पुर्त": 4085,
    "अशोक</w>": 4086,
    "कैं": 4087,
    "निर्देशन</w>": 4088,
    "ली।</w>": 4089,
    "क्षर</w>": 4090,
    "ंति": 4091,
    "नरे": 4092,
    "3.": 4093,
    "वती</w>": 4094,
    "डबल": 4095,
    "माल": 4096,
    "सीधे</w>": 4097,
    "संतु": 4098,
    "रोज़</w>": 4099,
    "मस</w>": 4100,
    "आपको</w>": 4101,
    "चुकी</w>": 4102,
    "पुरुषों</w>": 4103,
    "वली</w>": 4104,
    "रूसी</w>": 4105,
    "वर्णित</w>": 4106,
    "परिवहन</w>": 4107,
    "मिलने</w>": 4108,
    "एयर</w>": 4109,
    "ory</w>": 4110,
    "30": 4111,
    "संस्था</w>": 4112,
    "बिल्": 4113,
    "जातीय</w>": 4114,
    "एसो": 4115,
    "हैरी</w>": 4116,
    "डैविल</w>": 4117,
    "वेब</w>": 4118,
    "सम्मि": 4119,
    "विपरीत</w>": 4120,
    "मानता</w>": 4121,
    "वनडे</w>": 4122,
    "टक</w>": 4123,
    "पर्व": 4124,
    "ay": 4125,
    "शॉ": 4126,
    "मस्तिष्क</w>": 4127,
    "२०१४</w>": 4128,
    "शांत</w>": 4129,
    "कार्यालय</w>": 4130,
    "धर": 4131,
    "लेन": 4132,
    "मैरी": 4133,
    "डियो": 4134,
    "ज़े": 4135,
    "किंग": 4136,
    "2003</w>": 4137,
    "नगर": 4138,
    "॥</w>": 4139,
    "१९३": 4140,
    "स्वर्ण</w>": 4141,
    "सोवियत</w>": 4142,
    "देन</w>": 4143,
    "कविता</w>": 4144,
    "टो</w>": 4145,
    "संपत्ति</w>": 4146,
    "ते।</w>": 4147,
    "कैरियर</w>": 4148,
    "स्व</w>": 4149,
    "2001</w>": 4150,
    "ant": 4151,
    "हस्त": 4152,
    "तुर": 4153,
    "गांधी</w>": 4154,
    "वस्तुओं</w>": 4155,
    "संगीत": 4156,
    "तापमान</w>": 4157,
    "1}": 4158,
    "ताब": 4159,
    "पाँच</w>": 4160,
    "समे</w>": 4161,
    "प्रचलित</w>": 4162,
    "2002</w>": 4163,
    "सप्ताह</w>": 4164,
    "खी</w>": 4165,
    "शास्त्रीय</w>": 4166,
    "पाठ</w>": 4167,
    "याद": 4168,
    "बीसी</w>": 4169,
    "तारा": 4170,
    "बेटी</w>": 4171,
    "विज्ञापन</w>": 4172,
    "पब्": 4173,
    "कारण,</w>": 4174,
    "मेज": 4175,
    "ठाकु": 4176,
    "कप्": 4177,
    "कल्या": 4178,
    "राजा": 4179,
    "उन्होने</w>": 4180,
    "(T": 4181,
    "एकी": 4182,
    "p</w>": 4183,
    "1990</w>": 4184,
    "रेडियो</w>": 4185,
    "रा,</w>": 4186,
    "यद्यपि</w>": 4187,
    "क्रियाओं</w>": 4188,
    "ग्रन्थ</w>": 4189,
    "(अ": 4190,
    "सूक्ष्": 4191,
    "फ़्": 4192,
    "रासाय": 4193,
    "दबाव</w>": 4194,
    "मैनह": 4195,
    "बृहस्पति</w>": 4196,
    "छात्रों</w>": 4197,
    "मजबूत</w>": 4198,
    "ah": 4199,
    "प्रभावी</w>": 4200,
    "केंद्रित</w>": 4201,
    "प्रतीक</w>": 4202,
    "है-</w>": 4203,
    "विवाद</w>": 4204,
    "व्यावसायिक</w>": 4205,
    "मेह": 4206,
    "st</w>": 4207,
    "रचना": 4208,
    "स्वि": 4209,
    "ज्योति": 4210,
    "तेलु": 4211,
    "भट्": 4212,
    "हाई</w>": 4213,
    "शय</w>": 4214,
    "आरंभ</w>": 4215,
    "निकट": 4216,
    "बावजूद</w>": 4217,
    "(G": 4218,
    "वर्मा</w>": 4219,
    "न्</w>": 4220,
    "न्यायाधी": 4221,
    "2}": 4222,
    "चाहिए]</w>": 4223,
    "नपुर</w>": 4224,
    "प्रसारण</w>": 4225,
    "लंबे</w>": 4226,
    "पसंद</w>": 4227,
    "परिभाषित</w>": 4228,
    "ib": 4229,
    "ec": 4230,
    "पर्वत</w>": 4231,
    "क्सि": 4232,
    "बाल": 4233,
    "अर्थात्</w>": 4234,
    "डिजिटल</w>": 4235,
    "पंड": 4236,
    "ंदु</w>": 4237,
    "चेन्": 4238,
    "सानी</w>": 4239,
    "यूनाइटेड</w>": 4240,
    "जम्": 4241,
    "जीवन": 4242,
    "त्मा</w>": 4243,
    "सी,</w>": 4244,
    "द्वार</w>": 4245,
    "प्रधानमंत्री</w>": 4246,
    "वृत्त</w>": 4247,
    "पहुँच": 4248,
    "हान</w>": 4249,
    "नाय": 4250,
    "दर्ज</w>": 4251,
    "लागत</w>": 4252,
    "निर": 4253,
    "टू</w>": 4254,
    "सकों</w>": 4255,
    "मस्": 4256,
    "पाने</w>": 4257,
    "8-": 4258,
    "घु</w>": 4259,
    "मल</w>": 4260,
    "च्छे": 4261,
    "लिमि": 4262,
    "सूर": 4263,
    "छू": 4264,
    "समारो": 4265,
    "उनसे</w>": 4266,
    "चाहता</w>": 4267,
    "१९४": 4268,
    "(R": 4269,
    "गाने</w>": 4270,
    "बराबर</w>": 4271,
    "ताप</w>": 4272,
    "कुल": 4273,
    "अंक</w>": 4274,
    "ऊँ": 4275,
    "ईश्वर</w>": 4276,
    "अग्": 4277,
    "एपिसो": 4278,
    "वेंचर</w>": 4279,
    "W)</w>": 4280,
    "वं": 4281,
    "पल</w>": 4282,
    "करण": 4283,
    "मुख्यतः</w>": 4284,
    "पांड": 4285,
    "हल</w>": 4286,
    "चलने</w>": 4287,
    "्स</w>": 4288,
    "विष्णु</w>": 4289,
    "पुर्तगा": 4290,
    "घाटी</w>": 4291,
    "रत्": 4292,
    "लखन": 4293,
    "सेना": 4294,
    "त्म</w>": 4295,
    "भौगो": 4296,
    "रिश्": 4297,
    "करवा": 4298,
    "सूचित</w>": 4299,
    "प्रायः</w>": 4300,
    "कानूनी</w>": 4301,
    "जेल</w>": 4302,
    "फ़ी</w>": 4303,
    "तीसरा</w>": 4304,
    "50": 4305,
    "क्रमश": 4306,
    "टरी</w>": 4307,
    "रासायनिक</w>": 4308,
    "ध्य": 4309,
    "मय</w>": 4310,
    "कंपनियों</w>": 4311,
    "विरोधी</w>": 4312,
    "उत्पत्ति</w>": 4313,
    "by</w>": 4314,
    "प्रतिस्पर्": 4315,
    "झे</w>": 4316,
    "चिह्": 4317,
    "किशो": 4318,
    "26": 4319,
    "तर्क</w>": 4320,
    "न्याय": 4321,
    "देखते</w>": 4322,
    "दया": 4323,
    "क्रिप्": 4324,
    "उपस्थिति</w>": 4325,
    "मेजबा": 4326,
    "वही</w>": 4327,
    "मिनट</w>": 4328,
    "(अंग्रेज़ी:</w>": 4329,
    "अस्पताल</w>": 4330,
    "oc": 4331,
    "स्टू": 4332,
    "अच्छे</w>": 4333,
    "अम्": 4334,
    "तेज</w>": 4335,
    "सह-": 4336,
    "Archiv": 4337,
    "सिस्टम</w>": 4338,
    "राजनीति": 4339,
    "तीव": 4340,
    "लेट</w>": 4341,
    "(202": 4342,
    "सव</w>": 4343,
    "नम</w>": 4344,
    "हृदय</w>": 4345,
    "अल्प": 4346,
    "शुद्ध</w>": 4347,
    "आरम्भ</w>": 4348,
    "गयी।</w>": 4349,
    "ob": 4350,
    "ं.</w>": 4351,
    "अदा": 4352,
    "चली</w>": 4353,
    "ोस</w>": 4354,
    "इड</w>": 4355,
    "सम्मेलन</w>": 4356,
    "मुद्रा": 4357,
    "मार्शल</w>": 4358,
    "पाय": 4359,
    "दोष</w>": 4360,
    ":-</w>": 4361,
    "षी</w>": 4362,
    "L</w>": 4363,
    "डेबिट</w>": 4364,
    "विद्रो": 4365,
    "कर्म</w>": 4366,
    "जाय": 4367,
    "महाराज</w>": 4368,
    "ंपरा": 4369,
    "ect": 4370,
    "लघु</w>": 4371,
    "पूर्ण": 4372,
    "मिथ": 4373,
    "षा": 4374,
    "संत</w>": 4375,
    "ंतर</w>": 4376,
    "मैचों</w>": 4377,
    "एसोसिए": 4378,
    "क्य</w>": 4379,
    "वि</w>": 4380,
    "किरदार</w>": 4381,
    "कू</w>": 4382,
    "चौध": 4383,
    "तिया": 4384,
    "जनरल</w>": 4385,
    "क्रांति</w>": 4386,
    "विचारों</w>": 4387,
    "त्सा": 4388,
    "संग्रहालय</w>": 4389,
    "मिया</w>": 4390,
    "मण": 4391,
    "नारायण</w>": 4392,
    "वितरण</w>": 4393,
    "फैसला</w>": 4394,
    "बेल</w>": 4395,
    "विकेट</w>": 4396,
    "तारा</w>": 4397,
    "स्टन</w>": 4398,
    "पक्षी</w>": 4399,
    "डब्लू</w>": 4400,
    "ध्वनि</w>": 4401,
    "•</w>": 4402,
    "उंड</w>": 4403,
    "स्नातक</w>": 4404,
    "भौगोलिक</w>": 4405,
    "नुकसान</w>": 4406,
    "तन्त्र</w>": 4407,
    "पुराना</w>": 4408,
    "चर्चा</w>": 4409,
    "जाग": 4410,
    "ला।</w>": 4411,
    "आयरलैंड</w>": 4412,
    "बिन</w>": 4413,
    "मैरीलैंड</w>": 4414,
    "साइड</w>": 4415,
    "फ़्री": 4416,
    "बैं": 4417,
    "शहरों</w>": 4418,
    "ब्लै": 4419,
    "बिल</w>": 4420,
    "ंतरित</w>": 4421,
    "चिं": 4422,
    "कान</w>": 4423,
    "रसा": 4424,
    "31</w>": 4425,
    "दर्भ": 4426,
    "त.</w>": 4427,
    "मूर्ति</w>": 4428,
    "आंतर": 4429,
    "ती,</w>": 4430,
    "निग": 4431,
    "पदार्थ": 4432,
    "महल</w>": 4433,
    "बाजी</w>": 4434,
    "ताएं</w>": 4435,
    "वल": 4436,
    "हद</w>": 4437,
    "भेद</w>": 4438,
    "अंग</w>": 4439,
    "वोल्": 4440,
    "कम्": 4441,
    "इंजन</w>": 4442,
    "ens": 4443,
    "पैमाने</w>": 4444,
    "पेशे": 4445,
    "लीवुड</w>": 4446,
    "क्रू": 4447,
    "न्यूजी": 4448,
    "हरिया": 4449,
    "लिखे</w>": 4450,
    "आखि": 4451,
    "निकल</w>": 4452,
    "संभावना</w>": 4453,
    "pl": 4454,
    "पथ</w>": 4455,
    "हिक</w>": 4456,
    "oun": 4457,
    "500</w>": 4458,
    "अधिकतर</w>": 4459,
    "परिसर</w>": 4460,
    "इट": 4461,
    "कें</w>": 4462,
    "अनुया": 4463,
    "प्रांत</w>": 4464,
    "कीर्": 4465,
    "ट्वें": 4466,
    "ताल": 4467,
    "टबॉल</w>": 4468,
    "मिन</w>": 4469,
    "१०</w>": 4470,
    "ही,</w>": 4471,
    "टेल</w>": 4472,
    "दंड</w>": 4473,
    "विरा": 4474,
    "तार": 4475,
    "नियमों</w>": 4476,
    "महसूस</w>": 4477,
    "कव": 4478,
    "दन</w>": 4479,
    "गई": 4480,
    "दिया": 4481,
    "जानी</w>": 4482,
    "मग": 4483,
    "फोर्": 4484,
    "खेला</w>": 4485,
    "हज": 4486,
    "सेवाओं</w>": 4487,
    "पारि": 4488,
    "डेविड</w>": 4489,
    "निवेश</w>": 4490,
    "समीक्षा</w>": 4491,
    "रेशन</w>": 4492,
    "27": 4493,
    "परंपरा": 4494,
    "शुल्क</w>": 4495,
    "ial</w>": 4496,
    "दौरा</w>": 4497,
    "4-": 4498,
    "संस्थापक</w>": 4499,
    "शाह": 4500,
    "व्यवसाय</w>": 4501,
    "मां": 4502,
    "शक्तिशाली</w>": 4503,
    "ऊंचाई</w>": 4504,
    "अंतर्": 4505,
    "्यक</w>": 4506,
    "ish": 4507,
    "आंतरिक</w>": 4508,
    "चेन्नई</w>": 4509,
    "स\"</w>": 4510,
    "C)</w>": 4511,
    "मैनहटन</w>": 4512,
    "अज्ञात</w>": 4513,
    "सिया</w>": 4514,
    "अनुपात</w>": 4515,
    "बल्ले": 4516,
    "सम्मिलित</w>": 4517,
    "सैनिक</w>": 4518,
    "बां": 4519,
    "१९५": 4520,
    "बहन</w>": 4521,
    "ग्रस्त</w>": 4522,
    "चढ़": 4523,
    "पवि": 4524,
    "लैण्ड</w>": 4525,
    "नैनी": 4526,
    "णियों</w>": 4527,
    "S)</w>": 4528,
    "4.": 4529,
    "सैन</w>": 4530,
    "अर्जुन</w>": 4531,
    "एपिसोड</w>": 4532,
    "फर्": 4533,
    "ूप</w>": 4534,
    "युद्ध": 4535,
    "प्रां": 4536,
    "प्रयोग": 4537,
    "\"।</w>": 4538,
    "न्य": 4539,
    "ंडी</w>": 4540,
    "शों</w>": 4541,
    "पाठ्य": 4542,
    "नुसार</w>": 4543,
    "Archived</w>": 4544,
    "बिक्र": 4545,
    "हॉकी</w>": 4546,
    "आए</w>": 4547,
    "त्रियों</w>": 4548,
    "रुद्ध</w>": 4549,
    "कुर्": 4550,
    "):</w>": 4551,
    "स्टै": 4552,
    "दत्त</w>": 4553,
    "आतंक": 4554,
    "डबल्यू</w>": 4555,
    "शैक्ष": 4556,
    "पड़ा।</w>": 4557,
    "देख</w>": 4558,
    "जीता।</w>": 4559,
    "प्रशासन</w>": 4560,
    "s,</w>": 4561,
    "5.": 4562,
    "दी,</w>": 4563,
    "आय</w>": 4564,
    "रेट</w>": 4565,
    "उचित</w>": 4566,
    "वाल्": 4567,
    "द्धि": 4568,
    "स्त्र</w>": 4569,
    "कोलका": 4570,
    "एना": 4571,
    "वायर": 4572,
    "मित्र</w>": 4573,
    "बुद्धि</w>": 4574,
    "उपाधि</w>": 4575,
    "तकनीक</w>": 4576,
    "गंज</w>": 4577,
    "परीक्षा</w>": 4578,
    "एक-": 4579,
    "आग</w>": 4580,
    "मार्क</w>": 4581,
    "इल</w>": 4582,
    "भविष्य</w>": 4583,
    "wi": 4584,
    "1.</w>": 4585,
    "अधिकारों</w>": 4586,
    "विष्": 4587,
    "टरों</w>": 4588,
    "बीज</w>": 4589,
    "सुन्": 4590,
    "दीर्घ": 4591,
    "मेडि": 4592,
    "कलाकारों</w>": 4593,
    "शिला": 4594,
    "वर्ड</w>": 4595,
    "णी": 4596,
    "ट्री</w>": 4597,
    "मछ": 4598,
    "दोस्त</w>": 4599,
    "घन</w>": 4600,
    "विशेषता</w>": 4601,
    "प्रयो": 4602,
    "पद्धति</w>": 4603,
    "बिक्री</w>": 4604,
    "दस्ता": 4605,
    "मोबाइ": 4606,
    "मंत्रालय</w>": 4607,
    "रोमन</w>": 4608,
    "हर्": 4609,
    "असम</w>": 4610,
    "सिन्": 4611,
    "अर्थात</w>": 4612,
    "समझ</w>": 4613,
    "रोध": 4614,
    "मा,</w>": 4615,
    "उच्": 4616,
    "शान</w>": 4617,
    "ष्टा": 4618,
    "2.</w>": 4619,
    "ट्रो</w>": 4620,
    "y,</w>": 4621,
    "तारी": 4622,
    "लाई</w>": 4623,
    "कड": 4624,
    "तना": 4625,
    "नतम</w>": 4626,
    "ट-": 4627,
    "लंबी</w>": 4628,
    "प्रमाण</w>": 4629,
    "ers</w>": 4630,
    "समस्याओं</w>": 4631,
    "ब्यू": 4632,
    "अधिकतम</w>": 4633,
    "डोर</w>": 4634,
    "बीएम": 4635,
    "कैल": 4636,
    "मुरा": 4637,
    "श,</w>": 4638,
    "28": 4639,
    "ओं,</w>": 4640,
    "सुझा": 4641,
    "मानना</w>": 4642,
    "187": 4643,
    "de</w>": 4644,
    "परमाण": 4645,
    "अभिगमन</w>": 4646,
    "रेखांश</w>": 4647,
    "आयुर्वेद</w>": 4648,
    "रोगी</w>": 4649,
    "शायद</w>": 4650,
    "2022</w>": 4651,
    "क्रमों</w>": 4652,
    "बस": 4653,
    "बहादु": 4654,
    "ज़ार</w>": 4655,
    "शुरू": 4656,
    "वैश्": 4657,
    "माता-": 4658,
    "साथी</w>": 4659,
    "संहि": 4660,
    "वेबैक</w>": 4661,
    "इलाज</w>": 4662,
    "बिंदु</w>": 4663,
    "साक्षा": 4664,
    "निदेशक</w>": 4665,
    "ज़्": 4666,
    "क्लि": 4667,
    "रखा।</w>": 4668,
    "मिला।</w>": 4669,
    "ंतरण</w>": 4670,
    "अपेक्षा": 4671,
    "तुर्की</w>": 4672,
    "चुने</w>": 4673,
    "प्राप्ति</w>": 4674,
    "A)</w>": 4675,
    "मिलते</w>": 4676,
    "गाह</w>": 4677,
    "ंत्रिक</w>": 4678,
    "नैनीताल</w>": 4679,
    "अमरी": 4680,
    "97": 4681,
    "णन</w>": 4682,
    "सिंह": 4683,
    "कनाडा</w>": 4684,
    "u</w>": 4685,
    "es)</w>": 4686,
    "विवि": 4687,
    "्यान</w>": 4688,
    "बाल्": 4689,
    "गोल्ड</w>": 4690,
    "Py": 4691,
    "काव्य": 4692,
    "गए,</w>": 4693,
    "दर्शकों</w>": 4694,
    "Sh": 4695,
    "सलाह</w>": 4696,
    "जोखि": 4697,
    "होटल</w>": 4698,
    "मोहम्मद</w>": 4699,
    "भूत</w>": 4700,
    "बनाता</w>": 4701,
    "और": 4702,
    "तय</w>": 4703,
    "कर्नाटक</w>": 4704,
    "घि": 4705,
    "एन्": 4706,
    "आका": 4707,
    "1980</w>": 4708,
    "war": 4709,
    "(BM": 4710,
    "लेस</w>": 4711,
    "स्टेडियम</w>": 4712,
    "गंगा</w>": 4713,
    "प्राव": 4714,
    "ऊंच": 4715,
    "घाट</w>": 4716,
    "निवासी</w>": 4717,
    "सारी</w>": 4718,
    "किल</w>": 4719,
    "श्रम</w>": 4720,
    "ियता</w>": 4721,
    "ंडा": 4722,
    "सभ": 4723,
    "जाए</w>": 4724,
    "आयोग</w>": 4725,
    "मौसम</w>": 4726,
    "कॉन": 4727,
    "सैम": 4728,
    "याद</w>": 4729,
    "चौधरी</w>": 4730,
    "चन्द्र": 4731,
    "लग</w>": 4732,
    "रोकने</w>": 4733,
    "ट्रैक</w>": 4734,
    "अर्थव्यवस्था</w>": 4735,
    "ढंग</w>": 4736,
    "खिक</w>": 4737,
    "इतना</w>": 4738,
    "शांति</w>": 4739,
    "ear": 4740,
    "मिट्टी</w>": 4741,
    "संप्र": 4742,
    "कड़े</w>": 4743,
    "मती</w>": 4744,
    "१५": 4745,
    "पंचायत</w>": 4746,
    "...</w>": 4747,
    "क्रिकेटर</w>": 4748,
    "साब": 4749,
    "नन्द</w>": 4750,
    "हारी</w>": 4751,
    "किंगडम</w>": 4752,
    "न्यूजीलैंड</w>": 4753,
    "काब": 4754,
    "देवता</w>": 4755,
    "सीरीज</w>": 4756,
    "किस्": 4757,
    "पत्थर</w>": 4758,
    "न:</w>": 4759,
    "जॉर्ज</w>": 4760,
    "नाई</w>": 4761,
    "T</w>": 4762,
    "टी20": 4763,
    "लाय": 4764,
    "चुनौ": 4765,
    "शाब्": 4766,
    "सौं": 4767,
    "गिरफ्": 4768,
    "एक्स</w>": 4769,
    "सामू": 4770,
    "शौ": 4771,
    "\")</w>": 4772,
    "समे": 4773,
    "देह</w>": 4774,
    "यूनानी</w>": 4775,
    "कुं": 4776,
    "यहू": 4777,
    "नाथ": 4778,
    "एशियाई</w>": 4779,
    "el</w>": 4780,
    "तट": 4781,
    "बाज</w>": 4782,
    "रियल</w>": 4783,
    "बोल्ट</w>": 4784,
    "स्मार": 4785,
    "बढ़ावा</w>": 4786,
    "हमें</w>": 4787,
    "कियों</w>": 4788,
    "जोड़ा</w>": 4789,
    "तीसरी</w>": 4790,
    "V</w>": 4791,
    "क्व": 4792,
    "उपयुक्त</w>": 4793,
    "अभ्या": 4794,
    "कट": 4795,
    "मोबाइल</w>": 4796,
    "वाओं</w>": 4797,
    "नरी</w>": 4798,
    "ग्राहकों</w>": 4799,
    "वार्ष": 4800,
    "मतलब</w>": 4801,
    "हमले</w>": 4802,
    "घे": 4803,
    "भक्त</w>": 4804,
    "तुरंत</w>": 4805,
    "मुद्रा</w>": 4806,
    "दाता</w>": 4807,
    "तीनों</w>": 4808,
    "2,</w>": 4809,
    "किस</w>": 4810,
    "मशी": 4811,
    "फ्रांसीसी</w>": 4812,
    "थाइ": 4813,
    "सीजन</w>": 4814,
    "सैमसंग</w>": 4815,
    "आकर्षित</w>": 4816,
    "(L": 4817,
    "फीट</w>": 4818,
    "निकाल": 4819,
    "6-": 4820,
    "विस्": 4821,
    "man": 4822,
    "डाइ": 4823,
    "हवा</w>": 4824,
    "माला</w>": 4825,
    "अत्यंत</w>": 4826,
    "सन": 4827,
    "उदय</w>": 4828,
    "पुरालेखि": 4829,
    "स्थिर</w>": 4830,
    "लेन</w>": 4831,
    "मिर्": 4832,
    "मुझे</w>": 4833,
    "बीएमडब्लू</w>": 4834,
    "विख्यात</w>": 4835,
    "उपनिवेश": 4836,
    "द-": 4837,
    "घूम": 4838,
    "बढ़ाने</w>": 4839,
    "धीरे": 4840,
    "ती।</w>": 4841,
    "शिका": 4842,
    "सुल": 4843,
    "दायि": 4844,
    "लें</w>": 4845,
    "En": 4846,
    "ive</w>": 4847,
    "बने।</w>": 4848,
    "आत्मा</w>": 4849,
    "च्छेद</w>": 4850,
    "१७": 4851,
    "प्राइ": 4852,
    "लीय</w>": 4853,
    "वार्षिक</w>": 4854,
    "गार्": 4855,
    "ताएँ</w>": 4856,
    "थीं</w>": 4857,
    "शर": 4858,
    "7-": 4859,
    "तुम्": 4860,
    "समीक्षा": 4861,
    "टवेयर</w>": 4862,
    "दार्": 4863,
    "प्रशंसा</w>": 4864,
    "विविध</w>": 4865,
    "स्पै": 4866,
    "फोर्ड</w>": 4867,
    "मादा</w>": 4868,
    "त्र,</w>": 4869,
    "5-": 4870,
    "इंडियन</w>": 4871,
    "छात्र</w>": 4872,
    "पोस्ट</w>": 4873,
    "फर</w>": 4874,
    "शाब्दिक</w>": 4875,
    "नज": 4876,
    "हनु": 4877,
    "प्रोत्सा": 4878,
    "जापानी</w>": 4879,
    "ड़ी": 4880,
    "माता-पिता</w>": 4881,
    "शाला</w>": 4882,
    "पादन</w>": 4883,
    "सुनिश्चित</w>": 4884,
    "प्रतिनिधि</w>": 4885,
    "भक्ति</w>": 4886,
    "रूपों</w>": 4887,
    "ब,</w>": 4888,
    "90</w>": 4889,
    "करा</w>": 4890,
    "रसायन</w>": 4891,
    "पूं": 4892,
    "न्ट</w>": 4893,
    "माँ": 4894,
    "नियन</w>": 4895,
    "pr": 4896,
    "ft": 4897,
    "रोग": 4898,
    "वक</w>": 4899,
    "क़</w>": 4900,
    "निहित</w>": 4901,
    "ग्रु": 4902,
    "चूंकि</w>": 4903,
    "वर्षीय</w>": 4904,
    "तात्": 4905,
    "अनिवा": 4906,
    "मेला</w>": 4907,
    "पेशेवर</w>": 4908,
    "विश्वविद्याल": 4909,
    "गेंद": 4910,
    "मिशन</w>": 4911,
    "वर्धन</w>": 4912,
    "rit": 4913,
    "जरूरत</w>": 4914,
    "फाय": 4915,
    "कारणों</w>": 4916,
    "चित्रण</w>": 4917,
    "नार": 4918,
    "कड़ों</w>": 4919,
    "(F": 4920,
    "ज़र": 4921,
    "दस्तावे": 4922,
    "आध्या": 4923,
    "कृष्ट</w>": 4924,
    "लेखा": 4925,
    "व्हिस्": 4926,
    "(BMW)</w>": 4927,
    "लिमिटेड</w>": 4928,
    "वाणी</w>": 4929,
    "ग्लो": 4930,
    "जुड़वां</w>": 4931,
    "विद्या</w>": 4932,
    "प्रमाण": 4933,
    "नेस</w>": 4934,
    "कड़</w>": 4935,
    "जी,</w>": 4936,
    "षि": 4937,
    "बनाम</w>": 4938,
    "पवित्र</w>": 4939,
    "तकनीकी</w>": 4940,
    "1970</w>": 4941,
    "इकाई</w>": 4942,
    "कोलकाता</w>": 4943,
    "स-": 4944,
    "वेस्ट</w>": 4945,
    "परमाणु</w>": 4946,
    "उल्लाह</w>": 4947,
    "रॉय</w>": 4948,
    "भारती": 4949,
    "उपकरणों</w>": 4950,
    "सिंग</w>": 4951,
    "रक्त": 4952,
    "सास</w>": 4953,
    "लेना</w>": 4954,
    "गणित</w>": 4955,
    "रख</w>": 4956,
    "नियर</w>": 4957,
    "संक्षि": 4958,
    "स्ता</w>": 4959,
    "की.</w>": 4960,
    "वाना</w>": 4961,
    "जलवायु</w>": 4962,
    "शुक्": 4963,
    "आश्": 4964,
    "ऊँचा": 4965,
    "ational</w>": 4966,
    "पहुंचा": 4967,
    "सिन</w>": 4968,
    "फार": 4969,
    "एनि": 4970,
    "ूर्": 4971,
    "स्पार्ट": 4972,
    "ियों,</w>": 4973,
    "शुरुआती</w>": 4974,
    "बुनिया": 4975,
    "स्वामि": 4976,
    "बाज": 4977,
    "स्तन": 4978,
    "पांच": 4979,
    "राजस्व</w>": 4980,
    "igh": 4981,
    "तत्वों</w>": 4982,
    "सिय": 4983,
    "केश</w>": 4984,
    "न्यास</w>": 4985,
    "कुमारी</w>": 4986,
    "ख़</w>": 4987,
    "समारोह</w>": 4988,
    "खर्": 4989,
    "विलियम</w>": 4990,
    "देकर</w>": 4991,
    "लियन</w>": 4992,
    "दौर</w>": 4993,
    "नाक</w>": 4994,
    "मनोरं": 4995,
    "संभव": 4996,
    "पहले,</w>": 4997,
    "लिया,</w>": 4998,
    "end": 4999
  },
  "id_to_token": {
    "0": "<PAD>",
    "1": "<UNK>",
    "2": "<BOS>",
    "3": "<EOS>",
    "4": "</w>",
    "5": "ा",
    "6": "र",
    "7": "क",
    "8": "्",
    "9": "े",
    "10": "ि",
    "11": "न",
    "12": "स",
    "13": "त",
    "14": "ं",
    "15": "ी",
    "16": "म",
    "17": "ह",
    "18": "य",
    "19": "ल",
    "20": "प",
    "21": "ो",
    "22": "व",
    "23": "द",
    "24": "ज",
    "25": "ग",
    "26": "ब",
    "27": "ै",
    "28": "ु",
    "29": "=",
    "30": "ट",
    "31": "।",
    "32": "श",
    "33": ",",
    "34": "अ",
    "35": "ए",
    "36": "ड",
    "37": "भ",
    "38": "थ",
    "39": "ू",
    "40": "च",
    "41": "ध",
    "42": "उ",
    "43": "इ",
    "44": "ष",
    "45": "ण",
    "46": "ख",
    "47": "़",
    "48": "औ",
    "49": "आ",
    "50": "फ",
    "51": "1",
    "52": "0",
    "53": ")",
    "54": "(",
    "55": "-",
    "56": "ई",
    "57": "a",
    "58": "e",
    "59": "2",
    "60": "i",
    "61": "n",
    "62": "r",
    "63": "o",
    "64": "t",
    "65": ".",
    "66": "ृ",
    "67": "ॉ",
    "68": "9",
    "69": "ँ",
    "70": "s",
    "71": "ौ",
    "72": "l",
    "73": "छ",
    "74": "ओ",
    "75": "\"",
    "76": "घ",
    "77": "8",
    "78": "5",
    "79": "ठ",
    "80": "d",
    "81": ":",
    "82": "3",
    "83": "c",
    "84": "h",
    "85": "4",
    "86": "7",
    "87": "6",
    "88": "u",
    "89": "१",
    "90": "m",
    "91": "ढ",
    "92": "०",
    "93": "p",
    "94": "'",
    "95": "y",
    "96": "g",
    "97": "ञ",
    "98": "S",
    "99": "ऑ",
    "100": "२",
    "101": "f",
    "102": "A",
    "103": "I",
    "104": "C",
    "105": "झ",
    "106": "९",
    "107": "ऐ",
    "108": "ऊ",
    "109": "b",
    "110": "P",
    "111": "ः",
    "112": "M",
    "113": "v",
    "114": "T",
    "115": ";",
    "116": "k",
    "117": "}",
    "118": "{",
    "119": "B",
    "120": "w",
    "121": "N",
    "122": "D",
    "123": "३",
    "124": "८",
    "125": "E",
    "126": "५",
    "127": "॰",
    "128": "\\",
    "129": "४",
    "130": "/",
    "131": "R",
    "132": "६",
    "133": "–",
    "134": "W",
    "135": "‍",
    "136": "७",
    "137": "F",
    "138": "L",
    "139": "H",
    "140": "O",
    "141": "G",
    "142": "x",
    "143": "%",
    "144": "V",
    "145": "|",
    "146": "]",
    "147": "U",
    "148": "K",
    "149": "[",
    "150": "+",
    "151": "’",
    "152": "‘",
    "153": "J",
    "154": "Y",
    "155": "z",
    "156": "_",
    "157": "—",
    "158": "ॅ",
    "159": "ऍ",
    "160": "ऋ",
    "161": "j",
    "162": "ङ",
    "163": "?",
    "164": "‌",
    "165": "X",
    "166": "ا",
    "167": "q",
    "168": "!",
    "169": "^",
    "170": "Q",
    "171": "$",
    "172": "॥",
    "173": "Z",
    "174": "°",
    "175": "−",
    "176": "​",
    "177": "•",
    "178": "ل",
    "179": "&",
    "180": "ن",
    "181": "ā",
    "182": "م",
    "183": "ر",
    "184": "*",
    "185": "ی",
    "186": "و",
    "187": "ॆ",
    "188": "”",
    "189": "“",
    "190": "₹",
    "191": "é",
    "192": "ळ",
    "193": "‎",
    "194": "د",
    "195": "ب",
    "196": "া",
    "197": "س",
    "198": "ہ",
    "199": "ː",
    "200": "⁡",
    "201": "ˈ",
    "202": "а",
    "203": "φ",
    "204": "े</w>",
    "205": "ा</w>",
    "206": "ी</w>",
    "207": "र</w>",
    "208": "ं</w>",
    "209": "के</w>",
    "210": "्र",
    "211": "।</w>",
    "212": "मे",
    "213": "है",
    "214": "न</w>",
    "215": "र्",
    "216": "क</w>",
    "217": ",</w>",
    "218": "में</w>",
    "219": "त</w>",
    "220": "स्",
    "221": "िय",
    "222": "्य",
    "223": "==",
    "224": "ो</w>",
    "225": "की</w>",
    "226": "ने</w>",
    "227": "ार",
    "228": "प्र",
    "229": "से</w>",
    "230": "ों</w>",
    "231": "ल</w>",
    "232": "का</w>",
    "233": "और</w>",
    "234": "क्",
    "235": "वि",
    "236": "स</w>",
    "237": "ता</w>",
    "238": "==</w>",
    "239": "रा",
    "240": "मा",
    "241": "ि</w>",
    "242": "न्",
    "243": "का",
    "244": "है।</w>",
    "245": "त्",
    "246": "म</w>",
    "247": "वा",
    "248": "को</w>",
    "249": "सा",
    "250": "य</w>",
    "251": "लि",
    "252": "ह</w>",
    "253": "जा",
    "254": "एक</w>",
    "255": "सं",
    "256": "ना",
    "257": "कर",
    "258": ")</w>",
    "259": "नि",
    "260": "ए</w>",
    "261": "िया</w>",
    "262": "ण</w>",
    "263": "बा",
    "264": "ला",
    "265": "ित</w>",
    "266": "ग</w>",
    "267": "हा",
    "268": "द्",
    "269": "ट</w>",
    "270": "हो",
    "271": "दे",
    "272": "ना</w>",
    "273": "द</w>",
    "274": "ड़",
    "275": "क्ष",
    "276": "िक</w>",
    "277": "्य</w>",
    "278": "व</w>",
    "279": "पर</w>",
    "280": "या</w>",
    "281": "था",
    "282": "िल",
    "283": "ई</w>",
    "284": "पा",
    "285": "प</w>",
    "286": "है</w>",
    "287": "भी</w>",
    "288": "हैं",
    "289": "ड</w>",
    "290": "ता",
    "291": "िया",
    "292": "ते</w>",
    "293": "रू",
    "294": "लिए</w>",
    "295": "सम",
    "296": "भा",
    "297": "रि",
    "298": "हु",
    "299": "कि",
    "300": "ती</w>",
    "301": "ले",
    "302": "कि</w>",
    "303": "ति",
    "304": "या",
    "305": "ति</w>",
    "306": "श</w>",
    "307": "नी</w>",
    "308": "जि",
    "309": "ष्",
    "310": "कर</w>",
    "311": "हैं।</w>",
    "312": "ीय</w>",
    "313": "राज",
    "314": "त्र",
    "315": "री</w>",
    "316": "पु",
    "317": "सि",
    "318": "20",
    "319": "अन",
    "320": "्या",
    "321": ".</w>",
    "322": "ज़",
    "323": "शा",
    "324": "ंग",
    "325": "अप",
    "326": "थ</w>",
    "327": "मु",
    "328": "यह</w>",
    "329": "कार",
    "330": "ली</w>",
    "331": "किया</w>",
    "332": "मि",
    "333": "=</w>",
    "334": "कार</w>",
    "335": "दा",
    "336": "ल्",
    "337": "रूप</w>",
    "338": "चा",
    "339": "ें</w>",
    "340": "भार",
    "341": "वर्",
    "342": "इस",
    "343": "ले</w>",
    "344": "था</w>",
    "345": "को",
    "346": "उत्",
    "347": "19",
    "348": "पू",
    "349": "क्र",
    "350": "श्",
    "351": "कु",
    "352": "ँ</w>",
    "353": "हि",
    "354": "===</w>",
    "355": "गा",
    "356": "के",
    "357": "ब</w>",
    "358": "त्र</w>",
    "359": "इस</w>",
    "360": "दि",
    "361": "ही",
    "362": "ही</w>",
    "363": "म्",
    "364": "ट्र",
    "365": "है,</w>",
    "366": "ज</w>",
    "367": "अध",
    "368": "ला</w>",
    "369": "द्व",
    "370": "ारा</w>",
    "371": "च</w>",
    "372": "यो",
    "373": "ने",
    "374": "जो</w>",
    "375": "वे",
    "376": "से",
    "377": "लो",
    "378": "ध</w>",
    "379": "धा",
    "380": "सी",
    "381": "ग्र",
    "382": "सी</w>",
    "383": "दी</w>",
    "384": "दर्",
    "385": "ियों</w>",
    "386": "-</w>",
    "387": "प्",
    "388": "करने</w>",
    "389": "जाता</w>",
    "390": "रो",
    "391": ":</w>",
    "392": "ण्",
    "393": "उप",
    "394": "गया</w>",
    "395": "ु</w>",
    "396": "था।</w>",
    "397": "स्त",
    "398": "सर",
    "399": "शि",
    "400": "उत्त",
    "401": "स्थ",
    "402": "उन्",
    "403": "स्ट",
    "404": "उन",
    "405": "द्वारा</w>",
    "406": "ओं</w>",
    "407": "0</w>",
    "408": "जी",
    "409": "प्रा",
    "410": "सु",
    "411": "स्था",
    "412": "पर",
    "413": "साथ</w>",
    "414": "अनु",
    "415": "हीं</w>",
    "416": "ब्",
    "417": "निर्",
    "418": "ंड",
    "419": "कृ",
    "420": "रह",
    "421": "फ़",
    "422": "ी।</w>",
    "423": "पूर्",
    "424": "िल्",
    "425": "रे",
    "426": "तर",
    "427": "ंग</w>",
    "428": "मान",
    "429": "भारत</w>",
    "430": "चि",
    "431": "पह",
    "432": "हो</w>",
    "433": "ं,</w>",
    "434": "नी",
    "435": "हें</w>",
    "436": "नहीं</w>",
    "437": "e</w>",
    "438": "परि",
    "439": "दू",
    "440": "जिस",
    "441": "े।</w>",
    "442": "बी",
    "443": "ज्",
    "444": "बाद</w>",
    "445": "ष</w>",
    "446": "मी",
    "447": "नों</w>",
    "448": "देश</w>",
    "449": "भ</w>",
    "450": "तक</w>",
    "451": "अं",
    "452": "यु",
    "453": "अपने</w>",
    "454": "हैं</w>",
    "455": "उस",
    "456": "श्र",
    "457": "सक",
    "458": "व्य",
    "459": "मुख",
    "460": "कार्",
    "461": "ीन</w>",
    "462": "ढ़",
    "463": "वह</w>",
    "464": "क्षे",
    "465": "बि",
    "466": "खा",
    "467": "टे",
    "468": "शन</w>",
    "469": "िया।</w>",
    "470": "तथा</w>",
    "471": "\"</w>",
    "472": "तीय</w>",
    "473": "मै",
    "474": "हों",
    "475": "राज्य</w>",
    "476": "बे",
    "477": "वी",
    "478": "ज्ञ",
    "479": "सन्",
    "480": "an",
    "481": "होंने</w>",
    "482": "री",
    "483": "गु",
    "484": "सू",
    "485": "टि",
    "486": "बं",
    "487": "जा</w>",
    "488": "देख",
    "489": "च्",
    "490": "जन",
    "491": "1</w>",
    "492": "मो",
    "493": "्यू",
    "494": "मू",
    "495": "ण्ड</w>",
    "496": "गो",
    "497": "कड़",
    "498": "शु",
    "499": "ियाँ</w>",
    "500": "भि",
    "501": "ंड</w>",
    "502": "वा</w>",
    "503": "्रा",
    "504": "वे</w>",
    "505": "ट्",
    "506": "क्त</w>",
    "507": "ली",
    "508": "टी",
    "509": "200",
    "510": "जै",
    "511": "रु",
    "512": "होता</w>",
    "513": "er",
    "514": "टी</w>",
    "515": "मी</w>",
    "516": "in",
    "517": "on",
    "518": "मह",
    "519": "बाह",
    "520": "ंद",
    "521": "2</w>",
    "522": "कह",
    "523": "भू",
    "524": "मान</w>",
    "525": "सा</w>",
    "526": "आध",
    "527": "पी",
    "528": "वी</w>",
    "529": "लग",
    "530": "शे",
    "531": "हुआ",
    "532": "पि",
    "533": "मं",
    "534": "रा</w>",
    "535": "टर</w>",
    "536": "कों</w>",
    "537": "योग</w>",
    "538": "छ</w>",
    "539": "बर</w>",
    "540": "गया",
    "541": "त्य",
    "542": "उत्तरा",
    "543": "पो",
    "544": "पे",
    "545": "s</w>",
    "546": "ज्ञा",
    "547": "इन्",
    "548": "द्ध</w>",
    "549": "डे",
    "550": "5</w>",
    "551": "जी</w>",
    "552": "फ</w>",
    "553": "दर्भ</w>",
    "554": "बना",
    "555": "खण्ड</w>",
    "556": "उन्होंने</w>",
    "557": "में,</w>",
    "558": "एव",
    "559": "ती",
    "560": "कुछ</w>",
    "561": "निक</w>",
    "562": "्रे",
    "563": "स्व",
    "564": "डि",
    "565": "प्रति",
    "566": "निय",
    "567": "201",
    "568": "टा",
    "569": "थे।</w>",
    "570": "एवं</w>",
    "571": "िले</w>",
    "572": "अधि",
    "573": "ू</w>",
    "574": "नाम</w>",
    "575": "उत्तराखण्ड</w>",
    "576": "न,</w>",
    "577": "कॉ",
    "578": "भारतीय</w>",
    "579": "विश्",
    "580": "मा</w>",
    "581": "देश",
    "582": "ष्ट्र",
    "583": "or",
    "584": "दिया</w>",
    "585": "at",
    "586": "सम्",
    "587": "भाष",
    "588": "सब",
    "589": "स्थित</w>",
    "590": "ारी</w>",
    "591": "लै",
    "592": "बाहरी</w>",
    "593": "करते</w>",
    "594": "हैं,</w>",
    "595": "दु",
    "596": "मिल",
    "597": "दो",
    "598": "सन्दर्भ</w>",
    "599": "मिल</w>",
    "600": "3</w>",
    "601": "क्षेत्र</w>",
    "602": "प्त</w>",
    "603": "चु",
    "604": "इन</w>",
    "605": "वाले</w>",
    "606": "ar",
    "607": "8</w>",
    "608": "फिल्",
    "609": "4</w>",
    "610": "करता</w>",
    "611": "बो",
    "612": "जु",
    "613": "अन्य</w>",
    "614": "मार्",
    "615": "ी,</w>",
    "616": "सरकार</w>",
    "617": "होने</w>",
    "618": "इसके</w>",
    "619": "al",
    "620": "कै",
    "621": "कर्",
    "622": "ये</w>",
    "623": "किया।</w>",
    "624": "तो</w>",
    "625": "कई</w>",
    "626": "समय</w>",
    "627": "),</w>",
    "628": "उनके</w>",
    "629": "7</w>",
    "630": "तु",
    "631": "6</w>",
    "632": "बहु",
    "633": "्यो",
    "634": "कड़ियाँ</w>",
    "635": "यू",
    "636": "गर</w>",
    "637": "प्रदेश</w>",
    "638": "सो",
    "639": "अधिक</w>",
    "640": "गया।</w>",
    "641": "d</w>",
    "642": "जे",
    "643": "पर्",
    "644": "क्षा</w>",
    "645": "इन",
    "646": "गी",
    "647": "जन</w>",
    "648": "लय</w>",
    "649": "अपनी</w>",
    "650": "्या</w>",
    "651": "ंट",
    "652": "णा",
    "653": "थी।</w>",
    "654": "अव",
    "655": "धि</w>",
    "656": "ब्र",
    "657": "ड़ी</w>",
    "658": "ारे</w>",
    "659": "सबसे</w>",
    "660": "फि",
    "661": "ण्ड",
    "662": "जो",
    "663": "राष्ट्र",
    "664": "रण</w>",
    "665": "वन</w>",
    "666": "दा</w>",
    "667": "ंप",
    "668": "स्ता",
    "669": "सर्",
    "670": "पहले</w>",
    "671": "होती</w>",
    "672": "ठ</w>",
    "673": "समा",
    "674": "उन्हें</w>",
    "675": "st",
    "676": "गि",
    "677": "इन्हें</w>",
    "678": "नो",
    "679": "र्थ",
    "680": "गत</w>",
    "681": "द्र",
    "682": "हुआ</w>",
    "683": "दो</w>",
    "684": "किसी</w>",
    "685": "डा",
    "686": "तं",
    "687": "en",
    "688": "चार</w>",
    "689": "th",
    "690": "हुए</w>",
    "691": "खि",
    "692": "गों</w>",
    "693": "कारण</w>",
    "694": "जब</w>",
    "695": "बै",
    "696": "'</w>",
    "697": "ः</w>",
    "698": "वै",
    "699": "ड़</w>",
    "700": "रख",
    "701": "न्न</w>",
    "702": "सकता</w>",
    "703": "ज़</w>",
    "704": "िला</w>",
    "705": "शामिल</w>",
    "706": "मक</w>",
    "707": "जिले</w>",
    "708": "भाग</w>",
    "709": "ग्रा",
    "710": "बंध",
    "711": "देखें</w>",
    "712": ";</w>",
    "713": "क्ति</w>",
    "714": "किन</w>",
    "715": "अंग",
    "716": "लों</w>",
    "717": "शी",
    "718": "व्या",
    "719": "स्ट</w>",
    "720": "तिक</w>",
    "721": "ारा",
    "722": "गाँ",
    "723": "ड़ा</w>",
    "724": "हर</w>",
    "725": "प्रभा",
    "726": "पै",
    "727": "स्थाप",
    "728": "र,</w>",
    "729": "लेकिन</w>",
    "730": "हे",
    "731": "दौ",
    "732": "जू",
    "733": "महा",
    "734": "सन</w>",
    "735": "ते",
    "736": "a</w>",
    "737": "त्व</w>",
    "738": "साइ",
    "739": "१९",
    "740": "लेख",
    "741": "हाँ</w>",
    "742": "फिल्म</w>",
    "743": "दि</w>",
    "744": "रे</w>",
    "745": "कम</w>",
    "746": "==।</w>",
    "747": "9</w>",
    "748": "बहुत</w>",
    "749": "न्त",
    "750": "छो",
    "751": "ंट</w>",
    "752": "करण</w>",
    "753": "खे",
    "754": "स्थान</w>",
    "755": "जाती</w>",
    "756": "अमे",
    "757": "कारी</w>",
    "758": "फा",
    "759": "ic",
    "760": "की",
    "761": "सिं",
    "762": "लिय",
    "763": "विद",
    "764": "जैसे</w>",
    "765": "ंकि</w>",
    "766": "होते</w>",
    "767": "२०",
    "768": "दान</w>",
    "769": "र्म",
    "770": "क्षि",
    "771": "संस्",
    "772": "निर्मा",
    "773": "विशे",
    "774": "कहा</w>",
    "775": "प्रकार</w>",
    "776": "अमेरि",
    "777": "यों</w>",
    "778": "जन्",
    "779": "सभी</w>",
    "780": "गाँव</w>",
    "781": "ए।</w>",
    "782": "विधा",
    "783": "िकार",
    "784": "द्र</w>",
    "785": "ग्",
    "786": "जाने</w>",
    "787": "बु",
    "788": "अभि",
    "789": "तर</w>",
    "790": "क्रि",
    "791": "तिहा",
    "792": "ंख",
    "793": "उनकी</w>",
    "794": "अर्",
    "795": "पूर्ण</w>",
    "796": "वर</w>",
    "797": "सार</w>",
    "798": "उस</w>",
    "799": "सह",
    "800": "हां</w>",
    "801": "इसे</w>",
    "802": "सद",
    "803": "था,</w>",
    "804": "सर</w>",
    "805": "ियो",
    "806": "00</w>",
    "807": "ड़े</w>",
    "808": "लन</w>",
    "809": "पुर</w>",
    "810": "डी",
    "811": "उसके</w>",
    "812": "प्रे",
    "813": "पूर्व</w>",
    "814": "वर्ष</w>",
    "815": "आधिकार",
    "816": "आधिकारिक</w>",
    "817": "y</w>",
    "818": "रों</w>",
    "819": "स्थि",
    "820": "ौर</w>",
    "821": "अंग्रे",
    "822": "हार</w>",
    "823": "भाषा</w>",
    "824": "दी",
    "825": "जिसमें</w>",
    "826": "199",
    "827": "गे",
    "828": "उसे</w>",
    "829": "t</w>",
    "830": "वार</w>",
    "831": "मण्ड",
    "832": "ंच",
    "833": "सै",
    "834": "नु",
    "835": "वृ",
    "836": "मौ",
    "837": "प्राप्त</w>",
    "838": "मुख</w>",
    "839": "पश्",
    "840": "रू</w>",
    "841": "क,</w>",
    "842": "उपयोग</w>",
    "843": "साम",
    "844": "वर्त",
    "845": "संख",
    "846": "ेक</w>",
    "847": "भा</w>",
    "848": "त्री</w>",
    "849": "न्या",
    "850": "अल",
    "851": "मध",
    "852": "दक्षि",
    "853": "मण्डल</w>",
    "854": "उत्तर</w>",
    "855": "पुर",
    "856": "तरह</w>",
    "857": "यन</w>",
    "858": "ष्ट</w>",
    "859": "र्ट",
    "860": "ंध",
    "861": "राष्ट्रीय</w>",
    "862": "बीच</w>",
    "863": "वल</w>",
    "864": "इसका</w>",
    "865": "काम</w>",
    "866": "लिख",
    "867": "मुख्य</w>",
    "868": "ion",
    "869": "गए</w>",
    "870": "चार",
    "871": "गढ़",
    "872": "धार",
    "873": "०</w>",
    "874": "णी</w>",
    "875": "युक्त</w>",
    "876": "ृष्",
    "877": "र्ड</w>",
    "878": "बार</w>",
    "879": "कोई</w>",
    "880": "क्षण</w>",
    "881": "योग",
    "882": "पाद",
    "883": "जान",
    "884": "त्व",
    "885": "ंस</w>",
    "886": "क्ष</w>",
    "887": "क्स</w>",
    "888": "आई",
    "889": "वाली</w>",
    "890": "यी</w>",
    "891": "त्य</w>",
    "892": "लिया</w>",
    "893": "टू",
    "894": "f</w>",
    "895": "लोगों</w>",
    "896": "विज्ञा",
    "897": "जीवन</w>",
    "898": "टा</w>",
    "899": "िया,</w>",
    "900": "कंप",
    "901": "पत्",
    "902": "डी</w>",
    "903": "यर</w>",
    "904": "प्रमुख</w>",
    "905": "ं।</w>",
    "906": "गई</w>",
    "907": "ंत</w>",
    "908": "नगर</w>",
    "909": "तियों</w>",
    "910": "स्टे",
    "911": "थी</w>",
    "912": "लैंड</w>",
    "913": "ंग्",
    "914": "टो",
    "915": "निर्माण</w>",
    "916": "व्यव",
    "917": "भिन्न</w>",
    "918": "स्ट्र",
    "919": "दूसर",
    "920": "पास</w>",
    "921": "प्रका",
    "922": "रच",
    "923": "सूच",
    "924": "करना</w>",
    "925": "शुरू</w>",
    "926": "18",
    "927": "मन</w>",
    "928": "ंब",
    "929": "एँ</w>",
    "930": "रान</w>",
    "931": "तह",
    "932": "त्रों</w>",
    "933": "स,</w>",
    "934": "हम",
    "935": "बढ़",
    "936": "हिन्",
    "937": "अक्",
    "938": "कार्य",
    "939": "वाद</w>",
    "940": "ल,</w>",
    "941": "थे</w>",
    "942": "घट",
    "943": "तों</w>",
    "944": "लगा",
    "945": "केट</w>",
    "946": "कू",
    "947": "शो",
    "948": "च्छ",
    "949": "फ्",
    "950": "जन्म</w>",
    "951": "चे",
    "952": "सभा</w>",
    "953": "मों</w>",
    "954": "जिसे</w>",
    "955": "विका",
    "956": "जब",
    "957": "it",
    "958": "प्रो",
    "959": "जाते</w>",
    "960": "द्ध",
    "961": "लगभ",
    "962": "भी",
    "963": "मित</w>",
    "964": "रॉ",
    "965": "हाला",
    "966": "पं",
    "967": "लगभग</w>",
    "968": "े,</w>",
    "969": "ंश</w>",
    "970": "ड्",
    "971": "गण",
    "972": "खु",
    "973": "दोनों</w>",
    "974": "is",
    "975": "बारे</w>",
    "976": "विद्या",
    "977": "ताओं</w>",
    "978": "गीत</w>",
    "979": "द,</w>",
    "980": "दिर</w>",
    "981": "of</w>",
    "982": "कृत</w>",
    "983": "खिला",
    "984": "रहा</w>",
    "985": "णा</w>",
    "986": "स्वा",
    "987": "ियन</w>",
    "988": "टन</w>",
    "989": "इं",
    "990": "हुई</w>",
    "991": "इतिहा",
    "992": "श्य",
    "993": "निया</w>",
    "994": "च्च",
    "995": "काल</w>",
    "996": "स्त</w>",
    "997": "की।</w>",
    "998": "करती</w>",
    "999": "मृ",
    "1000": "ई।</w>",
    "1001": "ए,</w>",
    "1002": "कुमा",
    "1003": "अध्य",
    "1004": "ख़",
    "1005": "संख्या</w>",
    "1006": "विष",
    "1007": "पश्चि",
    "1008": "लॉ",
    "1009": "पुरस्",
    "1010": "स्प",
    "1011": "कार्य</w>",
    "1012": "लोक",
    "1013": "पार्",
    "1014": "तु</w>",
    "1015": "ro",
    "1016": "फो",
    "1017": "फे",
    "1018": "कता</w>",
    "1019": "es",
    "1020": "तौर</w>",
    "1021": "जिन",
    "1022": "डॉ",
    "1023": "आव",
    "1024": "यक</w>",
    "1025": "न्यू",
    "1026": "बी</w>",
    "1027": "तः</w>",
    "1028": "शब्",
    "1029": "साहि",
    "1030": "केवल</w>",
    "1031": "ओर</w>",
    "1032": "फिर</w>",
    "1033": "बर्",
    "1034": "एस",
    "1035": "णों</w>",
    "1036": "सिंह</w>",
    "1037": "विश्व",
    "1038": "विकास</w>",
    "1039": "र्म</w>",
    "1040": "त,</w>",
    "1041": "त्रि",
    "1042": "198",
    "1043": "उद",
    "1044": "वरी</w>",
    "1045": "आर",
    "1046": "अनुसार</w>",
    "1047": "लु",
    "1048": "ड़ा",
    "1049": "लता</w>",
    "1050": "धार</w>",
    "1051": "शहर</w>",
    "1052": "तीन</w>",
    "1053": "प्रयोग</w>",
    "1054": "जाना</w>",
    "1055": "–</w>",
    "1056": "योज",
    "1057": "सदस्",
    "1058": "कल</w>",
    "1059": "्र</w>",
    "1060": "ब्रि",
    "1061": "रहे</w>",
    "1062": "दौरान</w>",
    "1063": "नाट",
    "1064": "ur",
    "1065": "श्रे",
    "1066": "क्यो",
    "1067": "घा",
    "1068": "आदि</w>",
    "1069": "यहाँ</w>",
    "1070": "विशेष</w>",
    "1071": "विभिन्न</w>",
    "1072": "गै",
    "1073": "नू",
    "1074": "al</w>",
    "1075": "एं</w>",
    "1076": "र-",
    "1077": "शिक्षा</w>",
    "1078": "धि",
    "1079": "la",
    "1080": "विश्व</w>",
    "1081": "ख</w>",
    "1082": "इसकी</w>",
    "1083": "लोग</w>",
    "1084": "फ़</w>",
    "1085": "त्मक</w>",
    "1086": "शा</w>",
    "1087": "व्यक्ति</w>",
    "1088": "20</w>",
    "1089": "पार",
    "1090": "समू",
    "1091": "क़",
    "1092": "सार",
    "1093": "ch",
    "1094": "र्गत</w>",
    "1095": "ॉर्",
    "1096": "दक्षिण</w>",
    "1097": "धन</w>",
    "1098": "पहु",
    "1099": "बन</w>",
    "1100": "इसमें</w>",
    "1101": "खो",
    "1102": "टे</w>",
    "1103": "सकते</w>",
    "1104": "बद",
    "1105": "त्रा</w>",
    "1106": "ज़ी",
    "1107": "ing",
    "1108": "मार",
    "1109": "द्धा",
    "1110": "राजनी",
    "1111": "समु",
    "1112": "क्योंकि</w>",
    "1113": "सर्व",
    "1114": "नव",
    "1115": "चौ",
    "1116": "पुरस्कार</w>",
    "1117": "हिस्",
    "1118": "फी</w>",
    "1119": "दर्शन</w>",
    "1120": "आवश्य",
    "1121": "वीं</w>",
    "1122": "ंक",
    "1123": "कहा",
    "1124": "इतिहास</w>",
    "1125": "पुरा",
    "1126": "माध",
    "1127": "अग",
    "1128": "िय</w>",
    "1129": "चै",
    "1130": "नल</w>",
    "1131": "डिय",
    "1132": "वाला</w>",
    "1133": "ची",
    "1134": "स्था</w>",
    "1135": "हन</w>",
    "1136": "अब</w>",
    "1137": "थी",
    "1138": "विध",
    "1139": "फ़िल्",
    "1140": "अंत",
    "1141": "ंद्र",
    "1142": "ृंख",
    "1143": "ह्",
    "1144": "भूमि",
    "1145": "अलग</w>",
    "1146": "परी",
    "1147": "ंगा",
    "1148": "गठ",
    "1149": "दिन</w>",
    "1150": "मीटर</w>",
    "1151": "ra",
    "1152": "दर</w>",
    "1153": "सामान",
    "1154": "शास्",
    "1155": "स्तु",
    "1156": "माना</w>",
    "1157": "उनका</w>",
    "1158": "the</w>",
    "1159": "दिया।</w>",
    "1160": "क्रिकेट</w>",
    "1161": "लित</w>",
    "1162": "लिये</w>",
    "1163": "दार</w>",
    "1164": "अपना</w>",
    "1165": "किए</w>",
    "1166": "le",
    "1167": "मे</w>",
    "1168": "र्य</w>",
    "1169": "स्थिति</w>",
    "1170": "अन्त",
    "1171": "काल",
    "1172": "ंटर",
    "1173": "मूल</w>",
    "1174": "%</w>",
    "1175": "घो",
    "1176": "नीय</w>",
    "1177": "वित</w>",
    "1178": "धान</w>",
    "1179": "सिद्ध</w>",
    "1180": "उल्",
    "1181": "चीन</w>",
    "1182": "ियां</w>",
    "1183": "चित</w>",
    "1184": "मंदिर</w>",
    "1185": "202",
    "1186": "कला",
    "1187": "आंध",
    "1188": "ंक</w>",
    "1189": "दर्श",
    "1190": "संबंध",
    "1191": "प्रत्य",
    "1192": "कृति</w>",
    "1193": "लिस</w>",
    "1194": "पहली</w>",
    "1195": "फै",
    "1196": "उन</w>",
    "1197": "प्रदान</w>",
    "1198": "ऑफ</w>",
    "1199": "युद्ध</w>",
    "1200": "भे",
    "1201": "बॉ",
    "1202": "विज्ञान</w>",
    "1203": "क्रम</w>",
    "1204": "लर</w>",
    "1205": "डो",
    "1206": "आंध्र</w>",
    "1207": "माल</w>",
    "1208": "जिन्",
    "1209": "वन",
    "1210": "एम",
    "1211": "अंतर",
    "1212": "हिं",
    "1213": "क्ति",
    "1214": "वर्ष",
    "1215": "अप्र",
    "1216": "स्तान</w>",
    "1217": "ट्स</w>",
    "1218": "र्ष",
    "1219": "ंच</w>",
    "1220": "वेब",
    "1221": "विद्यालय</w>",
    "1222": "भो",
    "1223": "197",
    "1224": "सफ",
    "1225": "दिखा",
    "1226": "उसकी</w>",
    "1227": "्यम</w>",
    "1228": "क्रिया</w>",
    "1229": "संयुक्त</w>",
    "1230": "संघ",
    "1231": "and</w>",
    "1232": "सहा",
    "1233": "परिवार</w>",
    "1234": "संगीत</w>",
    "1235": "वान</w>",
    "1236": "नौ",
    "1237": "साल</w>",
    "1238": "क्षा",
    "1239": "नै",
    "1240": "आग",
    "1241": "एक",
    "1242": "ठा",
    "1243": "निक",
    "1244": "चाहि",
    "1245": "शै",
    "1246": "बन",
    "1247": "ृंखला</w>",
    "1248": "ation",
    "1249": "न्त</w>",
    "1250": "च्च</w>",
    "1251": "196",
    "1252": "अति",
    "1253": "टीम</w>",
    "1254": "m</w>",
    "1255": "कुल</w>",
    "1256": "जबकि</w>",
    "1257": "विक",
    "1258": "त्वपूर्ण</w>",
    "1259": "तो",
    "1260": "छा",
    "1261": "तब</w>",
    "1262": "सामा",
    "1263": "जिक</w>",
    "1264": "हुआ।</w>",
    "1265": "षण</w>",
    "1266": "यर",
    "1267": "लिक</w>",
    "1268": "वास</w>",
    "1269": "नदी</w>",
    "1270": "ब्रा",
    "1271": "जिसका</w>",
    "1272": "स्थापित</w>",
    "1273": "दूसरे</w>",
    "1274": "वाल</w>",
    "1275": "प्रथ",
    "1276": "बाद,</w>",
    "1277": "सिक</w>",
    "1278": "इसी</w>",
    "1279": "पति</w>",
    "1280": "चुना",
    "1281": "re",
    "1282": "सित</w>",
    "1283": "पड़",
    "1284": "कहते</w>",
    "1285": "जिसके</w>",
    "1286": "पोर्ट",
    "1287": "अमेरिका</w>",
    "1288": "द्वी",
    "1289": "र्स</w>",
    "1290": ")।</w>",
    "1291": "प्रणा",
    "1292": "ol",
    "1293": "इंटर",
    "1294": "er</w>",
    "1295": "अर",
    "1296": "सिद्धा",
    "1297": "तहसी",
    "1298": "पन</w>",
    "1299": "राजा</w>",
    "1300": "उत्पाद",
    "1301": "जुला",
    "1302": "कृष्",
    "1303": "१</w>",
    "1304": "इंड",
    "1305": "एक्",
    "1306": "त्या",
    "1307": "वेबसाइ",
    "1308": "(अंग्रे",
    "1309": "स्थापना</w>",
    "1310": "il",
    "1311": "10",
    "1312": "फ्र",
    "1313": "{\\",
    "1314": "एन",
    "1315": "॰</w>",
    "1316": "म,</w>",
    "1317": "समझ",
    "1318": "वज",
    "1319": "बड़े</w>",
    "1320": "स्थल</w>",
    "1321": "रुआ",
    "1322": "म्प",
    "1323": "मध्य</w>",
    "1324": "पृष्",
    "1325": "२०१",
    "1326": "पिता</w>",
    "1327": "बंध</w>",
    "1328": "धर्म</w>",
    "1329": "आ</w>",
    "1330": "्यों</w>",
    "1331": "उद्",
    "1332": "बता",
    "1333": "प्रथम</w>",
    "1334": "हर",
    "1335": "वर्तमान</w>",
    "1336": "भाव",
    "1337": "तै",
    "1338": "el",
    "1339": "पी</w>",
    "1340": "सौ",
    "1341": "सां",
    "1342": "विक</w>",
    "1343": "कभी</w>",
    "1344": "बल</w>",
    "1345": "बच्च",
    "1346": "माण",
    "1347": "तहसील</w>",
    "1348": "प्रार",
    "1349": "लाइ",
    "1350": "लक्ष",
    "1351": "बना</w>",
    "1352": "४</w>",
    "1353": "्यु",
    "1354": "अक्टू",
    "1355": "प्रसिद्ध</w>",
    "1356": "शुरुआ",
    "1357": "र्ट</w>",
    "1358": "ब्ल",
    "1359": "लब्",
    "1360": "मद",
    "1361": "अप्रै",
    "1362": "षि</w>",
    "1363": "देता</w>",
    "1364": "अन्तर्गत</w>",
    "1365": "अला",
    "1366": "वर्ण",
    "1367": "लने</w>",
    "1368": "थे,</w>",
    "1369": "यहां</w>",
    "1370": "करा",
    "1371": "प्रति</w>",
    "1372": "ारों</w>",
    "1373": "उदा",
    "1374": "मिक</w>",
    "1375": "पुन",
    "1376": "जग",
    "1377": "परिणा",
    "1378": "दिल्",
    "1379": "नेट</w>",
    "1380": "य,</w>",
    "1381": "सेवा</w>",
    "1382": "ंद्र</w>",
    "1383": "ता,</w>",
    "1384": "सेना</w>",
    "1385": "२</w>",
    "1386": "तृ",
    "1387": "ियर</w>",
    "1388": "वादी</w>",
    "1389": "ंत्र",
    "1390": "महत्वपूर्ण</w>",
    "1391": "कारों</w>",
    "1392": "अभ",
    "1393": "दू</w>",
    "1394": "जाल",
    "1395": "शब्द</w>",
    "1396": "घर</w>",
    "1397": "यता</w>",
    "1398": "टि</w>",
    "1399": "देशों</w>",
    "1400": "ध्या",
    "1401": "19</w>",
    "1402": "स्वी",
    "1403": "५</w>",
    "1404": "सामान्य</w>",
    "1405": "अमेरिकी</w>",
    "1406": "ल्ड</w>",
    "1407": "ई,</w>",
    "1408": "कित्",
    "1409": "मूल",
    "1410": "हिन्दी</w>",
    "1411": "स्तर</w>",
    "1412": "पुलिस</w>",
    "1413": "उपलब्",
    "1414": "रेल",
    "1415": "पोर्टल</w>",
    "1416": "कंपनी</w>",
    "1417": "om",
    "1418": "मेंट</w>",
    "1419": "चिकित्",
    "1420": "ना,</w>",
    "1421": "समूह</w>",
    "1422": "गा</w>",
    "1423": "गढ़</w>",
    "1424": "सामाजिक</w>",
    "1425": "मार्ग</w>",
    "1426": "पता</w>",
    "1427": "जारी</w>",
    "1428": "श्री",
    "1429": "दश",
    "1430": "आधार",
    "1431": "विस्त",
    "1432": "फी",
    "1433": "धी",
    "1434": "शरी",
    "1435": "प्रकाश",
    "1436": "बन्",
    "1437": "उसने</w>",
    "1438": "am",
    "1439": "भु",
    "1440": "इस्त",
    "1441": "ज़ा",
    "1442": "कृतिक</w>",
    "1443": "मंत्री</w>",
    "1444": "(अंग्रेज़ी",
    "1445": "di",
    "1446": "पाल</w>",
    "1447": "देने</w>",
    "1448": "मन्",
    "1449": "मार्च</w>",
    "1450": "पुस्त",
    "1451": "सुर",
    "1452": "६</w>",
    "1453": "ृत</w>",
    "1454": "दे</w>",
    "1455": "पौ",
    "1456": "साथ",
    "1457": "रही</w>",
    "1458": "कुमाऊ",
    "1459": "an</w>",
    "1460": "ंद</w>",
    "1461": "म्ब",
    "1462": "अध्ययन</w>",
    "1463": "अल्",
    "1464": "चा</w>",
    "1465": "खा</w>",
    "1466": "साहित्य</w>",
    "1467": "भाषा",
    "1468": "भूमिका</w>",
    "1469": "विशेष",
    "1470": "नामक</w>",
    "1471": "बड़ी</w>",
    "1472": "क्रा",
    "1473": "मॉ",
    "1474": "देव",
    "1475": "हरण</w>",
    "1476": "तम</w>",
    "1477": "iv",
    "1478": "जून</w>",
    "1479": "डियो</w>",
    "1480": "नर</w>",
    "1481": "माम",
    "1482": "माध्यम</w>",
    "1483": "ण,</w>",
    "1484": "चन</w>",
    "1485": "in</w>",
    "1486": "बिहार</w>",
    "1487": "बात</w>",
    "1488": "आधार</w>",
    "1489": "वेश</w>",
    "1490": "स्वतं",
    "1491": "====</w>",
    "1492": "किल",
    "1493": "निर्वा",
    "1494": "|</w>",
    "1495": "कम",
    "1496": "195",
    "1497": "महारा",
    "1498": "गी</w>",
    "1499": "कुमाऊँ</w>",
    "1500": "कोशि",
    "1501": "धी</w>",
    "1502": "क्रम",
    "1503": "मृत्य",
    "1504": "पानी</w>",
    "1505": "es</w>",
    "1506": "जिससे</w>",
    "1507": "जहां</w>",
    "1508": "प्रया",
    "1509": "थी,</w>",
    "1510": "गर्",
    "1511": "्रो",
    "1512": "ed</w>",
    "1513": "दों</w>",
    "1514": "In",
    "1515": "ग्राम</w>",
    "1516": "हरा",
    "1517": "हालांकि</w>",
    "1518": "प्रत्येक</w>",
    "1519": "न-",
    "1520": "बनाने</w>",
    "1521": "000</w>",
    "1522": "दूर</w>",
    "1523": "194",
    "1524": "le</w>",
    "1525": "उच्च</w>",
    "1526": "शासन</w>",
    "1527": "समी",
    "1528": "प्रभाव</w>",
    "1529": "चे</w>",
    "1530": "त्ता</w>",
    "1531": "ष्ठ</w>",
    "1532": "द्वि",
    "1533": "गल</w>",
    "1534": "i</w>",
    "1535": "वों</w>",
    "1536": "o</w>",
    "1537": "et",
    "1538": "पृ",
    "1539": "पहला</w>",
    "1540": "३</w>",
    "1541": "चित्र</w>",
    "1542": "पाकि",
    "1543": "स्कू",
    "1544": "आप",
    "1545": "अनेक</w>",
    "1546": "लेख</w>",
    "1547": "ियाई</w>",
    "1548": "महिला</w>",
    "1549": "डा</w>",
    "1550": "नित</w>",
    "1551": "द्धि</w>",
    "1552": "श्रृंखला</w>",
    "1553": "नियम</w>",
    "1554": "शास",
    "1555": "र्थ</w>",
    "1556": "सरी</w>",
    "1557": "कृषि</w>",
    "1558": "द्वीप</w>",
    "1559": "मैच</w>",
    "1560": "बर",
    "1561": "इस्ते",
    "1562": "विश्वविद्यालय</w>",
    "1563": "विभाग</w>",
    "1564": "भर</w>",
    "1565": "चुनाव</w>",
    "1566": "ल-",
    "1567": "आम</w>",
    "1568": "पश्चिम</w>",
    "1569": "ऑफ़</w>",
    "1570": "सदस्य</w>",
    "1571": "सन्</w>",
    "1572": "या।</w>",
    "1573": "दुनिया</w>",
    "1574": "ज्या",
    "1575": "इस्तेमाल</w>",
    "1576": "बड़ा</w>",
    "1577": "ऐसा</w>",
    "1578": "ing</w>",
    "1579": "वॉ",
    "1580": "शी</w>",
    "1581": "राम",
    "1582": "वृत्",
    "1583": "८</w>",
    "1584": "ou",
    "1585": "शुरुआत</w>",
    "1586": "-1",
    "1587": "घोष",
    "1588": "सकती</w>",
    "1589": "श्री</w>",
    "1590": "शं",
    "1591": "दृ",
    "1592": "वो",
    "1593": "तुल",
    "1594": "स्ट्रे",
    "1595": "फ़िल्म</w>",
    "1596": "गर",
    "1597": "चाह",
    "1598": "ज़िले</w>",
    "1599": "दर",
    "1600": "कानू",
    "1601": "मनो",
    "1602": "प्राचीन</w>",
    "1603": "दृष्",
    "1604": "वास्त",
    "1605": "दिल्ली</w>",
    "1606": "कला</w>",
    "1607": "शरीर</w>",
    "1608": "त्रा",
    "1609": "नाओं</w>",
    "1610": "अच्छ",
    "1611": "विस्तृत</w>",
    "1612": "पन्न</w>",
    "1613": "गोल</w>",
    "1614": "राज</w>",
    "1615": "आधारित</w>",
    "1616": "गा।</w>",
    "1617": ").</w>",
    "1618": "२००",
    "1619": "विभा",
    "1620": "ri",
    "1621": "राजनीतिक</w>",
    "1622": "मंड",
    "1623": "ग्रह</w>",
    "1624": "वर्ग</w>",
    "1625": "स्टेशन</w>",
    "1626": "सितं",
    "1627": "पुरु",
    "1628": "लाल</w>",
    "1629": "इस्",
    "1630": "किया,</w>",
    "1631": "गए।</w>",
    "1632": "पृष्ठ</w>",
    "1633": "हित</w>",
    "1634": "महि",
    "1635": "है.</w>",
    "1636": "प्रणाली</w>",
    "1637": "िये</w>",
    "1638": "वरण</w>",
    "1639": "थो",
    "1640": "लू",
    "1641": "हॉ",
    "1642": "ct",
    "1643": "जे</w>",
    "1644": "वर",
    "1645": "ऐसे</w>",
    "1646": "कवि",
    "1647": "विधान</w>",
    "1648": "जों</w>",
    "1649": "कल्",
    "1650": "धिक</w>",
    "1651": "चो",
    "1652": "]</w>",
    "1653": "नई</w>",
    "1654": "यूरो",
    "1655": "सूची</w>",
    "1656": "रचना</w>",
    "1657": "मृत्यु</w>",
    "1658": "७</w>",
    "1659": "उसका</w>",
    "1660": "}}",
    "1661": "नाटक</w>",
    "1662": "आत्",
    "1663": "खिलाफ</w>",
    "1664": "अभिने",
    "1665": "लंब",
    "1666": "तक",
    "1667": "आधु",
    "1668": "ष्ट्",
    "1669": "गां",
    "1670": "अर्थ</w>",
    "1671": "17",
    "1672": "निम्",
    "1673": "टिश</w>",
    "1674": "जिला</w>",
    "1675": "आर्",
    "1676": "ग्रे",
    "1677": "ष्ट्र</w>",
    "1678": "ir",
    "1679": "for",
    "1680": "पृथ",
    "1681": "क्षित</w>",
    "1682": "बनाया</w>",
    "1683": "रिया</w>",
    "1684": "प्रदर्शन</w>",
    "1685": "कल",
    "1686": "पार्टी</w>",
    "1687": "आय",
    "1688": "गढ़वाल</w>",
    "1689": "विकसित</w>",
    "1690": "कालीन</w>",
    "1691": "गई।</w>",
    "1692": "तार</w>",
    "1693": "वैज्ञा",
    "1694": "अथ",
    "1695": "00",
    "1696": "ज़िला</w>",
    "1697": "पूरी</w>",
    "1698": "लेक्",
    "1699": "व्",
    "1700": "जल</w>",
    "1701": "गं",
    "1702": "जुलाई</w>",
    "1703": "शक्ति</w>",
    "1704": "ियोज",
    "1705": "साय",
    "1706": "ारी",
    "1707": "वेबसाइट</w>",
    "1708": "तिम</w>",
    "1709": "चर्",
    "1710": "उदाहरण</w>",
    "1711": "द्यो",
    "1712": "करके</w>",
    "1713": "सितंबर</w>",
    "1714": "गया,</w>",
    "1715": "यदि</w>",
    "1716": "दुर्",
    "1717": "शता",
    "1718": "समान</w>",
    "1719": "फ्रा",
    "1720": "अधिका",
    "1721": "पार</w>",
    "1722": "Th",
    "1723": "संगठ",
    "1724": "से,</w>",
    "1725": "क्षेत्रों</w>",
    "1726": "करे",
    "1727": "पा</w>",
    "1728": "काफी</w>",
    "1729": "मत</w>",
    "1730": "बांग्",
    "1731": "ब्रिटिश</w>",
    "1732": "उपलब्ध</w>",
    "1733": "न)</w>",
    "1734": "नाइ",
    "1735": "आगे</w>",
    "1736": "मि</w>",
    "1737": "व्यवस्था</w>",
    "1738": "कि,</w>",
    "1739": "पक</w>",
    "1740": "पॉ",
    "1741": "लिए,</w>",
    "1742": "रखा</w>",
    "1743": "n</w>",
    "1744": "भग",
    "1745": "स्टा",
    "1746": "लिया।</w>",
    "1747": "शताब्",
    "1748": "डे</w>",
    "1749": "पर्य",
    "1750": "एश",
    "1751": "खेल</w>",
    "1752": "में",
    "1753": "हों</w>",
    "1754": "परिवर्त",
    "1755": "लोक</w>",
    "1756": "लोकप्र",
    "1757": "गति</w>",
    "1758": "फर",
    "1759": "माइ",
    "1760": "लं",
    "1761": "जित</w>",
    "1762": "भव</w>",
    "1763": "परियोज",
    "1764": "इसलिए</w>",
    "1765": "जर</w>",
    "1766": "भौ",
    "1767": "इससे</w>",
    "1768": "नियंत्र",
    "1769": "प्रकाशित</w>",
    "1770": "किलो",
    "1771": "जल",
    "1772": "इला",
    "1773": "हार्",
    "1774": "बल्",
    "1775": "em",
    "1776": "संबंधित</w>",
    "1777": "15",
    "1778": "जर्म",
    "1779": "नाथ</w>",
    "1780": "श्वर</w>",
    "1781": "की,</w>",
    "1782": "अतिरि",
    "1783": "यात</w>",
    "1784": "इंग्",
    "1785": "डिया</w>",
    "1786": "व्य</w>",
    "1787": "केन्",
    "1788": "स्पे",
    "1789": "व्यक्ति",
    "1790": "10</w>",
    "1791": "्यता</w>",
    "1792": "लिंग</w>",
    "1793": "उपा",
    "1794": "पाकिस्तान</w>",
    "1795": "दशक</w>",
    "1796": "स्वरूप</w>",
    "1797": "आधुनिक</w>",
    "1798": "महिला",
    "1799": "ध्यान</w>",
    "1800": "निर्देश",
    "1801": "तान</w>",
    "1802": "उम्",
    "1803": "राम</w>",
    "1804": "क्षेत्र",
    "1805": "र्ष</w>",
    "1806": "धा</w>",
    "1807": "जय</w>",
    "1808": "्राष्ट्र",
    "1809": "सरकारी</w>",
    "1810": "समाज</w>",
    "1811": "सों</w>",
    "1812": "सार्",
    "1813": "समर्थ",
    "1814": "जनवरी</w>",
    "1815": "यार</w>",
    "1816": "पदा",
    "1817": "टेड</w>",
    "1818": "बाहर</w>",
    "1819": "as",
    "1820": "ज़न</w>",
    "1821": "्राष्ट्रीय</w>",
    "1822": "on</w>",
    "1823": "गति",
    "1824": "गू",
    "1825": "अथवा</w>",
    "1826": "हू",
    "1827": "रल</w>",
    "1828": "जय",
    "1829": "बौ",
    "1830": "ंतर",
    "1831": "धारण</w>",
    "1832": "प्रबंध",
    "1833": "जहा",
    "1834": "तन</w>",
    "1835": "ंस",
    "1836": "आज</w>",
    "1837": "भिक</w>",
    "1838": "स्टर</w>",
    "1839": "लेकर</w>",
    "1840": "वाई</w>",
    "1841": "लाइन</w>",
    "1842": "मुख्य",
    "1843": "देते</w>",
    "1844": "विधि</w>",
    "1845": "टेली",
    "1846": "ल्स</w>",
    "1847": "’</w>",
    "1848": "चित्र",
    "1849": "अक्टूबर</w>",
    "1850": "I</w>",
    "1851": "ग्री</w>",
    "1852": "आम",
    "1853": "सांख",
    "1854": "केंद्र",
    "1855": "त्</w>",
    "1856": "ग्रं",
    "1857": "न्तु</w>",
    "1858": "विधान",
    "1859": "शीर्ष",
    "1860": "छोटे</w>",
    "1861": ",000</w>",
    "1862": "जाति</w>",
    "1863": "(</w>",
    "1864": "ज्य</w>",
    "1865": "रै",
    "1866": "ऑस्ट्रे",
    "1867": "इंटरनेट</w>",
    "1868": "भूमि</w>",
    "1869": "प्रतिनि",
    "1870": "अंतिम</w>",
    "1871": "्यि",
    "1872": "जूद</w>",
    "1873": "शताब्दी</w>",
    "1874": "चल</w>",
    "1875": "बार",
    "1876": "अप्रैल</w>",
    "1877": "जाए",
    "1878": "/</w>",
    "1879": "अधिकांश</w>",
    "1880": "पूर्व",
    "1881": "जालपृष्ठ</w>",
    "1882": "ी)</w>",
    "1883": "ओ</w>",
    "1884": "वाह</w>",
    "1885": "ॉन</w>",
    "1886": "अन्",
    "1887": "शिष्ट</w>",
    "1888": "अगस्त</w>",
    "1889": "अंत</w>",
    "1890": "क्रे",
    "1891": "वाद",
    "1892": "ag",
    "1893": "+</w>",
    "1894": "कं",
    "1895": "पद</w>",
    "1896": "तैयार</w>",
    "1897": "डब्ल",
    "1898": "अपरा",
    "1899": "देव</w>",
    "1900": "यात्रा</w>",
    "1901": "ट्रे",
    "1902": "एस</w>",
    "1903": "कुमार</w>",
    "1904": "पश्चिमी</w>",
    "1905": "ंश",
    "1906": "नए</w>",
    "1907": "वत</w>",
    "1908": "e)</w>",
    "1909": "पत्ति</w>",
    "1910": "लड़",
    "1911": "ग़",
    "1912": "टाइ",
    "1913": "ंकन</w>",
    "1914": "जिनमें</w>",
    "1915": "मई</w>",
    "1916": "भाई</w>",
    "1917": "टिंग</w>",
    "1918": "देखा</w>",
    "1919": "प्रारं",
    "1920": "स्वय",
    "1921": "पर्या",
    "1922": "ध्",
    "1923": "रहता</w>",
    "1924": "रूप",
    "1925": "टल</w>",
    "1926": "193",
    "1927": "क्षम",
    "1928": "पूरा</w>",
    "1929": "रंग",
    "1930": "वंश</w>",
    "1931": "अक्सर</w>",
    "1932": "मानव</w>",
    "1933": "निश्",
    "1934": "ट,</w>",
    "1935": "इनके</w>",
    "1936": "वार",
    "1937": "सांख्यि",
    "1938": "कीय</w>",
    "1939": "म्स</w>",
    "1940": "िली",
    "1941": "उद्देश",
    "1942": "बढ़ा",
    "1943": "अंतर्राष्ट्रीय</w>",
    "1944": "लब</w>",
    "1945": "सद</w>",
    "1946": "रत</w>",
    "1947": "कहानी</w>",
    "1948": "गयी</w>",
    "1949": "..",
    "1950": "गौ",
    "1951": "देशी</w>",
    "1952": "यि",
    "1953": "रात</w>",
    "1954": "विरो",
    "1955": "हा</w>",
    "1956": "थे",
    "1957": "नि</w>",
    "1958": "उत्पादन</w>",
    "1959": "अत्य",
    "1960": "दूसरी</w>",
    "1961": "अतिरिक्त</w>",
    "1962": "लौ",
    "1963": "पूर्वी</w>",
    "1964": "हिस्सा</w>",
    "1965": "बंद</w>",
    "1966": "भाग",
    "1967": "बांग्ला",
    "1968": "प्रामाण",
    "1969": "13",
    "1970": "फ्रे",
    "1971": "अधिकार</w>",
    "1972": "आई</w>",
    "1973": "C</w>",
    "1974": "pla",
    "1975": "इस्ला",
    "1976": "बा</w>",
    "1977": "संचा",
    "1978": "देवी</w>",
    "1979": "स्कूल</w>",
    "1980": "फु",
    "1981": "ent",
    "1982": "अंड",
    "1983": "वो</w>",
    "1984": "उत्पन्न</w>",
    "1985": "विधानसभा</w>",
    "1986": "पहचा",
    "1987": "णि",
    "1988": "दर्श</w>",
    "1989": "(अंग्रेज़ी)</w>",
    "1990": "yst",
    "1991": "एंड</w>",
    "1992": "उसी</w>",
    "1993": "परियोजना</w>",
    "1994": "प्रयास</w>",
    "1995": "ली,</w>",
    "1996": "दल</w>",
    "1997": "रो</w>",
    "1998": "उत्तरी</w>",
    "1999": "लिखित</w>",
    "2000": "शल</w>",
    "2001": "ता।</w>",
    "2002": "गय",
    "2003": "नियों</w>",
    "2004": "संबंध</w>",
    "2005": "आर्थ",
    "2006": "प्ले",
    "2007": "बू",
    "2008": "रहते</w>",
    "2009": "उद्यो",
    "2010": "शीर्षक</w>",
    "2011": "पृथ्",
    "2012": "हिंदी</w>",
    "2013": "वर्षों</w>",
    "2014": "म्म",
    "2015": "गांव</w>",
    "2016": "एल",
    "2017": "फ्री",
    "2018": "लते</w>",
    "2019": "वैज्ञानिक</w>",
    "2020": "आदि",
    "2021": "2)</w>",
    "2022": "टों</w>",
    "2023": "जिस</w>",
    "2024": "टै",
    "2025": "प्रामाणिक</w>",
    "2026": "कॉले",
    "2027": "रु</w>",
    "2028": "आदर्श</w>",
    "2029": "मानित</w>",
    "2030": "सीमा</w>",
    "2031": "गणना</w>",
    "2032": "जहाँ</w>",
    "2033": "होकर</w>",
    "2034": "म्बर</w>",
    "2035": "प्रक्रिया</w>",
    "2036": "ul",
    "2037": "जानकार",
    "2038": "शास्त्र</w>",
    "2039": "स्ति",
    "2040": "बह",
    "2041": "तत्",
    "2042": "फाइ",
    "2043": "न्स</w>",
    "2044": "मदद</w>",
    "2045": "क्रिया",
    "2046": "लोकप्रिय</w>",
    "2047": "मिला",
    "2048": "बिना</w>",
    "2049": "मति</w>",
    "2050": "ँचा",
    "2051": "बेस</w>",
    "2052": "साम्रा",
    "2053": "योजना</w>",
    "2054": "भूगोल</w>",
    "2055": "सत</w>",
    "2056": "हम</w>",
    "2057": "हुई।</w>",
    "2058": "निर्दे",
    "2059": "16",
    "2060": "un",
    "2061": "टेस्ट</w>",
    "2062": "पद",
    "2063": "ज्ञान</w>",
    "2064": "सेवा",
    "2065": "मुक्त</w>",
    "2066": "विचार</w>",
    "2067": "(200",
    "2068": "मर</w>",
    "2069": "कौ",
    "2070": "झा",
    "2071": "संघ</w>",
    "2072": "दिसं",
    "2073": "संस्करण</w>",
    "2074": "ऊपर</w>",
    "2075": "जीत</w>",
    "2076": "अलावा</w>",
    "2077": "श्रेष्ठ</w>",
    "2078": "न्य</w>",
    "2079": "तरी",
    "2080": "रेलवे</w>",
    "2081": "त-",
    "2082": "बहा",
    "2083": "नेट",
    "2084": "एच",
    "2085": "ऐसी</w>",
    "2086": "पट",
    "2087": "केंद्र</w>",
    "2088": "उपन्या",
    "2089": "कथा",
    "2090": "धर्म",
    "2091": "रहने</w>",
    "2092": "चू",
    "2093": "समस्",
    "2094": "ज़ी</w>",
    "2095": "किलोमीटर</w>",
    "2096": "रहे।</w>",
    "2097": "घु",
    "2098": "९</w>",
    "2099": "dis",
    "2100": "वेश",
    "2101": "जिन्हें</w>",
    "2102": "प्रस्तु",
    "2103": "ताल</w>",
    "2104": "लेने</w>",
    "2105": "ंबर</w>",
    "2106": "ंतु</w>",
    "2107": "ष्ण",
    "2108": "रण",
    "2109": "श्य</w>",
    "2110": "त्रता</w>",
    "2111": "थि",
    "2112": "डै",
    "2113": "पूरे</w>",
    "2114": "बादी</w>",
    "2115": "बंगा",
    "2116": "वु",
    "2117": "ist",
    "2118": "कांग",
    "2119": "मूर्",
    "2120": "न्याया",
    "2121": "वाप",
    "2122": "वाह",
    "2123": "सफल</w>",
    "2124": "सार्वज",
    "2125": "किये</w>",
    "2126": "संदर्भ</w>",
    "2127": "शादी</w>",
    "2128": "धित</w>",
    "2129": "कार्ड</w>",
    "2130": "स्थानीय</w>",
    "2131": "टर",
    "2132": "कोड</w>",
    "2133": "पि</w>",
    "2134": "us",
    "2135": "(उत्तराखण्ड</w>",
    "2136": "ट्रो",
    "2137": "पक्ष",
    "2138": "15</w>",
    "2139": "जिसने</w>",
    "2140": "विषय</w>",
    "2141": "आवश्यक</w>",
    "2142": "(S",
    "2143": "ई.</w>",
    "2144": "आने</w>",
    "2145": "शर्",
    "2146": "अर्थ",
    "2147": "जनसांख्यि",
    "2148": "ीक</w>",
    "2149": "थीं।</w>",
    "2150": "उर्",
    "2151": "रता</w>",
    "2152": "दूसरा</w>",
    "2153": "अका",
    "2154": "तिहासिक</w>",
    "2155": "जनसंख्या</w>",
    "2156": "चिकित्सा</w>",
    "2157": "जार</w>",
    "2158": "कॉर्ड</w>",
    "2159": "ट्रा",
    "2160": "नृ",
    "2161": "१८",
    "2162": "पढ़",
    "2163": "क्रो",
    "2164": "तियो",
    "2165": "ढा",
    "2166": "समि",
    "2167": "परे",
    "2168": "बनी</w>",
    "2169": "ग्रह",
    "2170": "गेम</w>",
    "2171": "तहत</w>",
    "2172": "आवश्यकता</w>",
    "2173": "बांग्लादेश</w>",
    "2174": "ph",
    "2175": "नेश",
    "2176": "लक</w>",
    "2177": "सहायता</w>",
    "2178": "इन्होंने</w>",
    "2179": "निर्वाचन</w>",
    "2180": "प्रभावित</w>",
    "2181": "मात्रा</w>",
    "2182": "योजित</w>",
    "2183": "सार्वजनिक</w>",
    "2184": "सान</w>",
    "2185": "कंप्यू",
    "2186": "विशिष्ट</w>",
    "2187": "प्रदर्श",
    "2188": "लोच",
    "2189": "डेटा",
    "2190": "त्या</w>",
    "2191": "k</w>",
    "2192": "द्वितीय</w>",
    "2193": "ic</w>",
    "2194": "मूवी</w>",
    "2195": "रंग</w>",
    "2196": "धानी</w>",
    "2197": "क्षमता</w>",
    "2198": "अस",
    "2199": "पीछ",
    "2200": "घोषणा</w>",
    "2201": "प्ला",
    "2202": "वाय",
    "2203": "त:</w>",
    "2204": "दमी</w>",
    "2205": "हाइ",
    "2206": "मैन</w>",
    "2207": "मीर</w>",
    "2208": "सिल</w>",
    "2209": "को,</w>",
    "2210": "सके",
    "2211": "आप</w>",
    "2212": "2008</w>",
    "2213": "बल",
    "2214": "तुलना</w>",
    "2215": "ई-",
    "2216": "रिक</w>",
    "2217": "लियों</w>",
    "2218": "खिलाड़ी</w>",
    "2219": "ंचा",
    "2220": "पुत्र</w>",
    "2221": "ंपर",
    "2222": "ठा</w>",
    "2223": "नीचे</w>",
    "2224": "गुज",
    "2225": "ध्र",
    "2226": "घटना</w>",
    "2227": "निवा",
    "2228": "ac",
    "2229": "जानकारी</w>",
    "2230": "—</w>",
    "2231": "at</w>",
    "2232": "सहित</w>",
    "2233": "चरण</w>",
    "2234": "इंग्लैंड</w>",
    "2235": "डर</w>",
    "2236": "चरि",
    "2237": "पाठ",
    "2238": "राजस्थान</w>",
    "2239": "उद्देश्य</w>",
    "2240": "दिखाई</w>",
    "2241": "अभी</w>",
    "2242": "कट</w>",
    "2243": "तना</w>",
    "2244": "गुण",
    "2245": "जगह</w>",
    "2246": "आबादी</w>",
    "2247": "त्ती",
    "2248": "तकनी",
    "2249": "गिर",
    "2250": "चर</w>",
    "2251": "परीक्षण</w>",
    "2252": "कलाकार</w>",
    "2253": "स्रो",
    "2254": "भाव</w>",
    "2255": "टीवी</w>",
    "2256": "A</w>",
    "2257": "बद्ध</w>",
    "2258": "याता",
    "2259": "एं",
    "2260": "रानी</w>",
    "2261": "_{",
    "2262": "रिय",
    "2263": "न्न",
    "2264": "दाय</w>",
    "2265": "माने</w>",
    "2266": "सांस्",
    "2267": "वें</w>",
    "2268": "ख्या",
    "2269": "क्या</w>",
    "2270": "है:</w>",
    "2271": "ज्ञ</w>",
    "2272": "सामने</w>",
    "2273": "ज,</w>",
    "2274": "दिसंबर</w>",
    "2275": "ऐतिहासिक</w>",
    "2276": "12",
    "2277": "पित</w>",
    "2278": "भगवान</w>",
    "2279": "हार",
    "2280": "प्रशि",
    "2281": "कृष्ण</w>",
    "2282": "रोग</w>",
    "2283": "आर्थिक</w>",
    "2284": "सीसी</w>",
    "2285": "डेटाबेस</w>",
    "2286": "ड्स</w>",
    "2287": "संस्कृति</w>",
    "2288": "लाह</w>",
    "2289": "होना</w>",
    "2290": "कथा</w>",
    "2291": "नियु",
    "2292": "राइ",
    "2293": "यातायात</w>",
    "2294": "प्रेर",
    "2295": "ig",
    "2296": "ब्रह्",
    "2297": "प्रबंधन</w>",
    "2298": "कर्ता</w>",
    "2299": "महिलाओं</w>",
    "2300": "परिणाम</w>",
    "2301": "००</w>",
    "2302": "ँच</w>",
    "2303": "14",
    "2304": "जिन्होंने</w>",
    "2305": "30</w>",
    "2306": "निर्मित</w>",
    "2307": "शो</w>",
    "2308": "जनसांख्यिकी</w>",
    "2309": "निश्चित</w>",
    "2310": "स्टी",
    "2311": "सम्बन्",
    "2312": "एड",
    "2313": "ad",
    "2314": "कन</w>",
    "2315": "व्यापार</w>",
    "2316": "सर्वश्रेष्ठ</w>",
    "2317": "शैली</w>",
    "2318": "yle</w>",
    "2319": "समर्थन</w>",
    "2320": "आस",
    "2321": "(B",
    "2322": "ation</w>",
    "2323": "स्टो",
    "2324": "संर",
    "2325": "राष्ट्रपति</w>",
    "2326": "साम्राज्य</w>",
    "2327": "आमतौर</w>",
    "2328": "अफ्री",
    "2329": "अनुसं",
    "2330": "जानकारी)</w>",
    "2331": "उत्तरा</w>",
    "2332": "displa",
    "2333": "त)</w>",
    "2334": "आन्",
    "2335": "स्वयं</w>",
    "2336": "-0",
    "2337": "मात्र</w>",
    "2338": "कां",
    "2339": "प्रती",
    "2340": "ला,</w>",
    "2341": "समाप्त</w>",
    "2342": "displayst",
    "2343": "displaystyle</w>",
    "2344": "por",
    "2345": "वर्णन</w>",
    "2346": "id",
    "2347": "तियाँ</w>",
    "2348": "भावना</w>",
    "2349": "विचार",
    "2350": "ज्यादा</w>",
    "2351": "ut",
    "2352": "प्रभा।</w>",
    "2353": "क्र</w>",
    "2354": "अंग्रेजी</w>",
    "2355": "पत्र</w>",
    "2356": "इनमें</w>",
    "2357": "The</w>",
    "2358": "कानून</w>",
    "2359": "र्मिक</w>",
    "2360": "पूर्ति</w>",
    "2361": "र्क</w>",
    "2362": "(C",
    "2363": "शिप</w>",
    "2364": "th</w>",
    "2365": "वृद्धि</w>",
    "2366": "पाया</w>",
    "2367": "एफ",
    "2368": "}</w>",
    "2369": "छत्ती",
    "2370": "सांस्कृतिक</w>",
    "2371": "(P",
    "2372": "प्रसार",
    "2373": "ताप",
    "2374": "धार्मिक</w>",
    "2375": "श्रेणी</w>",
    "2376": "रखने</w>",
    "2377": "रं",
    "2378": "x</w>",
    "2379": "ed",
    "2380": "स्पष्ट</w>",
    "2381": "पहा",
    "2382": "क्तियों</w>",
    "2383": "छत्तीस",
    "2384": "टिक</w>",
    "2385": "टर्",
    "2386": "कप</w>",
    "2387": "दूरी</w>",
    "2388": "गूगल</w>",
    "2389": "सम्मानित</w>",
    "2390": "11</w>",
    "2391": "हैं:</w>",
    "2392": "{\\displaystyle</w>",
    "2393": "दास</w>",
    "2394": "योजन</w>",
    "2395": "व,</w>",
    "2396": "आलोच",
    "2397": "प्रकाश</w>",
    "2398": "पान</w>",
    "2399": "आकार</w>",
    "2400": "12</w>",
    "2401": "राजधानी</w>",
    "2402": "1.",
    "2403": "नो</w>",
    "2404": "ट्टी</w>",
    "2405": "ंकि,</w>",
    "2406": "50</w>",
    "2407": "वरी",
    "2408": "संस्कृत</w>",
    "2409": "कार्यक्रम</w>",
    "2410": "विशा",
    "2411": "कांग्रे",
    "2412": "हम्म",
    "2413": "प्रारंभिक</w>",
    "2414": "सहायक</w>",
    "2415": "देती</w>",
    "2416": "फू",
    "2417": "हेतु</w>",
    "2418": "सुरक्षा</w>",
    "2419": "ट्रॉ",
    "2420": "त्त</w>",
    "2421": "s)</w>",
    "2422": "रहती</w>",
    "2423": "वीडियो</w>",
    "2424": "शास्त्र",
    "2425": "क्स",
    "2426": "र्ना",
    "2427": "2019</w>",
    "2428": "ot",
    "2429": "वस्तु",
    "2430": "शाली</w>",
    "2431": "im",
    "2432": "(A",
    "2433": "अनुसार",
    "2434": "पृथ्वी</w>",
    "2435": "मिलियन</w>",
    "2436": "प्री",
    "2437": "गू</w>",
    "2438": "अगर</w>",
    "2439": "प्रतियो",
    "2440": "प्राय",
    "2441": "बनाए</w>",
    "2442": "2007</w>",
    "2443": "मॉड",
    "2444": "खान</w>",
    "2445": "कॉलेज</w>",
    "2446": "गल",
    "2447": "3)</w>",
    "2448": "शरा",
    "2449": "फ़ा",
    "2450": "बेह",
    "2451": "टेलीवि",
    "2452": "नी,</w>",
    "2453": "सागर</w>",
    "2454": "चार्य</w>",
    "2455": "गिक</w>",
    "2456": "अवधि</w>",
    "2457": "लिखा</w>",
    "2458": "नाग",
    "2459": "रिली",
    "2460": "हालांकि,</w>",
    "2461": "h</w>",
    "2462": "ap",
    "2463": "ति,</w>",
    "2464": "॰ऍ",
    "2465": "नय</w>",
    "2466": "अर्था",
    "2467": "मर",
    "2468": "आता</w>",
    "2469": "मही",
    "2470": "निष्",
    "2471": "25</w>",
    "2472": "व्यापक</w>",
    "2473": "हम्मद</w>",
    "2474": "मिश्र",
    "2475": "प्रवेश</w>",
    "2476": "कठ",
    "2477": "भ्र",
    "2478": "1)</w>",
    "2479": "पुस्तक</w>",
    "2480": "ड्र",
    "2481": "ठी</w>",
    "2482": "ब्रे",
    "2483": "मिन",
    "2484": "दृश्य</w>",
    "2485": "ंति</w>",
    "2486": "विल</w>",
    "2487": "तीसर",
    "2488": "है;</w>",
    "2489": "अधिक",
    "2490": "संस्था",
    "2491": "मन",
    "2492": "कल्प",
    "2493": "ज़ो",
    "2494": "्यू</w>",
    "2495": "राष्ट्र</w>",
    "2496": "सें",
    "2497": "मध्य",
    "2498": "न्द</w>",
    "2499": "पर,</w>",
    "2500": "मश",
    "2501": "मारी</w>",
    "2502": "वेद",
    "2503": "मंडल</w>",
    "2504": "सत",
    "2505": "उद्योग</w>",
    "2506": "आयोजित</w>",
    "2507": "आते</w>",
    "2508": "मत",
    "2509": "करी",
    "2510": "दृष्टि</w>",
    "2511": "मनु",
    "2512": "सात</w>",
    "2513": "वहाँ</w>",
    "2514": "od",
    "2515": "बैंक</w>",
    "2516": "नेटवर्",
    "2517": "og",
    "2518": "चला",
    "2519": "ew",
    "2520": "पांच</w>",
    "2521": "सॉ",
    "2522": "थि</w>",
    "2523": "दिव",
    "2524": "पिछ",
    "2525": "चाहिए।</w>",
    "2526": "काओं</w>",
    "2527": "साहित्य",
    "2528": "कर्म",
    "2529": "पंजा",
    "2530": "ट्यू",
    "2531": "सल",
    "2532": "पश्चा",
    "2533": "व्यक्तिगत</w>",
    "2534": "ऊर्",
    "2535": "IS",
    "2536": "यल</w>",
    "2537": "सब</w>",
    "2538": "लू</w>",
    "2539": "कांग्रेस</w>",
    "2540": "परिष",
    "2541": "रह</w>",
    "2542": "पोर्ट</w>",
    "2543": "ड,</w>",
    "2544": "खुद</w>",
    "2545": "स्तार</w>",
    "2546": "फरवरी</w>",
    "2547": "ंत",
    "2548": "क्वा",
    "2549": "जनता</w>",
    "2550": "पर्यटन</w>",
    "2551": "पहचान</w>",
    "2552": "क्रमण</w>",
    "2553": "पुनर्",
    "2554": "प्राकृतिक</w>",
    "2555": "धारा</w>",
    "2556": "नाएँ</w>",
    "2557": "हाथ</w>",
    "2558": "विस्तार</w>",
    "2559": "ंदो",
    "2560": "त्त",
    "2561": "युग</w>",
    "2562": "नॉ",
    "2563": "बने</w>",
    "2564": "सदी</w>",
    "2565": "हे</w>",
    "2566": "हासिल</w>",
    "2567": "सड़",
    "2568": "मानचित्र</w>",
    "2569": "पुष्",
    "2570": "बताया</w>",
    "2571": "नेतृ",
    "2572": "क्लब</w>",
    "2573": "इलेक्",
    "2574": "आवा",
    "2575": "अनुसंधान</w>",
    "2576": "क्षक</w>",
    "2577": "ल्ट</w>",
    "2578": "नही",
    "2579": "ल)</w>",
    "2580": "यूनि",
    "2581": "कॉर्",
    "2582": "मौजूद</w>",
    "2583": "मिलता</w>",
    "2584": "ज्ञात</w>",
    "2585": "मरा",
    "2586": "चीनी</w>",
    "2587": "सम्मान</w>",
    "2588": "नात्मक</w>",
    "2589": "नियंत्रण</w>",
    "2590": "राज्य",
    "2591": "बच्चों</w>",
    "2592": "मीडिया</w>",
    "2593": "स्टि",
    "2594": "रन</w>",
    "2595": "वेद</w>",
    "2596": "रहा",
    "2597": "पात</w>",
    "2598": "कारा",
    "2599": "लेखक</w>",
    "2600": "स्वतंत्रता</w>",
    "2601": "सीज़न</w>",
    "2602": "मार</w>",
    "2603": "स्पर्",
    "2604": "बाल</w>",
    "2605": "फल</w>",
    "2606": "हिन्दू</w>",
    "2607": "अरब</w>",
    "2608": "बजा",
    "2609": "खरी",
    "2610": "नेता</w>",
    "2611": "ग्राह",
    "2612": "प्रतिनिधि",
    "2613": "13</w>",
    "2614": "नेतृत्व</w>",
    "2615": "a)</w>",
    "2616": "21</w>",
    "2617": "शह",
    "2618": "खंड</w>",
    "2619": "अनुमति</w>",
    "2620": "म्भ</w>",
    "2621": "विद्यु",
    "2622": "खोज</w>",
    "2623": "कार्या",
    "2624": "पुरुष</w>",
    "2625": "संगठन</w>",
    "2626": "प्रस्तुत</w>",
    "2627": "ंदन</w>",
    "2628": "op",
    "2629": "तू",
    "2630": "बचा",
    "2631": "न्द",
    "2632": "ृह",
    "2633": "पीछे</w>",
    "2634": "ियन",
    "2635": "सप्",
    "2636": "अनुसार,</w>",
    "2637": "पत्नी</w>",
    "2638": "अंतरराष्ट्रीय</w>",
    "2639": "शू",
    "2640": "तंत्र</w>",
    "2641": "2018</w>",
    "2642": "निका",
    "2643": "कश्",
    "2644": "मंग",
    "2645": "कमी</w>",
    "2646": "परिवर्तन</w>",
    "2647": "ने,</w>",
    "2648": "ये",
    "2649": "विद्",
    "2650": "धे</w>",
    "2651": "दारी</w>",
    "2652": "स्वतंत्र</w>",
    "2653": "um",
    "2654": "लगा</w>",
    "2655": "संस्थान</w>",
    "2656": "दिसम्",
    "2657": "वा,</w>",
    "2658": "इनका</w>",
    "2659": "फॉ",
    "2660": "14</w>",
    "2661": "टूर्ना",
    "2662": "उपयोग",
    "2663": "धारा",
    "2664": "नाम",
    "2665": "प्रौ",
    "2666": "ची</w>",
    "2667": "क्टर</w>",
    "2668": "पहुंच",
    "2669": "क-",
    "2670": "17</w>",
    "2671": "18</w>",
    "2672": "गम</w>",
    "2673": "दिशा</w>",
    "2674": "पत्रि",
    "2675": "मुख्या",
    "2676": "उल्लेख</w>",
    "2677": "उपनि",
    "2678": "24</w>",
    "2679": "गये</w>",
    "2680": "छोड़",
    "2681": "सेट</w>",
    "2682": "स्ना",
    "2683": "बाइ",
    "2684": "विय",
    "2685": "ow",
    "2686": "आरो",
    "2687": "आंदो",
    "2688": "कंप्यूटर</w>",
    "2689": "ang",
    "2690": "यॉर्",
    "2691": "स्वीकार</w>",
    "2692": "थों</w>",
    "2693": "रक्षा</w>",
    "2694": "अधिकारी</w>",
    "2695": "संसद</w>",
    "2696": "बाव",
    "2697": "व्यवहार</w>",
    "2698": "लगता</w>",
    "2699": "पार्ट",
    "2700": "(जन्म</w>",
    "2701": "लाभ</w>",
    "2702": "तने</w>",
    "2703": "सिटी</w>",
    "2704": "मुंब",
    "2705": "टूर्नामेंट</w>",
    "2706": "साध",
    "2707": "अधिकार",
    "2708": "लिका</w>",
    "2709": "ओल",
    "2710": "जीव",
    "2711": "पूर</w>",
    "2712": "सीय</w>",
    "2713": "आन",
    "2714": "जैसा</w>",
    "2715": "न्द्र</w>",
    "2716": "छोटी</w>",
    "2717": "सुधार</w>",
    "2718": "सिद्धांत</w>",
    "2719": "S</w>",
    "2720": "सूचना</w>",
    "2721": "निर्धार",
    "2722": "चला</w>",
    "2723": "ऑस्ट्रेलिया</w>",
    "2724": "मन्दिर</w>",
    "2725": "वां</w>",
    "2726": "साथ-",
    "2727": "दिए</w>",
    "2728": "एशिया</w>",
    "2729": "पैदा</w>",
    "2730": "शील</w>",
    "2731": "समुद्र",
    "2732": "उससे</w>",
    "2733": "प्रि",
    "2734": "झी",
    "2735": "प्या",
    "2736": "अभिनय</w>",
    "2737": "ab",
    "2738": "साद</w>",
    "2739": "प्प",
    "2740": "जैसी</w>",
    "2741": "2009</w>",
    "2742": "0-",
    "2743": "अनुवाद</w>",
    "2744": "टु",
    "2745": "आकर्",
    "2746": "द्योगि",
    "2747": "स्तु</w>",
    "2748": "परा",
    "2749": "Ch",
    "2750": "तियां</w>",
    "2751": "छि",
    "2752": "चल",
    "2753": "स्कॉ",
    "2754": "संके",
    "2755": "लीग</w>",
    "2756": "पाद</w>",
    "2757": "मुस्",
    "2758": "टॉ",
    "2759": "उम्र</w>",
    "2760": "पण</w>",
    "2761": "टेक्",
    "2762": "वर्ती</w>",
    "2763": "स्वास्थ",
    "2764": "फ़े",
    "2765": "भर",
    "2766": "ख्",
    "2767": "दरा",
    "2768": "कोण</w>",
    "2769": "16</w>",
    "2770": "मजब",
    "2771": "लागू</w>",
    "2772": "जिसकी</w>",
    "2773": "क्षम</w>",
    "2774": "लम</w>",
    "2775": "मजबू",
    "2776": "किंग</w>",
    "2777": "वजह</w>",
    "2778": "तुर्",
    "2779": "सित",
    "2780": "बल्कि</w>",
    "2781": "दै",
    "2782": "स्थ</w>",
    "2783": "सदस्यों</w>",
    "2784": "भीतर</w>",
    "2785": "St",
    "2786": "अध्यक्ष</w>",
    "2787": "ङ्",
    "2788": "वापस</w>",
    "2789": "चर",
    "2790": "क्षेप</w>",
    "2791": "मर्",
    "2792": "अधिनियम</w>",
    "2793": "ठीक</w>",
    "2794": "घंट",
    "2795": "यूरोप",
    "2796": "2.",
    "2797": "निम्न",
    "2798": "बिल",
    "2799": "पक्ष</w>",
    "2800": "वाइ",
    "2801": "स्वामी</w>",
    "2802": "नग",
    "2803": "प्रस्ता",
    "2804": "ताकि</w>",
    "2805": "नामा",
    "2806": "ंज</w>",
    "2807": "बदल</w>",
    "2808": "नृत्य</w>",
    "2809": "निभा",
    "2810": "दक्षिणी</w>",
    "2811": "एजे",
    "2812": "चय</w>",
    "2813": "ढ़</w>",
    "2814": "हरा</w>",
    "2815": "मामले</w>",
    "2816": "सामग्री</w>",
    "2817": "मामलों</w>",
    "2818": "अली</w>",
    "2819": "करो",
    "2820": "वस्तु</w>",
    "2821": "ग,</w>",
    "2822": "छोड़</w>",
    "2823": "ंडर</w>",
    "2824": "विवाह</w>",
    "2825": "मनुष",
    "2826": "मंत्र",
    "2827": "साथ-साथ</w>",
    "2828": "इका",
    "2829": "तट</w>",
    "2830": "समिति</w>",
    "2831": "ले,</w>",
    "2832": "मैन",
    "2833": "ज़र</w>",
    "2834": "दिसम्बर</w>",
    "2835": "यौ",
    "2836": "उपन्यास</w>",
    "2837": "दिनों</w>",
    "2838": "जनगणना</w>",
    "2839": "en</w>",
    "2840": "का,</w>",
    "2841": "मल्",
    "2842": "अकादमी</w>",
    "2843": "प्रतिनिधित्व</w>",
    "2844": "कर,</w>",
    "2845": "क्रिय</w>",
    "2846": "यत</w>",
    "2847": "टेन</w>",
    "2848": "ऊ</w>",
    "2849": "ग्री",
    "2850": "ci",
    "2851": "अपे",
    "2852": "उड़ा",
    "2853": "च,</w>",
    "2854": "पर।</w>",
    "2855": "ट्रै",
    "2856": "लो</w>",
    "2857": "शाह</w>",
    "2858": "तल</w>",
    "2859": "नेटवर्क</w>",
    "2860": "स्क</w>",
    "2861": "नेशनल</w>",
    "2862": "प्रौद्योगि",
    "2863": "क्शन</w>",
    "2864": "प्रदर्शित</w>",
    "2865": "कोशिश</w>",
    "2866": "est",
    "2867": "हत्या</w>",
    "2868": "छत्तीसगढ़</w>",
    "2869": "प्रतियोगि",
    "2870": "चार्",
    "2871": "भव",
    "2872": "कार,</w>",
    "2873": "जिम्",
    "2874": "वायु</w>",
    "2875": "एक्स",
    "2876": "द्य",
    "2877": "स्य</w>",
    "2878": "निर्धारित</w>",
    "2879": "हवाई</w>",
    "2880": "मूल्य</w>",
    "2881": "रिकॉर्ड</w>",
    "2882": "बरा",
    "2883": "इंडिया</w>",
    "2884": "लिन</w>",
    "2885": "बस</w>",
    "2886": "षित</w>",
    "2887": "2021</w>",
    "2888": "मुख्यालय</w>",
    "2889": "हाल</w>",
    "2890": "गो</w>",
    "2891": "फिल्मों</w>",
    "2892": "मैं</w>",
    "2893": "मुस्लि",
    "2894": "for</w>",
    "2895": "निया",
    "2896": "रखा",
    "2897": "हुए।</w>",
    "2898": "बच्चे</w>",
    "2899": "ियनशिप</w>",
    "2900": "ज़ि",
    "2901": "पाली</w>",
    "2902": "ter",
    "2903": "वास्तव</w>",
    "2904": "ट।</w>",
    "2905": "यॉर्क</w>",
    "2906": "रॉन</w>",
    "2907": "(M",
    "2908": "दिक</w>",
    "2909": "चरित्र</w>",
    "2910": "लड़ा",
    "2911": "स्रोत</w>",
    "2912": "गुरु</w>",
    "2913": "राज्यों</w>",
    "2914": "माता</w>",
    "2915": "100</w>",
    "2916": "अग्र",
    "2917": "मरी",
    "2918": "संभा",
    "2919": "आयु",
    "2920": "योगदान</w>",
    "2921": "दर्शा",
    "2922": "os",
    "2923": "चक्र",
    "2924": "ूम",
    "2925": "वृत्ति</w>",
    "2926": "2017</w>",
    "2927": "समाज",
    "2928": "बैठ",
    "2929": "ख़ा",
    "2930": "जहाज</w>",
    "2931": "समुदाय</w>",
    "2932": "दी।</w>",
    "2933": "अध्या",
    "2934": "(199",
    "2935": "जॉन</w>",
    "2936": "परिव",
    "2937": "ऊर्जा</w>",
    "2938": "कोल",
    "2939": "षों</w>",
    "2940": "मना",
    "2941": "पंचा",
    "2942": "डु</w>",
    "2943": "l</w>",
    "2944": "तथ",
    "2945": "Indi",
    "2946": "१९९",
    "2947": "साधारण</w>",
    "2948": "2006</w>",
    "2949": "औप",
    "2950": "नियुक्त</w>",
    "2951": "विश्वास</w>",
    "2952": "कमा",
    "2953": "बोर्ड</w>",
    "2954": "ग्रहण</w>",
    "2955": "ष्ट",
    "2956": "धान",
    "2957": "डॉलर</w>",
    "2958": "ion</w>",
    "2959": "Ar",
    "2960": "गैर-",
    "2961": "ंगा</w>",
    "2962": "चलता</w>",
    "2963": "महत्",
    "2964": "संपाद",
    "2965": "^{",
    "2966": "जनवरी",
    "2967": "नवंबर</w>",
    "2968": "राय</w>",
    "2969": "वार्",
    "2970": "प्रसाद</w>",
    "2971": "स्‍",
    "2972": "c</w>",
    "2973": "संग्रह</w>",
    "2974": "2020</w>",
    "2975": "विशाल</w>",
    "2976": "ंभ</w>",
    "2977": "ह,</w>",
    "2978": "केन्द्र",
    "2979": "हैदरा",
    "2980": "pro",
    "2981": "कार्यों</w>",
    "2982": "ंपिक</w>",
    "2983": "\",</w>",
    "2984": "फ़ि",
    "2985": "वीर</w>",
    "2986": "यिक</w>",
    "2987": "कड़ी</w>",
    "2988": "उद्ध",
    "2989": "फ़ो",
    "2990": "कद",
    "2991": "ारो",
    "2992": "क्त",
    "2993": "वास्तविक</w>",
    "2994": "यं",
    "2995": "प्ति</w>",
    "2996": "निम्नलिखित</w>",
    "2997": "धों</w>",
    "2998": "पड़ता</w>",
    "2999": "व्याव",
    "3000": "अंतर्गत</w>",
    "3001": "मुंबई</w>",
    "3002": "बंगाल</w>",
    "3003": "आइ",
    "3004": "सफलता</w>",
    "3005": "खू",
    "3006": "उठा",
    "3007": "लाख</w>",
    "3008": "किमी</w>",
    "3009": "उत्पाद</w>",
    "3010": "to</w>",
    "3011": "ताब</w>",
    "3012": "छह</w>",
    "3013": "सुविधा",
    "3014": "डब्ल्यू",
    "3015": "सक्षम</w>",
    "3016": "काउ",
    "3017": "4)</w>",
    "3018": "बच",
    "3019": "ना।</w>",
    "3020": "अभिया",
    "3021": "शेष</w>",
    "3022": "अभिनेता</w>",
    "3023": "डिजा",
    "3024": "and",
    "3025": "राव</w>",
    "3026": "ers",
    "3027": "e,</w>",
    "3028": "जोड़",
    "3029": "स्वास्थ्य</w>",
    "3030": "विधा</w>",
    "3031": "आर</w>",
    "3032": "ग्रन्",
    "3033": "यही</w>",
    "3034": "अल-",
    "3035": "ज़ा</w>",
    "3036": "जुड़",
    "3037": "विश्ले",
    "3038": "माँ</w>",
    "3039": "लैंड",
    "3040": "चले</w>",
    "3041": "ंडा</w>",
    "3042": "दिया,</w>",
    "3043": "उनमें</w>",
    "3044": "2011</w>",
    "3045": "23</w>",
    "3046": "सम्रा",
    "3047": "चों</w>",
    "3048": "li",
    "3049": "av",
    "3050": "शाही</w>",
    "3051": "साई</w>",
    "3052": "रेखा",
    "3053": "चारिक</w>",
    "3054": "गी।</w>",
    "3055": "बाई</w>",
    "3056": "हैं.</w>",
    "3057": "प्रतिश",
    "3058": "आपूर्ति</w>",
    "3059": "M</w>",
    "3060": "पुर्",
    "3061": "शु</w>",
    "3062": "पर्क</w>",
    "3063": "हो।</w>",
    "3064": "सर्वो",
    "3065": "जर्मन</w>",
    "3066": "कहीं</w>",
    "3067": "मान्यता</w>",
    "3068": "निजी</w>",
    "3069": "रक्त</w>",
    "3070": "युवा</w>",
    "3071": "1-",
    "3072": "फाइन",
    "3073": "सीरी",
    "3074": "तक,</w>",
    "3075": "पों</w>",
    "3076": "शिव</w>",
    "3077": "स)</w>",
    "3078": "विकि",
    "3079": "5)</w>",
    "3080": "शीर्ष</w>",
    "3081": "तन्",
    "3082": "विरोध</w>",
    "3083": "प्रशिक्षण</w>",
    "3084": "कम्प",
    "3085": "(E",
    "3086": "22</w>",
    "3087": "निर्ण",
    "3088": "तरफ</w>",
    "3089": "स्थानों</w>",
    "3090": "डन</w>",
    "3091": "विपरी",
    "3092": "सीमित</w>",
    "3093": "संरचना</w>",
    "3094": "१९८",
    "3095": "विधियों</w>",
    "3096": "न्यू</w>",
    "3097": "2012</w>",
    "3098": "ड़ियों</w>",
    "3099": "यूरोप</w>",
    "3100": "उल्लेख",
    "3101": "प्रशं",
    "3102": "शासक</w>",
    "3103": "पालन</w>",
    "3104": "भाषाओं</w>",
    "3105": "एम</w>",
    "3106": "स्को",
    "3107": "मॉडल</w>",
    "3108": "कहला",
    "3109": "विजय</w>",
    "3110": "सैन्य</w>",
    "3111": "6)</w>",
    "3112": "वें",
    "3113": "धु",
    "3114": "तमिल</w>",
    "3115": "पड़ा</w>",
    "3116": "राय",
    "3117": "वर्ण</w>",
    "3118": "अगले</w>",
    "3119": "सूत्र</w>",
    "3120": "कोड",
    "3121": "2016</w>",
    "3122": "गमन</w>",
    "3123": "कना",
    "3124": "पड़ा",
    "3125": "जवा",
    "3126": "अड्",
    "3127": "मुस्लिम</w>",
    "3128": "परिणाम",
    "3129": "तस्",
    "3130": "स्टार</w>",
    "3131": "प्रधान</w>",
    "3132": "आसपास</w>",
    "3133": "क्यू",
    "3134": "आंदोलन</w>",
    "3135": "प्राथ",
    "3136": "7)</w>",
    "3137": "नारा",
    "3138": "प्यार</w>",
    "3139": "अत्यधिक</w>",
    "3140": "रेल</w>",
    "3141": "एल</w>",
    "3142": "चाहिए",
    "3143": "art",
    "3144": "नें</w>",
    "3145": "रिया",
    "3146": "री,</w>",
    "3147": "शक्ति",
    "3148": "ारि",
    "3149": "ंगे।</w>",
    "3150": "लेखन</w>",
    "3151": "किन्तु</w>",
    "3152": "नया</w>",
    "3153": "रिंग</w>",
    "3154": "समर्",
    "3155": "तला",
    "3156": "इस्लाम</w>",
    "3157": "आयु</w>",
    "3158": "ढ</w>",
    "3159": "न।</w>",
    "3160": "जंग",
    "3161": "कश्मीर</w>",
    "3162": "काम",
    "3163": "fra",
    "3164": "कथ",
    "3165": "अलग",
    "3166": "सक्रिय</w>",
    "3167": "निम्न</w>",
    "3168": "पकड़",
    "3169": "अच्छी</w>",
    "3170": "मानक</w>",
    "3171": "न्यूयॉर्क</w>",
    "3172": "अंडर",
    "3173": "प्रजा",
    "3174": "जरू",
    "3175": "क)</w>",
    "3176": "विजे",
    "3177": "धो",
    "3178": "आत्म",
    "3179": "संग्र",
    "3180": "संचालित</w>",
    "3181": "अल</w>",
    "3182": "औसत</w>",
    "3183": "स्पति</w>",
    "3184": "बौद्ध</w>",
    "3185": "निर्देशक</w>",
    "3186": "नीति</w>",
    "3187": "सिर्",
    "3188": "मिला</w>",
    "3189": "यण</w>",
    "3190": "गुरु",
    "3191": "अनुशीर्षक</w>",
    "3192": "इनकी</w>",
    "3193": "जन्म",
    "3194": "कब्",
    "3195": "निकों</w>",
    "3196": "निर्देशि",
    "3197": "सिस</w>",
    "3198": "रस</w>",
    "3199": "लगाया</w>",
    "3200": "?</w>",
    "3201": "हिमा",
    "3202": "तरीके</w>",
    "3203": "यान</w>",
    "3204": "प्रेस</w>",
    "3205": "वहां</w>",
    "3206": "मोहन</w>",
    "3207": "‌</w>",
    "3208": "चक्र</w>",
    "3209": "प्रेम</w>",
    "3210": "प्रतिशत</w>",
    "3211": "दृष्टि",
    "3212": "वितर",
    "3213": "qu",
    "3214": "देखने</w>",
    "3215": "बृह",
    "3216": "दौरा",
    "3217": "खतर",
    "3218": "नक</w>",
    "3219": "१९७",
    "3220": "स्टॉ",
    "3221": "ड़ों</w>",
    "3222": "(201",
    "3223": "जिन</w>",
    "3224": "विभाजित</w>",
    "3225": "सल</w>",
    "3226": "या,</w>",
    "3227": "P</w>",
    "3228": "port</w>",
    "3229": "पाल",
    "3230": "मौत</w>",
    "3231": "ar</w>",
    "3232": "चि</w>",
    "3233": "ev",
    "3234": "दियों</w>",
    "3235": "न्द्र",
    "3236": "स्थायी</w>",
    "3237": "जुड़े</w>",
    "3238": "महान</w>",
    "3239": "संबंधी</w>",
    "3240": "सक</w>",
    "3241": "यूरोपीय</w>",
    "3242": "ub",
    "3243": "अक्टूब",
    "3244": "विदेशी</w>",
    "3245": "राव",
    "3246": "बजे</w>",
    "3247": "जल्",
    "3248": "मिलती</w>",
    "3249": "हिस्से</w>",
    "3250": "समाचार</w>",
    "3251": "संगी",
    "3252": "बाजार</w>",
    "3253": "लंदन</w>",
    "3254": "Air",
    "3255": "योग्य</w>",
    "3256": "किन",
    "3257": "क्ता</w>",
    "3258": "पहुँ",
    "3259": "स्टिक</w>",
    "3260": "(D",
    "3261": "डाय",
    "3262": "वित्",
    "3263": "लकर</w>",
    "3264": "फ्रांस</w>",
    "3265": "साथ,</w>",
    "3266": "झील</w>",
    "3267": "एल्",
    "3268": "लगातार</w>",
    "3269": "सर्वा",
    "3270": "खंड",
    "3271": "अपराध</w>",
    "3272": "2014</w>",
    "3273": "y)</w>",
    "3274": "बाद",
    "3275": "28</w>",
    "3276": "ंदर</w>",
    "3277": "साधन</w>",
    "3278": "कने</w>",
    "3279": "प्रशास",
    "3280": "ड्रा",
    "3281": "ov",
    "3282": "हाउस</w>",
    "3283": "करियर</w>",
    "3284": "महाराष्ट्र</w>",
    "3285": "लक्षण</w>",
    "3286": "(N",
    "3287": "लक्ष्य</w>",
    "3288": "is</w>",
    "3289": "आउ",
    "3290": "प्रौद्योगिकी</w>",
    "3291": "खर</w>",
    "3292": "रुप",
    "3293": "पाए</w>",
    "3294": "अलग-",
    "3295": "परन्तु</w>",
    "3296": "फा</w>",
    "3297": "प्रतिष्",
    "3298": "सिद्धान्त</w>",
    "3299": "190",
    "3300": "आयुर्",
    "3301": "संविधान</w>",
    "3302": "1,",
    "3303": "गांध",
    "3304": "पोर्",
    "3305": "ज्यो",
    "3306": "26</w>",
    "3307": "गन</w>",
    "3308": "लेता</w>",
    "3309": "हृ",
    "3310": "आतं",
    "3311": "F</w>",
    "3312": "ia</w>",
    "3313": "8)</w>",
    "3314": "आती</w>",
    "3315": "हुए,</w>",
    "3316": "जीव</w>",
    "3317": "गुणव",
    "3318": "पूजा</w>",
    "3319": "किर",
    "3320": "होगा।</w>",
    "3321": "40</w>",
    "3322": "र)</w>",
    "3323": "महीने</w>",
    "3324": "अफ्रीका</w>",
    "3325": "कन्",
    "3326": "बनने</w>",
    "3327": "ess",
    "3328": "हमर</w>",
    "3329": "एयर",
    "3330": "टेलीविजन</w>",
    "3331": "खन",
    "3332": "सामना</w>",
    "3333": "स्त्र",
    "3334": "परिषद</w>",
    "3335": "व्यक्तियों</w>",
    "3336": "पदार्थ</w>",
    "3337": "उल्लेखनीय</w>",
    "3338": "2010</w>",
    "3339": "जमी",
    "3340": "लाने</w>",
    "3341": "पुरी</w>",
    "3342": "ष्क</w>",
    "3343": "भवन</w>",
    "3344": "िले",
    "3345": "हैदराबाद</w>",
    "3346": "करणों</w>",
    "3347": "पेश",
    "3348": "or</w>",
    "3349": "साउ",
    "3350": "निधन</w>",
    "3351": "कपूर</w>",
    "3352": "अलग-अलग</w>",
    "3353": "अतः</w>",
    "3354": "!</w>",
    "3355": "ं)</w>",
    "3356": "नियमित</w>",
    "3357": "एफ</w>",
    "3358": "हालाँ",
    "3359": "भारी</w>",
    "3360": "रिलीज़</w>",
    "3361": "गठन</w>",
    "3362": "घटनाओं</w>",
    "3363": "समुद्र</w>",
    "3364": "है)</w>",
    "3365": "कवि</w>",
    "3366": "प्रधान",
    "3367": "द्रा",
    "3368": "फोन</w>",
    "3369": "सम</w>",
    "3370": "प्रच",
    "3371": "नवा",
    "3372": "27</w>",
    "3373": "eb",
    "3374": "आदेश</w>",
    "3375": "भुग",
    "3376": "ऑन",
    "3377": "अलावा,</w>",
    "3378": "विद्याल",
    "3379": "सियों</w>",
    "3380": "संपर्क</w>",
    "3381": "मुद्र",
    "3382": "सेंट</w>",
    "3383": "सही</w>",
    "3384": "मानते</w>",
    "3385": "रेखा</w>",
    "3386": "विवरण</w>",
    "3387": "शिय",
    "3388": "दबा",
    "3389": "प्रकाशन</w>",
    "3390": "नाडु</w>",
    "3391": "दूर",
    "3392": "पसं",
    "3393": "दौरान,</w>",
    "3394": "ओलंपिक</w>",
    "3395": "छोटा</w>",
    "3396": "दावा</w>",
    "3397": "भी-",
    "3398": "लक्ष्",
    "3399": "यूना",
    "3400": "शराब</w>",
    "3401": "गोल",
    "3402": "एंड",
    "3403": "षक</w>",
    "3404": "0)</w>",
    "3405": "संघर्ष</w>",
    "3406": "हो,</w>",
    "3407": "घरेल",
    "3408": "वर्ल्ड</w>",
    "3409": "टिन</w>",
    "3410": "म्</w>",
    "3411": "श्रीलं",
    "3412": "पुर,</w>",
    "3413": "छु",
    "3414": "शारी",
    "3415": "प्रान्त</w>",
    "3416": "फल",
    "3417": "नत</w>",
    "3418": "प्रतियोगिता</w>",
    "3419": "जांच</w>",
    "3420": "नागर",
    "3421": "ak",
    "3422": "इच्छ",
    "3423": "घंटे</w>",
    "3424": "(१",
    "3425": "फाइनल</w>",
    "3426": "\".</w>",
    "3427": "संकेत</w>",
    "3428": "डु",
    "3429": "थु",
    "3430": "फ्रां",
    "3431": "ों,</w>",
    "3432": "आँ",
    "3433": "दय</w>",
    "3434": "चुका</w>",
    "3435": "मंच</w>",
    "3436": "जॉर्",
    "3437": "प्रशासनिक</w>",
    "3438": "वंश",
    "3439": "यद</w>",
    "3440": "वित्तीय</w>",
    "3441": "चंद्र",
    "3442": "मू</w>",
    "3443": "ब्राह्",
    "3444": "भोजन</w>",
    "3445": "हमे",
    "3446": "2000</w>",
    "3447": "ण-",
    "3448": "शि</w>",
    "3449": "समुद्री</w>",
    "3450": "ंदु",
    "3451": "णिक</w>",
    "3452": "संचार</w>",
    "3453": "ical</w>",
    "3454": "निर्भर</w>",
    "3455": "वालों</w>",
    "3456": "25",
    "3457": "प्रकृति</w>",
    "3458": "(198",
    "3459": "NI",
    "3460": "ट)</w>",
    "3461": "राजनीति</w>",
    "3462": "ज्य",
    "3463": "चैम्प",
    "3464": "हार्डी</w>",
    "3465": "सत्ता</w>",
    "3466": "भविष",
    "3467": "कारक</w>",
    "3468": "फ़्र",
    "3469": "इसने</w>",
    "3470": "तिथि</w>",
    "3471": "सचि",
    "3472": "ंग,</w>",
    "3473": "निर्माता</w>",
    "3474": "प्रेरित</w>",
    "3475": "विधायक</w>",
    "3476": "अस्प",
    "3477": "con",
    "3478": "धियों</w>",
    "3479": "कभी-",
    "3480": "N</w>",
    "3481": "निर्देशिका</w>",
    "3482": "चुके</w>",
    "3483": "भीर</w>",
    "3484": "सड़क</w>",
    "3485": "समस्या",
    "3486": "ce</w>",
    "3487": "पुराने</w>",
    "3488": "पदक</w>",
    "3489": "मल",
    "3490": "घटनाएँ</w>",
    "3491": "निर्देशित</w>",
    "3492": "फ़र",
    "3493": "सिने",
    "3494": "लियम</w>",
    "3495": "पुनः</w>",
    "3496": "--</w>",
    "3497": "अनुभव</w>",
    "3498": "गुणवत्ता</w>",
    "3499": "द्रो",
    "3500": "डिग्री</w>",
    "3501": "निर्णय</w>",
    "3502": "लत</w>",
    "3503": "शृंखला</w>",
    "3504": "जापान</w>",
    "3505": "सिस्ट",
    "3506": "बे</w>",
    "3507": "frac</w>",
    "3508": "विष्ण",
    "3509": "काव्य</w>",
    "3510": "राजमार्ग</w>",
    "3511": "व्यवसा",
    "3512": "ट्ट",
    "3513": "सीमा",
    "3514": "नेवाले</w>",
    "3515": "केन्द्र</w>",
    "3516": "पिछले</w>",
    "3517": "एका",
    "3518": "ऑफि",
    "3519": "सुविधा</w>",
    "3520": "189",
    "3521": "टेकर</w>",
    "3522": "हिंदू</w>",
    "3523": "तें</w>",
    "3524": "आठ</w>",
    "3525": "अहम",
    "3526": "इरा",
    "3527": "2005</w>",
    "3528": "केंद्रीय</w>",
    "3529": "मण</w>",
    "3530": "गवर्",
    "3531": "वाता",
    "3532": "घरेलू</w>",
    "3533": "चैंप",
    "3534": "चैनल</w>",
    "3535": "दस</w>",
    "3536": "ता-",
    "3537": "पत",
    "3538": "द्य</w>",
    "3539": "अक्टूबर-",
    "3540": "O</w>",
    "3541": "धर्",
    "3542": "सला</w>",
    "3543": "मशीन</w>",
    "3544": "तनी</w>",
    "3545": "पात्र</w>",
    "3546": "विभाजन</w>",
    "3547": "कर्ताओं</w>",
    "3548": "न्यायालय</w>",
    "3549": "रहा।</w>",
    "3550": "डेहमर</w>",
    "3551": "अप्रैल-",
    "3552": "मां</w>",
    "3553": "टी-",
    "3554": "मिलकर</w>",
    "3555": "विजेता</w>",
    "3556": "ँ,</w>",
    "3557": "पीड़",
    "3558": "अवस्था</w>",
    "3559": "ब्लॉ",
    "3560": "हरे</w>",
    "3561": "लाव</w>",
    "3562": "सिए",
    "3563": "अभिनेत्री</w>",
    "3564": "अर</w>",
    "3565": "डम</w>",
    "3566": "करोड़</w>",
    "3567": "2013</w>",
    "3568": "त्तर</w>",
    "3569": "औद्यो",
    "3570": "डेवि",
    "3571": "दीन</w>",
    "3572": "ex",
    "3573": "एनरॉन</w>",
    "3574": "-मार्च</w>",
    "3575": "जुलाई-",
    "3576": "2004</w>",
    "3577": "शाखा</w>",
    "3578": "हल्",
    "3579": "बजाय</w>",
    "3580": "मक",
    "3581": "Un",
    "3582": "मुद्",
    "3583": "ंडे",
    "3584": "प्रश्",
    "3585": "ent</w>",
    "3586": "संग</w>",
    "3587": "मुहम्मद</w>",
    "3588": "जनवरी-मार्च</w>",
    "3589": "अप्रैल-जून</w>",
    "3590": "नवम्बर</w>",
    "3591": "जीवित</w>",
    "3592": "तत्व</w>",
    "3593": "पर्याप्त</w>",
    "3594": "करीब</w>",
    "3595": "समस्या</w>",
    "3596": "',</w>",
    "3597": "नेपाल</w>",
    "3598": "oo",
    "3599": "में)</w>",
    "3600": "भुगतान</w>",
    "3601": "बैक</w>",
    "3602": "बिट</w>",
    "3603": "जुलाई-सितंबर</w>",
    "3604": "नागरिक</w>",
    "3605": "पत्र",
    "3606": "जॉ",
    "3607": "ख्या</w>",
    "3608": "साँचा",
    "3609": "आयर",
    "3610": "रूस</w>",
    "3611": "संभव</w>",
    "3612": "उद्धरण</w>",
    "3613": "उत्तर",
    "3614": "ंपरिक</w>",
    "3615": "खेलों</w>",
    "3616": "दार",
    "3617": "इंजी",
    "3618": "साँचा:",
    "3619": "वायु",
    "3620": "Airport</w>",
    "3621": "शर्मा</w>",
    "3622": "कैसे</w>",
    "3623": "संरक्षण</w>",
    "3624": "रही",
    "3625": "अवसर</w>",
    "3626": "उड़ान</w>",
    "3627": "ग्रामी",
    "3628": "लिपि</w>",
    "3629": "शब्दों</w>",
    "3630": "अंडरटेकर</w>",
    "3631": "रचित</w>",
    "3632": "पारंपरिक</w>",
    "3633": "पूर्वक</w>",
    "3634": "सप्ता",
    "3635": "डिंग</w>",
    "3636": "बर्ट</w>",
    "3637": "लेते</w>",
    "3638": "उम्मी",
    "3639": "पद्",
    "3640": "2015</w>",
    "3641": "अपना",
    "3642": "सिर्फ</w>",
    "3643": "जं",
    "3644": "माण</w>",
    "3645": "अंतर</w>",
    "3646": "संशो",
    "3647": "वेयर</w>",
    "3648": "अच्छा</w>",
    "3649": "धीरे</w>",
    "3650": "ath",
    "3651": "ग्रंथ</w>",
    "3652": "60</w>",
    "3653": "मानव",
    "3654": "चर्च</w>",
    "3655": "सम्मे",
    "3656": "lin",
    "3657": "तथ्य</w>",
    "3658": "ब्रिटेन</w>",
    "3659": "नाइटेड</w>",
    "3660": "देना</w>",
    "3661": "बढ़</w>",
    "3662": "ध्रप्रदेश</w>",
    "3663": "ऑपरे",
    "3664": "परिचय</w>",
    "3665": "हमेशा</w>",
    "3666": "एपि",
    "3667": "ंसी</w>",
    "3668": "आन्ध्रप्रदेश</w>",
    "3669": "प्रीम",
    "3670": "वर्गी",
    "3671": "चाहिए</w>",
    "3672": "रियर</w>",
    "3673": "साह",
    "3674": "क्ला",
    "3675": "(H",
    "3676": "NIC</w>",
    "3677": "sh",
    "3678": "शारीरिक</w>",
    "3679": "आया</w>",
    "3680": "प्राथमिक</w>",
    "3681": "एन</w>",
    "3682": "वेबसाइट।</w>",
    "3683": "पद्ध",
    "3684": "सामान्य",
    "3685": "मानसिक</w>",
    "3686": "अंतरि",
    "3687": "व्यापार",
    "3688": "शोध</w>",
    "3689": "गुप्त</w>",
    "3690": "हमला</w>",
    "3691": "अंदर</w>",
    "3692": "लाया</w>",
    "3693": "कारात्मक</w>",
    "3694": "नामित</w>",
    "3695": "किंतु</w>",
    "3696": "स्थितियों</w>",
    "3697": "आं",
    "3698": "बंधित</w>",
    "3699": "निंग</w>",
    "3700": "निकट</w>",
    "3701": "शिव",
    "3702": "सम्राट</w>",
    "3703": "जैन</w>",
    "3704": "यम</w>",
    "3705": "मनुष्य</w>",
    "3706": "जनक</w>",
    "3707": "पत्रिका</w>",
    "3708": "प्रयुक्त</w>",
    "3709": "g</w>",
    "3710": "इयों</w>",
    "3711": "ध्व",
    "3712": "क्ट</w>",
    "3713": "ंगे</w>",
    "3714": "ंदा</w>",
    "3715": "अस्ति",
    "3716": "उसमें</w>",
    "3717": "साक्ष",
    "3718": "पंजाब</w>",
    "3719": "An",
    "3720": "लेजर</w>",
    "3721": "अधिकारियों</w>",
    "3722": "बेहतर</w>",
    "3723": "परंपर",
    "3724": "(W",
    "3725": "चाहते</w>",
    "3726": "टने</w>",
    "3727": ".)</w>",
    "3728": "वाणि",
    "3729": "उपचार</w>",
    "3730": "अट",
    "3731": "ध्रु",
    "3732": "{\\frac</w>",
    "3733": "क्ष्",
    "3734": "लिखी</w>",
    "3735": "ईसा</w>",
    "3736": "बॉल</w>",
    "3737": "श्व",
    "3738": "हस्ता",
    "3739": "विषयों</w>",
    "3740": "ep",
    "3741": "हुआ,</w>",
    "3742": "पंच",
    "3743": "उपकरण</w>",
    "3744": "as</w>",
    "3745": "अब्",
    "3746": "200</w>",
    "3747": "एकमात्र</w>",
    "3748": "दातर</w>",
    "3749": "चारों</w>",
    "3750": "पत्थ",
    "3751": "कभी-कभी</w>",
    "3752": "पेश</w>",
    "3753": "सूस</w>",
    "3754": "हथ",
    "3755": "स्ट्री",
    "3756": "परंपरा</w>",
    "3757": "मिली</w>",
    "3758": "१९६",
    "3759": "ट्रि",
    "3760": "सरा",
    "3761": "29</w>",
    "3762": "म्यू",
    "3763": "नायक</w>",
    "3764": "मधु",
    "3765": "ंज",
    "3766": "प,</w>",
    "3767": "कठि",
    "3768": "नम",
    "3769": "du",
    "3770": "औद्योगिक</w>",
    "3771": "बोली</w>",
    "3772": "औपचारिक</w>",
    "3773": "उपभो",
    "3774": "D</w>",
    "3775": "गुण</w>",
    "3776": "हेड",
    "3777": "9)</w>",
    "3778": "ran",
    "3779": "ाई</w>",
    "3780": "सुरक्षित</w>",
    "3781": "नैतिक</w>",
    "3782": "शंकर</w>",
    "3783": "ff",
    "3784": "सायिक</w>",
    "3785": "मुख्यमंत्री</w>",
    "3786": "यूनिवर्",
    "3787": "सेन</w>",
    "3788": "बू</w>",
    "3789": "तुम</w>",
    "3790": "जिनका</w>",
    "3791": "ख्यात</w>",
    "3792": "संस्थाप",
    "3793": "गढ</w>",
    "3794": "सके।</w>",
    "3795": "बाँ",
    "3796": "यू</w>",
    "3797": "करी</w>",
    "3798": "आचार्य</w>",
    "3799": "अभियान</w>",
    "3800": "म)</w>",
    "3801": "इत्या",
    "3802": "एकल</w>",
    "3803": "रखते</w>",
    "3804": "२०</w>",
    "3805": "लड़ाई</w>",
    "3806": "समर्पित</w>",
    "3807": "सुन",
    "3808": "जर्",
    "3809": "परंतु</w>",
    "3810": "पार्क</w>",
    "3811": "न\"</w>",
    "3812": "पशु",
    "3813": "शोक</w>",
    "3814": "ँ।</w>",
    "3815": "कल्पना</w>",
    "3816": "धर</w>",
    "3817": "चैम्पियनशिप</w>",
    "3818": "संख्या",
    "3819": "ईसाई</w>",
    "3820": "न्याय</w>",
    "3821": "कटि",
    "3822": "इमार",
    "3823": "परिणामस्वरूप</w>",
    "3824": "जर्मनी</w>",
    "3825": "सहयोग</w>",
    "3826": "सारे</w>",
    "3827": "खाने</w>",
    "3828": "रोध</w>",
    "3829": "नामांकन</w>",
    "3830": "3-",
    "3831": "विमान</w>",
    "3832": "इंजीनिय",
    "3833": "वेस्ट",
    "3834": "188",
    "3835": "ud",
    "3836": "कोर",
    "3837": "भागों</w>",
    "3838": "जिनके</w>",
    "3839": "a,</w>",
    "3840": "जोर</w>",
    "3841": "मानों</w>",
    "3842": "Arch",
    "3843": "eg",
    "3844": "रहे",
    "3845": "गतिविधियों</w>",
    "3846": "माउ",
    "3847": "वाहिक</w>",
    "3848": "उच्च",
    "3849": "गैस</w>",
    "3850": "वुड</w>",
    "3851": "जुन</w>",
    "3852": "टिव</w>",
    "3853": "णु</w>",
    "3854": "झु",
    "3855": "हरी</w>",
    "3856": "ए.</w>",
    "3857": "गृ",
    "3858": "यंत्र</w>",
    "3859": "गाय",
    "3860": "ऑनलाइन</w>",
    "3861": "बिज",
    "3862": "सूर्य</w>",
    "3863": "सॉफ्",
    "3864": "न्ना</w>",
    "3865": "काउं",
    "3866": "घोषित</w>",
    "3867": "स्थाना",
    "3868": "सर्वाधिक</w>",
    "3869": "जान</w>",
    "3870": "रिस</w>",
    "3871": "E</w>",
    "3872": "omp",
    "3873": "मांग</w>",
    "3874": "ग्रामीण</w>",
    "3875": "ियम</w>",
    "3876": "धिकार</w>",
    "3877": "ए-",
    "3878": "नक्",
    "3879": "डॉ॰</w>",
    "3880": "आईसीसी</w>",
    "3881": "नष्ट</w>",
    "3882": "वरों</w>",
    "3883": "डियम</w>",
    "3884": "प्रीमियर</w>",
    "3885": "चक</w>",
    "3886": "टिल</w>",
    "3887": "co",
    "3888": "ल्ल",
    "3889": "राशि</w>",
    "3890": "अंग्रेज़ी</w>",
    "3891": "ंगे",
    "3892": "सिक्",
    "3893": "समझौ",
    "3894": "१०",
    "3895": "िलों</w>",
    "3896": "बने",
    "3897": "टिप्प",
    "3898": "ेश</w>",
    "3899": "महत्व</w>",
    "3900": "2-",
    "3901": "॰बी",
    "3902": "झा</w>",
    "3903": "एलि",
    "3904": "त।</w>",
    "3905": "वहीं</w>",
    "3906": "गंभीर</w>",
    "3907": "वातावरण</w>",
    "3908": "समूहों</w>",
    "3909": "ढ़ी</w>",
    "3910": "मस्ति",
    "3911": "संक्षेप</w>",
    "3912": "पृष्ठ",
    "3913": "0.",
    "3914": "धारणा</w>",
    "3915": "स्ते</w>",
    "3916": "औष",
    "3917": "चुना</w>",
    "3918": "खी",
    "3919": "विवे",
    "3920": "'s</w>",
    "3921": "आरोप</w>",
    "3922": "मानी</w>",
    "3923": "भौतिक</w>",
    "3924": "क्रिके",
    "3925": "र्घ",
    "3926": "रूपा",
    "3927": "निवास</w>",
    "3928": "भाषित</w>",
    "3929": "इलेक्ट्रॉ",
    "3930": "दृष्टिकोण</w>",
    "3931": "जिम्मे",
    "3932": "क्लो",
    "3933": "म-",
    "3934": "मंत्रा",
    "3935": "डिजाइन</w>",
    "3936": "अंतरिक्ष</w>",
    "3937": "हरि",
    "3938": "ुदा</w>",
    "3939": "अना",
    "3940": "किया",
    "3941": "लगे</w>",
    "3942": "लती</w>",
    "3943": "टी,</w>",
    "3944": "दिवसीय</w>",
    "3945": "अस्तित्व</w>",
    "3946": "सोविय",
    "3947": "प्रतिक्रिया</w>",
    "3948": "ऑफिस</w>",
    "3949": "हमारे</w>",
    "3950": "डेटा</w>",
    "3951": "तत्व",
    "3952": "ंचर</w>",
    "3953": "मेल</w>",
    "3954": "मैदान</w>",
    "3955": "आक्रमण</w>",
    "3956": "लम्",
    "3957": "व्यक्त</w>",
    "3958": "किनारे</w>",
    "3959": "यद्य",
    "3960": "लाह",
    "3961": "str",
    "3962": "निदेश",
    "3963": "ऑस्ट्रेल",
    "3964": "केरल</w>",
    "3965": "[उद्धरण</w>",
    "3966": "रिपोर्ट</w>",
    "3967": "तीसरे</w>",
    "3968": "लगाने</w>",
    "3969": "बम</w>",
    "3970": "पाइ",
    "3971": "शिकार</w>",
    "3972": "त्कार</w>",
    "3973": "व्याख्या</w>",
    "3974": "प्रभाव",
    "3975": "पैरा",
    "3976": "शुल्",
    "3977": "बर्ग</w>",
    "3978": "डो</w>",
    "3979": "निवेश",
    "3980": "माइक्रो",
    "3981": "अफ",
    "3982": "पश्चात</w>",
    "3983": "प्रचार</w>",
    "3984": "न्व",
    "3985": "खों</w>",
    "3986": "आवश्यक",
    "3987": "गणि",
    "3988": "पीटर</w>",
    "3989": "भार</w>",
    "3990": "क़ा",
    "3991": "ग्राहक</w>",
    "3992": "दूध</w>",
    "3993": "तेजी</w>",
    "3994": "आयोजन</w>",
    "3995": "पाई</w>",
    "3996": "लोकसभा</w>",
    "3997": "पर्यावरण</w>",
    "3998": "नर",
    "3999": "बेटे</w>",
    "4000": "सर्वोच्च</w>",
    "4001": "लेखि",
    "4002": "तेल</w>",
    "4003": "ियो</w>",
    "4004": "वासी</w>",
    "4005": "मंदि",
    "4006": "पारी</w>",
    "4007": "गणराज्य</w>",
    "4008": "अनुमान</w>",
    "4009": "शिल्",
    "4010": "sp",
    "4011": "सिर</w>",
    "4012": "संग्रहा",
    "4013": "रखता</w>",
    "4014": "ew</w>",
    "4015": "॰ऍस",
    "4016": "न॰</w>",
    "4017": "पुष्टि</w>",
    "4018": "कोरिया</w>",
    "4019": "सौर</w>",
    "4020": "विश्लेषण</w>",
    "4021": "ज्यादातर</w>",
    "4022": "संस्कृ",
    "4023": "अंततः</w>",
    "4024": "ऊंचा",
    "4025": "विकल्",
    "4026": "सम्बन्ध</w>",
    "4027": "दिखाया</w>",
    "4028": "ity</w>",
    "4029": "॰ऍन॰</w>",
    "4030": "तमिल",
    "4031": "II",
    "4032": "गुजरात</w>",
    "4033": "नता</w>",
    "4034": "गुप्",
    "4035": "इतिहास",
    "4036": "तत्कालीन</w>",
    "4037": "अधीन</w>",
    "4038": "श्या",
    "4039": "विद्युत</w>",
    "4040": "क्षेत्रीय</w>",
    "4041": "संचालन</w>",
    "4042": "गा,</w>",
    "4043": "होगा</w>",
    "4044": "मैक",
    "4045": "ध्वन",
    "4046": "ट्रेन</w>",
    "4047": "आई॰ऍस",
    "4048": "आई॰ऍस॰बी",
    "4049": "आई॰ऍस॰बी॰ऍन॰</w>",
    "4050": "श्रीलंका</w>",
    "4051": "अनुकू",
    "4052": "डिजि",
    "4053": "फ़रवरी</w>",
    "4054": "राजवंश</w>",
    "4055": "प्रसारित</w>",
    "4056": "प्रस्ताव</w>",
    "4057": "आलोचना</w>",
    "4058": "में।</w>",
    "4059": "तल",
    "4060": "दिख",
    "4061": "शिक्षा",
    "4062": "ड्रो",
    "4063": "मील</w>",
    "4064": "जुड़ा</w>",
    "4065": "24",
    "4066": "बनाई</w>",
    "4067": "er)</w>",
    "4068": "फायर</w>",
    "4069": "−</w>",
    "4070": "गार</w>",
    "4071": "विद्वा",
    "4072": "स्क्र",
    "4073": "मुसल",
    "4074": "पे</w>",
    "4075": "गये।</w>",
    "4076": "नुक",
    "4077": "दिल</w>",
    "4078": "य-",
    "4079": "सितम्बर</w>",
    "4080": "विन</w>",
    "4081": "प्रकट</w>",
    "4082": "धारावाहिक</w>",
    "4083": "नियंत्रित</w>",
    "4084": "our",
    "4085": "पुर्त",
    "4086": "अशोक</w>",
    "4087": "कैं",
    "4088": "निर्देशन</w>",
    "4089": "ली।</w>",
    "4090": "क्षर</w>",
    "4091": "ंति",
    "4092": "नरे",
    "4093": "3.",
    "4094": "वती</w>",
    "4095": "डबल",
    "4096": "माल",
    "4097": "सीधे</w>",
    "4098": "संतु",
    "4099": "रोज़</w>",
    "4100": "मस</w>",
    "4101": "आपको</w>",
    "4102": "चुकी</w>",
    "4103": "पुरुषों</w>",
    "4104": "वली</w>",
    "4105": "रूसी</w>",
    "4106": "वर्णित</w>",
    "4107": "परिवहन</w>",
    "4108": "मिलने</w>",
    "4109": "एयर</w>",
    "4110": "ory</w>",
    "4111": "30",
    "4112": "संस्था</w>",
    "4113": "बिल्",
    "4114": "जातीय</w>",
    "4115": "एसो",
    "4116": "हैरी</w>",
    "4117": "डैविल</w>",
    "4118": "वेब</w>",
    "4119": "सम्मि",
    "4120": "विपरीत</w>",
    "4121": "मानता</w>",
    "4122": "वनडे</w>",
    "4123": "टक</w>",
    "4124": "पर्व",
    "4125": "ay",
    "4126": "शॉ",
    "4127": "मस्तिष्क</w>",
    "4128": "२०१४</w>",
    "4129": "शांत</w>",
    "4130": "कार्यालय</w>",
    "4131": "धर",
    "4132": "लेन",
    "4133": "मैरी",
    "4134": "डियो",
    "4135": "ज़े",
    "4136": "किंग",
    "4137": "2003</w>",
    "4138": "नगर",
    "4139": "॥</w>",
    "4140": "१९३",
    "4141": "स्वर्ण</w>",
    "4142": "सोवियत</w>",
    "4143": "देन</w>",
    "4144": "कविता</w>",
    "4145": "टो</w>",
    "4146": "संपत्ति</w>",
    "4147": "ते।</w>",
    "4148": "कैरियर</w>",
    "4149": "स्व</w>",
    "4150": "2001</w>",
    "4151": "ant",
    "4152": "हस्त",
    "4153": "तुर",
    "4154": "गांधी</w>",
    "4155": "वस्तुओं</w>",
    "4156": "संगीत",
    "4157": "तापमान</w>",
    "4158": "1}",
    "4159": "ताब",
    "4160": "पाँच</w>",
    "4161": "समे</w>",
    "4162": "प्रचलित</w>",
    "4163": "2002</w>",
    "4164": "सप्ताह</w>",
    "4165": "खी</w>",
    "4166": "शास्त्रीय</w>",
    "4167": "पाठ</w>",
    "4168": "याद",
    "4169": "बीसी</w>",
    "4170": "तारा",
    "4171": "बेटी</w>",
    "4172": "विज्ञापन</w>",
    "4173": "पब्",
    "4174": "कारण,</w>",
    "4175": "मेज",
    "4176": "ठाकु",
    "4177": "कप्",
    "4178": "कल्या",
    "4179": "राजा",
    "4180": "उन्होने</w>",
    "4181": "(T",
    "4182": "एकी",
    "4183": "p</w>",
    "4184": "1990</w>",
    "4185": "रेडियो</w>",
    "4186": "रा,</w>",
    "4187": "यद्यपि</w>",
    "4188": "क्रियाओं</w>",
    "4189": "ग्रन्थ</w>",
    "4190": "(अ",
    "4191": "सूक्ष्",
    "4192": "फ़्",
    "4193": "रासाय",
    "4194": "दबाव</w>",
    "4195": "मैनह",
    "4196": "बृहस्पति</w>",
    "4197": "छात्रों</w>",
    "4198": "मजबूत</w>",
    "4199": "ah",
    "4200": "प्रभावी</w>",
    "4201": "केंद्रित</w>",
    "4202": "प्रतीक</w>",
    "4203": "है-</w>",
    "4204": "विवाद</w>",
    "4205": "व्यावसायिक</w>",
    "4206": "मेह",
    "4207": "st</w>",
    "4208": "रचना",
    "4209": "स्वि",
    "4210": "ज्योति",
    "4211": "तेलु",
    "4212": "भट्",
    "4213": "हाई</w>",
    "4214": "शय</w>",
    "4215": "आरंभ</w>",
    "4216": "निकट",
    "4217": "बावजूद</w>",
    "4218": "(G",
    "4219": "वर्मा</w>",
    "4220": "न्</w>",
    "4221": "न्यायाधी",
    "4222": "2}",
    "4223": "चाहिए]</w>",
    "4224": "नपुर</w>",
    "4225": "प्रसारण</w>",
    "4226": "लंबे</w>",
    "4227": "पसंद</w>",
    "4228": "परिभाषित</w>",
    "4229": "ib",
    "4230": "ec",
    "4231": "पर्वत</w>",
    "4232": "क्सि",
    "4233": "बाल",
    "4234": "अर्थात्</w>",
    "4235": "डिजिटल</w>",
    "4236": "पंड",
    "4237": "ंदु</w>",
    "4238": "चेन्",
    "4239": "सानी</w>",
    "4240": "यूनाइटेड</w>",
    "4241": "जम्",
    "4242": "जीवन",
    "4243": "त्मा</w>",
    "4244": "सी,</w>",
    "4245": "द्वार</w>",
    "4246": "प्रधानमंत्री</w>",
    "4247": "वृत्त</w>",
    "4248": "पहुँच",
    "4249": "हान</w>",
    "4250": "नाय",
    "4251": "दर्ज</w>",
    "4252": "लागत</w>",
    "4253": "निर",
    "4254": "टू</w>",
    "4255": "सकों</w>",
    "4256": "मस्",
    "4257": "पाने</w>",
    "4258": "8-",
    "4259": "घु</w>",
    "4260": "मल</w>",
    "4261": "च्छे",
    "4262": "लिमि",
    "4263": "सूर",
    "4264": "छू",
    "4265": "समारो",
    "4266": "उनसे</w>",
    "4267": "चाहता</w>",
    "4268": "१९४",
    "4269": "(R",
    "4270": "गाने</w>",
    "4271": "बराबर</w>",
    "4272": "ताप</w>",
    "4273": "कुल",
    "4274": "अंक</w>",
    "4275": "ऊँ",
    "4276": "ईश्वर</w>",
    "4277": "अग्",
    "4278": "एपिसो",
    "4279": "वेंचर</w>",
    "4280": "W)</w>",
    "4281": "वं",
    "4282": "पल</w>",
    "4283": "करण",
    "4284": "मुख्यतः</w>",
    "4285": "पांड",
    "4286": "हल</w>",
    "4287": "चलने</w>",
    "4288": "्स</w>",
    "4289": "विष्णु</w>",
    "4290": "पुर्तगा",
    "4291": "घाटी</w>",
    "4292": "रत्",
    "4293": "लखन",
    "4294": "सेना",
    "4295": "त्म</w>",
    "4296": "भौगो",
    "4297": "रिश्",
    "4298": "करवा",
    "4299": "सूचित</w>",
    "4300": "प्रायः</w>",
    "4301": "कानूनी</w>",
    "4302": "जेल</w>",
    "4303": "फ़ी</w>",
    "4304": "तीसरा</w>",
    "4305": "50",
    "4306": "क्रमश",
    "4307": "टरी</w>",
    "4308": "रासायनिक</w>",
    "4309": "ध्य",
    "4310": "मय</w>",
    "4311": "कंपनियों</w>",
    "4312": "विरोधी</w>",
    "4313": "उत्पत्ति</w>",
    "4314": "by</w>",
    "4315": "प्रतिस्पर्",
    "4316": "झे</w>",
    "4317": "चिह्",
    "4318": "किशो",
    "4319": "26",
    "4320": "तर्क</w>",
    "4321": "न्याय",
    "4322": "देखते</w>",
    "4323": "दया",
    "4324": "क्रिप्",
    "4325": "उपस्थिति</w>",
    "4326": "मेजबा",
    "4327": "वही</w>",
    "4328": "मिनट</w>",
    "4329": "(अंग्रेज़ी:</w>",
    "4330": "अस्पताल</w>",
    "4331": "oc",
    "4332": "स्टू",
    "4333": "अच्छे</w>",
    "4334": "अम्",
    "4335": "तेज</w>",
    "4336": "सह-",
    "4337": "Archiv",
    "4338": "सिस्टम</w>",
    "4339": "राजनीति",
    "4340": "तीव",
    "4341": "लेट</w>",
    "4342": "(202",
    "4343": "सव</w>",
    "4344": "नम</w>",
    "4345": "हृदय</w>",
    "4346": "अल्प",
    "4347": "शुद्ध</w>",
    "4348": "आरम्भ</w>",
    "4349": "गयी।</w>",
    "4350": "ob",
    "4351": "ं.</w>",
    "4352": "अदा",
    "4353": "चली</w>",
    "4354": "ोस</w>",
    "4355": "इड</w>",
    "4356": "सम्मेलन</w>",
    "4357": "मुद्रा",
    "4358": "मार्शल</w>",
    "4359": "पाय",
    "4360": "दोष</w>",
    "4361": ":-</w>",
    "4362": "षी</w>",
    "4363": "L</w>",
    "4364": "डेबिट</w>",
    "4365": "विद्रो",
    "4366": "कर्म</w>",
    "4367": "जाय",
    "4368": "महाराज</w>",
    "4369": "ंपरा",
    "4370": "ect",
    "4371": "लघु</w>",
    "4372": "पूर्ण",
    "4373": "मिथ",
    "4374": "षा",
    "4375": "संत</w>",
    "4376": "ंतर</w>",
    "4377": "मैचों</w>",
    "4378": "एसोसिए",
    "4379": "क्य</w>",
    "4380": "वि</w>",
    "4381": "किरदार</w>",
    "4382": "कू</w>",
    "4383": "चौध",
    "4384": "तिया",
    "4385": "जनरल</w>",
    "4386": "क्रांति</w>",
    "4387": "विचारों</w>",
    "4388": "त्सा",
    "4389": "संग्रहालय</w>",
    "4390": "मिया</w>",
    "4391": "मण",
    "4392": "नारायण</w>",
    "4393": "वितरण</w>",
    "4394": "फैसला</w>",
    "4395": "बेल</w>",
    "4396": "विकेट</w>",
    "4397": "तारा</w>",
    "4398": "स्टन</w>",
    "4399": "पक्षी</w>",
    "4400": "डब्लू</w>",
    "4401": "ध्वनि</w>",
    "4402": "•</w>",
    "4403": "उंड</w>",
    "4404": "स्नातक</w>",
    "4405": "भौगोलिक</w>",
    "4406": "नुकसान</w>",
    "4407": "तन्त्र</w>",
    "4408": "पुराना</w>",
    "4409": "चर्चा</w>",
    "4410": "जाग",
    "4411": "ला।</w>",
    "4412": "आयरलैंड</w>",
    "4413": "बिन</w>",
    "4414": "मैरीलैंड</w>",
    "4415": "साइड</w>",
    "4416": "फ़्री",
    "4417": "बैं",
    "4418": "शहरों</w>",
    "4419": "ब्लै",
    "4420": "बिल</w>",
    "4421": "ंतरित</w>",
    "4422": "चिं",
    "4423": "कान</w>",
    "4424": "रसा",
    "4425": "31</w>",
    "4426": "दर्भ",
    "4427": "त.</w>",
    "4428": "मूर्ति</w>",
    "4429": "आंतर",
    "4430": "ती,</w>",
    "4431": "निग",
    "4432": "पदार्थ",
    "4433": "महल</w>",
    "4434": "बाजी</w>",
    "4435": "ताएं</w>",
    "4436": "वल",
    "4437": "हद</w>",
    "4438": "भेद</w>",
    "4439": "अंग</w>",
    "4440": "वोल्",
    "4441": "कम्",
    "4442": "इंजन</w>",
    "4443": "ens",
    "4444": "पैमाने</w>",
    "4445": "पेशे",
    "4446": "लीवुड</w>",
    "4447": "क्रू",
    "4448": "न्यूजी",
    "4449": "हरिया",
    "4450": "लिखे</w>",
    "4451": "आखि",
    "4452": "निकल</w>",
    "4453": "संभावना</w>",
    "4454": "pl",
    "4455": "पथ</w>",
    "4456": "हिक</w>",
    "4457": "oun",
    "4458": "500</w>",
    "4459": "अधिकतर</w>",
    "4460": "परिसर</w>",
    "4461": "इट",
    "4462": "कें</w>",
    "4463": "अनुया",
    "4464": "प्रांत</w>",
    "4465": "कीर्",
    "4466": "ट्वें",
    "4467": "ताल",
    "4468": "टबॉल</w>",
    "4469": "मिन</w>",
    "4470": "१०</w>",
    "4471": "ही,</w>",
    "4472": "टेल</w>",
    "4473": "दंड</w>",
    "4474": "विरा",
    "4475": "तार",
    "4476": "नियमों</w>",
    "4477": "महसूस</w>",
    "4478": "कव",
    "4479": "दन</w>",
    "4480": "गई",
    "4481": "दिया",
    "4482": "जानी</w>",
    "4483": "मग",
    "4484": "फोर्",
    "4485": "खेला</w>",
    "4486": "हज",
    "4487": "सेवाओं</w>",
    "4488": "पारि",
    "4489": "डेविड</w>",
    "4490": "निवेश</w>",
    "4491": "समीक्षा</w>",
    "4492": "रेशन</w>",
    "4493": "27",
    "4494": "परंपरा",
    "4495": "शुल्क</w>",
    "4496": "ial</w>",
    "4497": "दौरा</w>",
    "4498": "4-",
    "4499": "संस्थापक</w>",
    "4500": "शाह",
    "4501": "व्यवसाय</w>",
    "4502": "मां",
    "4503": "शक्तिशाली</w>",
    "4504": "ऊंचाई</w>",
    "4505": "अंतर्",
    "4506": "्यक</w>",
    "4507": "ish",
    "4508": "आंतरिक</w>",
    "4509": "चेन्नई</w>",
    "4510": "स\"</w>",
    "4511": "C)</w>",
    "4512": "मैनहटन</w>",
    "4513": "अज्ञात</w>",
    "4514": "सिया</w>",
    "4515": "अनुपात</w>",
    "4516": "बल्ले",
    "4517": "सम्मिलित</w>",
    "4518": "सैनिक</w>",
    "4519": "बां",
    "4520": "१९५",
    "4521": "बहन</w>",
    "4522": "ग्रस्त</w>",
    "4523": "चढ़",
    "4524": "पवि",
    "4525": "लैण्ड</w>",
    "4526": "नैनी",
    "4527": "णियों</w>",
    "4528": "S)</w>",
    "4529": "4.",
    "4530": "सैन</w>",
    "4531": "अर्जुन</w>",
    "4532": "एपिसोड</w>",
    "4533": "फर्",
    "4534": "ूप</w>",
    "4535": "युद्ध",
    "4536": "प्रां",
    "4537": "प्रयोग",
    "4538": "\"।</w>",
    "4539": "न्य",
    "4540": "ंडी</w>",
    "4541": "शों</w>",
    "4542": "पाठ्य",
    "4543": "नुसार</w>",
    "4544": "Archived</w>",
    "4545": "बिक्र",
    "4546": "हॉकी</w>",
    "4547": "आए</w>",
    "4548": "त्रियों</w>",
    "4549": "रुद्ध</w>",
    "4550": "कुर्",
    "4551": "):</w>",
    "4552": "स्टै",
    "4553": "दत्त</w>",
    "4554": "आतंक",
    "4555": "डबल्यू</w>",
    "4556": "शैक्ष",
    "4557": "पड़ा।</w>",
    "4558": "देख</w>",
    "4559": "जीता।</w>",
    "4560": "प्रशासन</w>",
    "4561": "s,</w>",
    "4562": "5.",
    "4563": "दी,</w>",
    "4564": "आय</w>",
    "4565": "रेट</w>",
    "4566": "उचित</w>",
    "4567": "वाल्",
    "4568": "द्धि",
    "4569": "स्त्र</w>",
    "4570": "कोलका",
    "4571": "एना",
    "4572": "वायर",
    "4573": "मित्र</w>",
    "4574": "बुद्धि</w>",
    "4575": "उपाधि</w>",
    "4576": "तकनीक</w>",
    "4577": "गंज</w>",
    "4578": "परीक्षा</w>",
    "4579": "एक-",
    "4580": "आग</w>",
    "4581": "मार्क</w>",
    "4582": "इल</w>",
    "4583": "भविष्य</w>",
    "4584": "wi",
    "4585": "1.</w>",
    "4586": "अधिकारों</w>",
    "4587": "विष्",
    "4588": "टरों</w>",
    "4589": "बीज</w>",
    "4590": "सुन्",
    "4591": "दीर्घ",
    "4592": "मेडि",
    "4593": "कलाकारों</w>",
    "4594": "शिला",
    "4595": "वर्ड</w>",
    "4596": "णी",
    "4597": "ट्री</w>",
    "4598": "मछ",
    "4599": "दोस्त</w>",
    "4600": "घन</w>",
    "4601": "विशेषता</w>",
    "4602": "प्रयो",
    "4603": "पद्धति</w>",
    "4604": "बिक्री</w>",
    "4605": "दस्ता",
    "4606": "मोबाइ",
    "4607": "मंत्रालय</w>",
    "4608": "रोमन</w>",
    "4609": "हर्",
    "4610": "असम</w>",
    "4611": "सिन्",
    "4612": "अर्थात</w>",
    "4613": "समझ</w>",
    "4614": "रोध",
    "4615": "मा,</w>",
    "4616": "उच्",
    "4617": "शान</w>",
    "4618": "ष्टा",
    "4619": "2.</w>",
    "4620": "ट्रो</w>",
    "4621": "y,</w>",
    "4622": "तारी",
    "4623": "लाई</w>",
    "4624": "कड",
    "4625": "तना",
    "4626": "नतम</w>",
    "4627": "ट-",
    "4628": "लंबी</w>",
    "4629": "प्रमाण</w>",
    "4630": "ers</w>",
    "4631": "समस्याओं</w>",
    "4632": "ब्यू",
    "4633": "अधिकतम</w>",
    "4634": "डोर</w>",
    "4635": "बीएम",
    "4636": "कैल",
    "4637": "मुरा",
    "4638": "श,</w>",
    "4639": "28",
    "4640": "ओं,</w>",
    "4641": "सुझा",
    "4642": "मानना</w>",
    "4643": "187",
    "4644": "de</w>",
    "4645": "परमाण",
    "4646": "अभिगमन</w>",
    "4647": "रेखांश</w>",
    "4648": "आयुर्वेद</w>",
    "4649": "रोगी</w>",
    "4650": "शायद</w>",
    "4651": "2022</w>",
    "4652": "क्रमों</w>",
    "4653": "बस",
    "4654": "बहादु",
    "4655": "ज़ार</w>",
    "4656": "शुरू",
    "4657": "वैश्",
    "4658": "माता-",
    "4659": "साथी</w>",
    "4660": "संहि",
    "4661": "वेबैक</w>",
    "4662": "इलाज</w>",
    "4663": "बिंदु</w>",
    "4664": "साक्षा",
    "4665": "निदेशक</w>",
    "4666": "ज़्",
    "4667": "क्लि",
    "4668": "रखा।</w>",
    "4669": "मिला।</w>",
    "4670": "ंतरण</w>",
    "4671": "अपेक्षा",
    "4672": "तुर्की</w>",
    "4673": "चुने</w>",
    "4674": "प्राप्ति</w>",
    "4675": "A)</w>",
    "4676": "मिलते</w>",
    "4677": "गाह</w>",
    "4678": "ंत्रिक</w>",
    "4679": "नैनीताल</w>",
    "4680": "अमरी",
    "4681": "97",
    "4682": "णन</w>",
    "4683": "सिंह",
    "4684": "कनाडा</w>",
[...]
